{"0":"\u0100","1":"\u0101","2":"\u0102","3":"\u0103","4":"\u0104","5":"\u0105","6":"\u0106","7":"\u0107","8":"\u0108","9":"\u0109","10":"\u010a","11":"\u010b","12":"\u010c","13":"\u010d","14":"\u010e","15":"\u010f","16":"\u0110","17":"\u0111","18":"\u0112","19":"\u0113","20":"\u0114","21":"\u0115","22":"\u0116","23":"\u0117","24":"\u0118","25":"\u0119","26":"\u011a","27":"\u011b","28":"\u011c","29":"\u011d","30":"\u011e","31":"\u011f","32":"\u0120","33":"!","34":"\"","35":"#","36":"$","37":"%","38":"&","39":"'","40":"(","41":")","42":"*","43":"+","44":",","45":"-","46":".","47":"/","48":"0","49":"1","50":"2","51":"3","52":"4","53":"5","54":"6","55":"7","56":"8","57":"9","58":":","59":";","60":"<","61":"=","62":">","63":"?","64":"@","65":"A","66":"B","67":"C","68":"D","69":"E","70":"F","71":"G","72":"H","73":"I","74":"J","75":"K","76":"L","77":"M","78":"N","79":"O","80":"P","81":"Q","82":"R","83":"S","84":"T","85":"U","86":"V","87":"W","88":"X","89":"Y","90":"Z","91":"[","92":"\\","93":"]","94":"^","95":"_","96":"`","97":"a","98":"b","99":"c","100":"d","101":"e","102":"f","103":"g","104":"h","105":"i","106":"j","107":"k","108":"l","109":"m","110":"n","111":"o","112":"p","113":"q","114":"r","115":"s","116":"t","117":"u","118":"v","119":"w","120":"x","121":"y","122":"z","123":"{","124":"|","125":"}","126":"~","127":"\u0121","128":"\u0122","129":"\u0123","130":"\u0124","131":"\u0125","132":"\u0126","133":"\u0127","134":"\u0128","135":"\u0129","136":"\u012a","137":"\u012b","138":"\u012c","139":"\u012d","140":"\u012e","141":"\u012f","142":"\u0130","143":"\u0131","144":"\u0132","145":"\u0133","146":"\u0134","147":"\u0135","148":"\u0136","149":"\u0137","150":"\u0138","151":"\u0139","152":"\u013a","153":"\u013b","154":"\u013c","155":"\u013d","156":"\u013e","157":"\u013f","158":"\u0140","159":"\u0141","160":"\u0142","161":"\u00a1","162":"\u00a2","163":"\u00a3","164":"\u00a4","165":"\u00a5","166":"\u00a6","167":"\u00a7","168":"\u00a8","169":"\u00a9","170":"\u00aa","171":"\u00ab","172":"\u00ac","173":"\u0143","174":"\u00ae","175":"\u00af","176":"\u00b0","177":"\u00b1","178":"\u00b2","179":"\u00b3","180":"\u00b4","181":"\u00b5","182":"\u00b6","183":"\u00b7","184":"\u00b8","185":"\u00b9","186":"\u00ba","187":"\u00bb","188":"\u00bc","189":"\u00bd","190":"\u00be","191":"\u00bf","192":"\u00c0","193":"\u00c1","194":"\u00c2","195":"\u00c3","196":"\u00c4","197":"\u00c5","198":"\u00c6","199":"\u00c7","200":"\u00c8","201":"\u00c9","202":"\u00ca","203":"\u00cb","204":"\u00cc","205":"\u00cd","206":"\u00ce","207":"\u00cf","208":"\u00d0","209":"\u00d1","210":"\u00d2","211":"\u00d3","212":"\u00d4","213":"\u00d5","214":"\u00d6","215":"\u00d7","216":"\u00d8","217":"\u00d9","218":"\u00da","219":"\u00db","220":"\u00dc","221":"\u00dd","222":"\u00de","223":"\u00df","224":"\u00e0","225":"\u00e1","226":"\u00e2","227":"\u00e3","228":"\u00e4","229":"\u00e5","230":"\u00e6","231":"\u00e7","232":"\u00e8","233":"\u00e9","234":"\u00ea","235":"\u00eb","236":"\u00ec","237":"\u00ed","238":"\u00ee","239":"\u00ef","240":"\u00f0","241":"\u00f1","242":"\u00f2","243":"\u00f3","244":"\u00f4","245":"\u00f5","246":"\u00f6","247":"\u00f7","248":"\u00f8","249":"\u00f9","250":"\u00fa","251":"\u00fb","252":"\u00fc","253":"\u00fd","254":"\u00fe","255":"\u00ff","256":"<|endoftext|>","257":"\u0120t","258":"\u0120a","259":"he","260":"in","261":"re","262":"\u0120the","263":"on","264":"er","265":"\u0120s","266":"\u0120w","267":"at","268":"\u0120o","269":"en","270":"\u0120c","271":"it","272":"is","273":"an","274":"or","275":"\u0120b","276":"es","277":"ed","278":"\u0120f","279":"ing","280":"\u0120p","281":"ou","282":"\u0120an","283":"al","284":"\u0120to","285":"ar","286":"\u0120m","287":"\u0120in","288":"\u0120of","289":"\u0120h","290":"\u0120d","291":"\u00e2\u0122","292":"as","293":"ic","294":"\u0120and","295":"\u0120th","296":"le","297":"om","298":"ion","299":"ll","300":"ent","301":"\u0120n","302":"\u0120l","303":"\u0120re","304":"st","305":"ve","306":"\u0120e","307":"ly","308":"ro","309":"\u0120be","310":"\u0120g","311":"id","312":"ut","313":"ac","314":"ot","315":"\u0120T","316":"\u0120I","317":"\u0120that","318":"\u0120on","319":"ay","320":"\u0120S","321":"\u0120is","322":"et","323":"im","324":"am","325":"ad","326":"ow","327":"se","328":"ig","329":"\u0120for","330":"\u00e2\u0122\u013b","331":"\u0120A","332":"ver","333":"ur","334":"ct","335":"ld","336":"\u0120C","337":"\u0120u","338":"\u0120st","339":"\u0120y","340":"\u0120it","341":"\u0120he","342":"ir","343":"ation","344":"ith","345":"\u0120wh","346":"\u0120M","347":"ce","348":"ter","349":"ol","350":"\u0120we","351":"il","352":"\u0120with","353":"\u0120as","354":"\u0120B","355":"ch","356":"ill","357":"nd","358":"\u0120P","359":"\u0120was","360":"ers","361":"\u0120you","362":"ke","363":"\u0120\u00e2\u0122","364":"\u0120con","365":"\u0120de","366":"\u0120r","367":"her","368":"if","369":"ate","370":"ag","371":"\u0120at","372":"\u0120ha","373":"\u0120W","374":"\u0120se","375":"\u0120H","376":"ore","377":"\u0120pro","378":"ul","379":"pp","380":"ment","381":"ri","382":"\u0120are","383":"\u0120D","384":"\u01201","385":"us","386":"est","387":"ist","388":"\u0120com","389":"and","390":"\u0120R","391":"op","392":"ain","393":"\u0120The","394":"\u01202","395":"igh","396":"rom","397":"\u0120(","398":"ort","399":"od","400":"\u0120ne","401":"\u0120F","402":"um","403":"un","404":"\u0120ex","405":"res","406":"ab","407":"\u00e2\u0122\u013f","408":"\u0120not","409":"\u0120N","410":"\u0120v","411":"ess","412":"\u0120have","413":"ity","414":"em","415":"ould","416":"\u0120or","417":"th","418":"\u0120by","419":"os","420":"ant","421":"\u0120G","422":"ive","423":"\u0120from","424":"\u0120al","425":"el","426":"'s","427":"oc","428":"art","429":"\u0120su","430":"\u0120L","431":"\u0120sh","432":"\u0120this","433":"nt","434":"qu","435":"ight","436":"pe","437":"ust","438":"\u0120le","439":"ies","440":"\u0120E","441":"end","442":"\u0120ch","443":"\u0120sa","444":"out","445":"\u0120ab","446":"The","447":"all","448":"ie","449":"ack","450":"red","451":"00","452":"\u0120\u00e2\u0122\u013e","453":"\u0120has","454":"ally","455":"\u0120J","456":"\u0120pl","457":"\u0120go","458":"ard","459":"iv","460":"\u0120his","461":"ome","462":"ap","463":"ost","464":"gh","465":"ear","466":"\u0120O","467":"\u0120tr","468":"our","469":"ast","470":"\u0120j","471":"ak","472":"ud","473":"\u0120do","474":"\u0120they","475":"\u0120but","476":"\u0120wor","477":"rou","478":"\u0120can","479":"ge","480":"\u0120will","481":"\u0120said","482":"\u0120whe","483":"\u0120U","484":"\u0120k","485":"ich","486":"\u0120all","487":"ok","488":"\u0120\"","489":"ide","490":"\u0120who","491":"\u0120int","492":"ame","493":"ans","494":"ther","495":"ial","496":"\u0120out","497":"ff","498":"\u0120their","499":"ong","500":"ect","501":"pl","502":"ice","503":"ure","504":"pt","505":"one","506":"\u0120more","507":"age","508":"ions","509":"act","510":"ike","511":"\u0120me","512":"\u0120up","513":"ous","514":"ine","515":"\u0120ad","516":"\u0120about","517":"ated","518":"ra","519":"ber","520":"\u0120one","521":"\u0120were","522":"\u0120so","523":"\u0120us","524":"ime","525":"og","526":"\u0120K","527":"ep","528":"ia","529":"\u0120had","530":"are","531":"ub","532":"cc","533":"\u0120would","534":"\u0120cl","535":"\u012020","536":"\u0120im","537":"\u0120which","538":"ind","539":"ue","540":"ake","541":"\u0120cont","542":"iz","543":"very","544":"\u0120ag","545":"\u0120te","546":"\u0120off","547":"\u0120comp","548":"\u0120un","549":"\u0120been","550":"\u0120St","551":"so","552":"\u0120en","553":"per","554":"ign","555":"au","556":"\u0120Th","557":"ary","558":"ace","559":"\u0120year","560":"ip","561":"ew","562":"\u0120like","563":"ere","564":"ven","565":"ook","566":"\u0120inc","567":"ays","568":"\u0120man","569":"\u0120pe","570":"ry","571":"ose","572":"\u0120res","573":"able","574":"ite","575":"\u0120per","576":"ass","577":"ord","578":"\u0120sp","579":"ire","580":"\u0120In","581":"\u0120other","582":"mer","583":"\u0120some","584":"ile","585":"ib","586":"ence","587":"ople","588":"\u0120201","589":"ks","590":"ations","591":"\u0120over","592":"ical","593":"\u0120there","594":"ress","595":"\u0120dis","596":"ult","597":"int","598":"\u0120new","599":"own","600":"\u0120also","601":"\u0120than","602":"\u0120ar","603":"\u0120bec","604":"ru","605":"\u0120them","606":"ance","607":"ount","608":"ough","609":"\u0120app","610":"port","611":"ail","612":"\u0120part","613":"\u0120your","614":"\u0120when","615":"ree","616":"\u0120what","617":"orm","618":"ond","619":"\u0120people","620":"fter","621":"\u0120sc","622":"\u0120Ch","623":"av","624":"ase","625":"\u0120qu","626":"\u0120any","627":"\u0120just","628":"\u0120its","629":"\u0120Y","630":"ach","631":"\u0120time","632":"\u0120It","633":"\u0120kn","634":"\u0120her","635":"\u01203","636":"ens","637":"lic","638":"\u0120rec","639":"reat","640":"\u0120my","641":"\u0120get","642":"\u0120if","643":"\u0120V","644":"ian","645":".\u00e2\u0122\u013f","646":"\u0120into","647":"ound","648":"\u0120work","649":"\u0120tw","650":"irst","651":"vel","652":"ction","653":"\u0120no","654":"du","655":"ings","656":"ory","657":"ick","658":"ors","659":"\u0120our","660":"ition","661":"ident","662":"ob","663":"\u0120-","664":"\u0120pre","665":"ove","666":"\u0120play","667":"ang","668":"ink","669":"ause","670":"wn","671":"te","672":"amp","673":"ade","674":"hing","675":"ates","676":"ark","677":"\u0120ro","678":"\u0120pol","679":"\u0120she","680":"vers","681":"\u0120co","682":",\u00e2\u0122\u013f","683":"\u0120after","684":"ne","685":"\u0120first","686":"\u0120could","687":"\u0120how","688":"\u0120He","689":"\u012019","690":"ious","691":"nder","692":"ild","693":"\u0120acc","694":"\u0120him","695":"aw","696":"'t","697":"ons","698":"\u0120po","699":"\u0120only","700":"\u0120fe","701":"\u0120att","702":"ict","703":"hed","704":"\u0120pr","705":"\u0120two","706":"rit","707":"ov","708":"ish","709":"\u0120comm","710":"\u00e2\u0122\u013e","711":"form","712":"\u0120spe","713":"\u0120act","714":"we","715":"erv","716":"\u0120bl","717":"ft","718":"\u0120bet","719":"\u0120dec","720":".\"","721":"ning","722":"\u0120back","723":"\u0120most","724":"ces","725":"ood","726":"ck","727":"\u0120\u00e2\u0122\u0135","728":"\u0120am","729":"oy","730":"\u0120did","731":"rough","732":"iff","733":"ater","734":"round","735":"\u0120again","736":"\u01204","737":"ual","738":"day","739":"ise","740":"\u0120under","741":"\u0120des","742":"\u0120want","743":"ull","744":"sel","745":"\u0120cons","746":"\u0120\u00e2\u0122\u0136","747":"..","748":"\u0120because","749":"\u0120now","750":"lud","751":"ents","752":"\u0120years","753":"man","754":"tern","755":"ublic","756":"ec","757":"\u0120need","758":"\u0120even","759":"\u0120$","760":"iss","761":"\u0120inv","762":"\u0120know","763":"\u0120We","764":"\u0120see","765":"ments","766":"ced","767":"\u0120add","768":",\"","769":"ting","770":"old","771":"\u0120ind","772":"\u0120sec","773":"fore","774":"uch","775":"\u0120every","776":"urn","777":"\u01205","778":"\u0120supp","779":"\u0120make","780":"pect","781":"\u0120Un","782":"\u0120em","783":"\u0120these","784":"ock","785":"oll","786":"\u0120where","787":"ject","788":"In","789":"ational","790":"vern","791":"xt","792":"\u0120bu","793":"\u0120look","794":"Th","795":"\u0120And","796":"oss","797":"\u0120don","798":"\u0120ev","799":"ump","800":"ating","801":"\u0120way","802":"\u0120being","803":"\u0120rem","804":"\u0120right","805":"ily","806":"\u0120may","807":"ng","808":"row","809":"lect","810":"iew","811":"\u0120then","812":"\u0120many","813":"\u0120[","814":"\u0120diff","815":"\u0120def","816":"ason","817":"\u0120rel","818":"\u0120call","819":"\u0120But","820":"\u0120Tr","821":"ont","822":"ied","823":"les","824":"ased","825":"\u0120includ","826":"\u0120think","827":"aking","828":"\u0120reg","829":").","830":"meric","831":"\u0120imp","832":"\u0120through","833":"ath","834":"ited","835":"rib","836":"\u0120sy","837":"\u0120should","838":"\u0120pres","839":"\u0120say","840":"ell","841":"\u0120fl","842":"uring","843":"\u0120last","844":"\u0120those","845":"ower","846":"\u0120very","847":"ty","848":"other","849":"\u0120much","850":"ities","851":"ific","852":"\u0120state","853":"\u0120This","854":"ative","855":"\u0120show","856":"tle","857":"hen","858":"\u0120br","859":"ss","860":"arg","861":"\u0120well","862":"oth","863":"\u0120ph","864":"\u0120Wh","865":"\u0120count","866":"als","867":"und","868":"\u0120200","869":"\u0120does","870":"\u0120down","871":"\u0120own","872":"arly","873":"\u0120end","874":"\u0120ass","875":"\u0120bel","876":"\u0120use","877":"ics","878":"ange","879":"--","880":"ts","881":"\u0120long","882":"\u0120Americ","883":"ters","884":"ince","885":"\u0120before","886":"omet","887":"gr","888":"\u0120mon","889":"ward","890":"\u0120govern","891":"\u0120start","892":"\u0120report","893":"ible","894":"\u0120ke","895":"up","896":"ues","897":"\u0120New","898":"\u0120fin","899":"\u0120team","900":"ble","901":"\u0120made","902":"ife","903":"olog","904":"ener","905":"),","906":"\u0120such","907":"ren","908":"com","909":"oun","910":"erson","911":"ek","912":"ix","913":"\u0120sm","914":"\u00e2\u0122\u0136","915":"lp","916":"ility","917":"\u0120going","918":"ism","919":"ful","920":"\u0120world","921":"ually","922":"\u0120stud","923":"ists","924":"\u0120good","925":"\u0120ac","926":"tain","927":"It","928":"\u0120sub","929":"\u0120eff","930":"\u0120sur","931":"\u0120against","932":"its","933":"\u0120game","934":"\u0120set","935":"ork","936":"\u01206","937":"\u0120gu","938":"\u0120point","939":"\u0120ent","940":"ys","941":"000","942":"gan","943":"ars","944":"li","945":"stem","946":"\u0120prov","947":"\u0120still","948":"roup","949":"\u0120while","950":"illion","951":"\u0120help","952":"\u0120lead","953":"\u0120min","954":"ween","955":"ef","956":"ax","957":"ank","958":"alk","959":"imes","960":"\u0120says","961":"\u0120ob","962":"ms","963":"cy","964":"\u0120produ","965":"\u0120gr","966":"\u0120inter","967":"\u0120inst","968":"\u0120str","969":"cess","970":"\u0120sim","971":"io","972":"self","973":"\u0120conf","974":"\u0120col","975":"\u0120take","976":"ures","977":"arch","978":"\u0120same","979":"\u0120though","980":"\u0120between","981":"ollow","982":"\u0120offic","983":"ever","984":"\u0120cr","985":"\u0120differe","986":"ool","987":"uss","988":"ution","989":"land","990":"\u0120disc","991":"air","992":"\u0120op","993":"ah","994":"\u0120ed","995":"\u0120high","996":"read","997":"\u0120num","998":"\u0120law","999":"\u0120sign","1000":"way","1001":"\u0120government","1002":"gg","1003":"\u0120Re","1004":"led","1005":"ner","1006":"hip","1007":"atch","1008":"hes","1009":"ames","1010":"any","1011":"\u0120ter","1012":"\u0120somet","1013":"cent","1014":"velop","1015":"ted","1016":"We","1017":"\u0120ref","1018":"\u0120trans","1019":"ten","1020":"\u0120ins","1021":"\u0120run","1022":"\u0120ser","1023":"\u0120found","1024":"\u0120three","1025":"ives","1026":"ave","1027":"\u0120mem","1028":"\u0120around","1029":"\u0120here","1030":"ather","1031":"\u0120med","1032":"\u0120real","1033":"\u0120used","1034":"ouse","1035":"\u012010","1036":"ved","1037":"\u0120exp","1038":"az","1039":"\u0120Ar","1040":"cept","1041":"oot","1042":"\u0120system","1043":"\u0120You","1044":"ci","1045":"\u0120really","1046":"\u0120mod","1047":"ving","1048":"con","1049":"cer","1050":"\u0120group","1051":"\u0120support","1052":"\u01207","1053":"\u0120cour","1054":"ets","1055":"ale","1056":"ins","1057":"\u0120ret","1058":"\u0120hand","1059":"\u0120public","1060":"\u0120spec","1061":"pr","1062":"\u0120Le","1063":"ying","1064":"\u0120great","1065":"\u0120car","1066":"ense","1067":"\u0120ext","1068":".[","1069":"ton","1070":"irect","1071":"\u0120cur","1072":"\u0120fam","1073":"\u0120Com","1074":"alth","1075":"\u0120happ","1076":"\u0120fact","1077":"ph","1078":"\u0120exper","1079":"\u0120They","1080":"\u0120Trump","1081":"\u0120fr","1082":"\u0120wom","1083":"\u0120Is","1084":"\u0120cap","1085":"\u0120both","1086":"\u0120day","1087":"\u0120find","1088":"\u0120Al","1089":"ular","1090":"\u0120read","1091":"ines","1092":"oh","1093":"ices","1094":"\u0120det","1095":"\u0120lit","1096":"\u0120sl","1097":"\u0120rep","1098":"uth","1099":"ered","1100":"\u0120during","1101":"\u0120Sh","1102":"\u0120As","1103":"\u01200","1104":"\u0120serv","1105":"\u0120month","1106":"min","1107":"the","1108":"ision","1109":"\u0120cre","1110":"\u0120develop","1111":"\u0120big","1112":"\u01208","1113":"\u0120person","1114":"akes","1115":"\u0120follow","1116":"\u0120Cl","1117":"\u0120iss","1118":"ex","1119":"\u0120told","1120":"\u0120since","1121":"ared","1122":"med","1123":"ically","1124":"\u0120week","1125":"ages","1126":"ivers","1127":"\u0120war","1128":"\u0120few","1129":"orth","1130":"ording","1131":"\u0120cent","1132":"\u0120leg","1133":"aj","1134":"get","1135":"\u0120polit","1136":"ves","1137":"ash","1138":"\u0120expl","1139":"\u0120lot","1140":"ric","1141":"\u0120Se","1142":"\u0120belie","1143":"\u0120gener","1144":"\u0120too","1145":"\u01209","1146":"der","1147":"ata","1148":"rent","1149":"\u0120opp","1150":"Wh","1151":"\u0120requ","1152":"\u0120contin","1153":"\u0120prot","1154":"iet","1155":"bers","1156":"anc","1157":"\u0120fil","1158":"ention","1159":"ness","1160":"\u0120cle","1161":"\u0120resp","1162":"\u0120put","1163":"ized","1164":"\u0120If","1165":"\u0120another","1166":"20","1167":"chool","1168":"\u0120inf","1169":"\u0120something","1170":"\u0120De","1171":"\u0120different","1172":"\u0120cor","1173":"\u0120loc","1174":"ute","1175":"\u0120invest","1176":"\u0120soc","1177":"\u0120power","1178":"\u0120che","1179":"uc","1180":"\u0120'","1181":"\u0120pass","1182":"\u0120commun","1183":"\u0120life","1184":"\u0120Fr","1185":"\u0120plan","1186":"ody","1187":"\u0120rele","1188":"ience","1189":"\u0120head","1190":"\u0120things","1191":"ned","1192":"\u0120far","1193":"\u0120art","1194":"\u0120poss","1195":"\u0120met","1196":"thing","1197":"ox","1198":"erest","1199":"\u0120camp","1200":"ross","1201":"arge","1202":"\u0120vot","1203":"ier","1204":"This","1205":"view","1206":"\u0120child","1207":"ants","1208":"\u0120ask","1209":"\u0120.","1210":"\u0120might","1211":"\u0120each","1212":"ize","1213":"iness","1214":"\u0120dep","1215":"\u0120never","1216":"\u0120next","1217":"ik","1218":"ield","1219":"\u0120second","1220":"\u0120mark","1221":"tt","1222":"\u0120quest","1223":"\u0120bus","1224":"\u0120adv","1225":"\u0120An","1226":"\u0120dem","1227":"\u0120For","1228":"\u0120come","1229":"\u0120got","1230":"\u0120\u00e2\u0122\u013a","1231":"\u0120open","1232":"\u0120best","1233":"ient","1234":"ital","1235":"\u0120allow","1236":"\u0120That","1237":"rat","1238":"\u0120seem","1239":"\u0120post","1240":"ple","1241":"nce","1242":"\u0120feel","1243":"\u0120Pro","1244":"\u0120US","1245":"ug","1246":"\u0120pri","1247":"gram","1248":"\u0120percent","1249":"cl","1250":"\u0120home","1251":"\u0120dist","1252":"\u0120direct","1253":"ired","1254":"\u0120incre","1255":"\u0120contro","1256":"\u0120Rep","1257":"son","1258":"orn","1259":"less","1260":"osed","1261":"\u0120result","1262":"\u0120hard","1263":"\u0120care","1264":"ately","1265":"\u0120million","1266":"chn","1267":"\u0120comple","1268":"\u0120place","1269":"\u0120without","1270":"\u0120inform","1271":"\u0120including","1272":"\u0120import","1273":"\u0120av","1274":"conom","1275":"\u0120hum","1276":"\u0120ide","1277":"\u0120proble","1278":"\u0120build","1279":"\u0120top","1280":"ama","1281":"\u0120number","1282":"\u0120country","1283":"gy","1284":"oney","1285":"aim","1286":"\u0120Bl","1287":"ret","1288":"ral","1289":"ably","1290":"uro","1291":"\u0120stand","1292":"\u0120gl","1293":"\u0120el","1294":"riend","1295":"\u0120four","1296":"ished","1297":"ways","1298":"\u0120partic","1299":"\u0120better","1300":"co","1301":"\u0120tri","1302":"But","1303":"\u0120recent","1304":"\u0120interest","1305":"\u0120mov","1306":"\u0120let","1307":"ration","1308":"\u0120season","1309":"\u0120less","1310":"ead","1311":"\u0120turn","1312":"\u0120little","1313":"\u0120beh","1314":"\u0120mil","1315":"\u0120appro","1316":"ract","1317":"line","1318":"\u0120bro","1319":"ling","1320":"ised","1321":"\u0120called","1322":"app","1323":"10","1324":"\u0120case","1325":"\u0120dr","1326":"\u0120Ind","1327":"\u0120rest","1328":"\u0120left","1329":"\u0120pop","1330":"\u0120ann","1331":"\u0120Z","1332":"ency","1333":"ode","1334":"\u0120move","1335":"ina","1336":"\u0120attack","1337":"\u0120There","1338":"\u0120keep","1339":"\u0120full","1340":"ering","1341":"\u0120didn","1342":"be","1343":"\u0120fun","1344":"\u0120main","1345":"ajor","1346":"__","1347":"\u0120effect","1348":"inal","1349":"me","1350":"leg","1351":"\u0120prev","1352":"\u0120program","1353":"\u0120using","1354":"\u0120test","1355":"\u0120pay","1356":"to","1357":"ature","1358":"\u0120ear","1359":"\u0120val","1360":"\u0120police","1361":"\u0120writ","1362":"\u0120form","1363":"\u0120econom","1364":"\u0120data","1365":"\u0120news","1366":"\u0120pos","1367":"\u0120win","1368":"\u0120American","1369":"\u0120level","1370":"\u0120sit","1371":"\u0120char","1372":"ains","1373":"iving","1374":"uck","1375":"\u0120small","1376":"ined","1377":"ready","1378":"He","1379":"\u0120school","1380":"\u0120list","1381":"ology","1382":"rap","1383":"mit","1384":"ided","1385":"ploy","1386":"'re","1387":"ger","1388":"\u0120eas","1389":"\u0120process","1390":"ird","1391":"\u0120change","1392":"\u0120women","1393":"\u0120current","1394":"\u0120rece","1395":"\u0120prom","1396":"\u0120hist","1397":"\u0120dri","1398":"\u0120=","1399":"ians","1400":"reen","1401":"\u0120president","1402":"\u0120company","1403":"\u0120So","1404":"used","1405":"\u0120mat","1406":"ruct","1407":"\u0120already","1408":"ohn","1409":"\u0120United","1410":"wit","1411":"\u0120ty","1412":"\u0120why","1413":"\u0120bre","1414":"\u0120unt","1415":"\u0120money","1416":"\u0120sol","1417":"\u0120always","1418":"\u0120later","1419":"\u0120expect","1420":"\u0120techn","1421":"\u0120business","1422":"\u0120How","1423":"\u0120official","1424":"ron","1425":"\u0120Q","1426":"\u0120Ob","1427":"stand","1428":"iversity","1429":"\u0120bo","1430":"\u0120book","1431":"\u0120Ph","1432":"aign","1433":"\u0120thing","1434":"\u0120class","1435":"\u0120project","1436":"ases","1437":"\u0120claim","1438":"\u0120job","1439":"\u0120information","1440":"\u0120organ","1441":"aff","1442":"\u0120She","1443":"ards","1444":"\u0120talk","1445":"\u0120Be","1446":"\u0120design","1447":"\u0120story","1448":"\u0120chang","1449":"\u0120major","1450":"\u0120able","1451":"\u0120prof","1452":"\u0120--","1453":"...","1454":"lection","1455":"iven","1456":"ertain","1457":"\u0120rese","1458":"\u0120health","1459":"\u0120vis","1460":"\u0120past","1461":"urs","1462":"\u0120free","1463":"here","1464":"outh","1465":"\u0120Ad","1466":"\u0120oper","1467":"ption","1468":"\u0120away","1469":"ior","1470":"\u0120Can","1471":"\u0120must","1472":"\u0120city","1473":"ample","1474":"rist","1475":"sc","1476":"ural","1477":"\u0120happen","1478":"uthor","1479":"\u012018","1480":"\u0120important","1481":"acy","1482":"urity","1483":"\u0120kill","1484":"\u0120sk","1485":"\u0120est","1486":"ured","1487":"\u0120old","1488":"\u0120pat","1489":"ury","1490":"ending","1491":"\u0120doesn","1492":"ission","1493":"\u0120least","1494":"\u0120grow","1495":"\u0120edit","1496":"\u0120var","1497":"ained","1498":"St","1499":"\u0120cost","1500":"\u0120Go","1501":"ney","1502":"ider","1503":"ides","1504":"els","1505":"\u0120days","1506":"\u0120tell","1507":"\u0120hop","1508":"\u0120stre","1509":"\u0120campaign","1510":"side","1511":"\u012012","1512":"\u0120men","1513":"\u0120came","1514":"\u0120aff","1515":"\u0120const","1516":"resident","1517":"\u0120enough","1518":"\u0120view","1519":"ccess","1520":"\u0120kind","1521":"\u0120Mar","1522":"oad","1523":"\u0120Sp","1524":"ern","1525":"\u0120making","1526":"\u0120large","1527":"\u0120record","1528":"50","1529":"ush","1530":"\u0120friend","1531":"\u0120mar","1532":"\u0120family","1533":"\u00e2\u0122\u00a6","1534":"ley","1535":"\u0120elect","1536":"eral","1537":"\u0120polic","1538":"\u0120tax","1539":"ising","1540":"by","1541":"pped","1542":"ality","1543":"ator","1544":"ified","1545":"As","1546":"ived","1547":"arent","1548":"ror","1549":"\u0120until","1550":"ional","1551":"\u0120political","1552":"\u0120vide","1553":"\u0120deal","1554":"ee","1555":"ries","1556":"alf","1557":"augh","1558":"\u0120ve","1559":"\u0120working","1560":"ued","1561":"\u0120Republic","1562":"\u0120took","1563":"\u0120deb","1564":"bs","1565":"If","1566":"ister","1567":"\u0120line","1568":"\u0120John","1569":"aining","1570":"\u0120air","1571":"----","1572":"\u0120es","1573":"\u0120intern","1574":"\u0120fore","1575":"iol","1576":"ane","1577":"ocrat","1578":"\u0120become","1579":"\u0120actually","1580":"aps","1581":"ony","1582":"\u0120mean","1583":"work","1584":"\u0120fund","1585":"\u0120Sc","1586":"ware","1587":"19","1588":"ember","1589":"\u0120Pl","1590":"\u0120former","1591":"\u0120often","1592":"\u0120Euro","1593":"ott","1594":"ann","1595":"\u0120won","1596":"\u0120give","1597":"oint","1598":"\u0120according","1599":"\u0120ever","1600":"most","1601":"eng","1602":"year","1603":"wh","1604":"aring","1605":"\u0120games","1606":"ison","1607":"\u0120human","1608":"\u0120bas","1609":"\u0120word","1610":"ization","1611":"\u0120return","1612":"\u0120times","1613":"\u0120order","1614":"\u0120Russ","1615":"\u0120bit","1616":"\u0120Dem","1617":"\u0120name","1618":"11","1619":"gin","1620":"\u0120sever","1621":"\u0120All","1622":"\u0120dev","1623":"icle","1624":"uture","1625":"for","1626":"ither","1627":"iqu","1628":"\u0120par","1629":"\u0120199","1630":"\u0120Mc","1631":"\u0120wr","1632":"\u0120Con","1633":"raft","1634":"\u0120sing","1635":"\u0120perform","1636":"\u0120Sy","1637":"idd","1638":"\u0120market","1639":"\u0120fac","1640":"\u0120charac","1641":"There","1642":"\u0120Or","1643":"\u0120At","1644":"\u0120May","1645":"\u0120ra","1646":"\u0120doing","1647":"\u0120appear","1648":"ER","1649":"ched","1650":"\u0120players","1651":"\u0120la","1652":"\u0120night","1653":"\u0120lear","1654":"aken","1655":"rop","1656":"ats","1657":"mber","1658":"\u0120today","1659":"\u0120early","1660":"\u012015","1661":"\u0120seen","1662":"//","1663":"\u0120having","1664":"\u0120,","1665":"\u0120pot","1666":"\u0120children","1667":"\u0120event","1668":"\u0120media","1669":"\u0120social","1670":"\u0120crit","1671":"\u0120President","1672":"\u0120whether","1673":"\u0120several","1674":"\u0120control","1675":"idence","1676":"\u0120meet","1677":"sh","1678":"\u0120milit","1679":"\u0120press","1680":"\u0120went","1681":"artment","1682":"ene","1683":"\u0120five","1684":"\u0120young","1685":"ories","1686":"\u0120sure","1687":"\u0120prop","1688":"iously","1689":"\u0120equ","1690":"\u0120question","1691":"\u0120occ","1692":"\u0120likely","1693":"vert","1694":"une","1695":"\u0120members","1696":"br","1697":"ands","1698":"\u0120certain","1699":"ium","1700":"\u0120eng","1701":"\u0120water","1702":"\u0120York","1703":"\u0120example","1704":"ots","1705":"\u0120Col","1706":"\u0120side","1707":"\u0120ant","1708":"\u0120arg","1709":"\u0120done","1710":"enn","1711":"\u0120vers","1712":"\u0120invol","1713":"\u0120Mr","1714":"\u0120States","1715":"\u0120Europe","1716":"ended","1717":"let","1718":"\u0120along","1719":"\u0120short","1720":"\u0120success","1721":"ential","1722":"\u0120months","1723":"ball","1724":"\u0120hour","1725":"\u012011","1726":"\u0120sex","1727":"iver","1728":"ially","1729":"And","1730":"lf","1731":"empt","1732":"\u0120within","1733":"\u0120desc","1734":"imate","1735":"\u0120course","1736":"\u0120fight","1737":"ster","1738":"urch","1739":"ubl","1740":"\u0120among","1741":"\u0120activ","1742":"uff","1743":"\u00e2\u0122\u0135","1744":"ague","1745":"\u0120once","1746":"\u0120future","1747":"\u0120investig","1748":"ulation","1749":"rew","1750":"\u0120possible","1751":"\u0120Obama","1752":"\u0120cho","1753":"nect","1754":"\u0120understand","1755":"iting","1756":"\u0120concer","1757":"\u0120On","1758":"\u0120]","1759":"ones","1760":"ortun","1761":"\u0120problem","1762":"\u0120Br","1763":"\u0120priv","1764":"\u0120means","1765":"\u0120viol","1766":"\u0120Car","1767":"\u0120author","1768":"itive","1769":"\u0120No","1770":"ggest","1771":"\u0120avail","1772":"oci","1773":"ourn","1774":"my","1775":"\u0120known","1776":"\u0120product","1777":"\u0120non","1778":"ivid","1779":"\u0120thought","1780":"\u0120yet","1781":"gress","1782":"\u0120across","1783":"\u0120protect","1784":"\u0120local","1785":"ald","1786":"ler","1787":"\u0120hold","1788":"\u0120Te","1789":"\u0120fail","1790":"\u0120When","1791":"\u0120State","1792":"inc","1793":"\u0120community","1794":"\u0120reason","1795":"\u0120orig","1796":"\u0120suggest","1797":"\u0120&","1798":"12","1799":"\u0120makes","1800":"verage","1801":"not","1802":"por","1803":"back","1804":"\u01202016","1805":"\u0120i","1806":"book","1807":"\u0120asked","1808":"ederal","1809":"orld","1810":"\u0120reported","1811":"You","1812":"aged","1813":"ensive","1814":"\u0120given","1815":"\u0120strong","1816":"\u0120prob","1817":"\u0120mus","1818":"\u0120others","1819":"\u0120believe","1820":"\u0120video","1821":"iber","1822":"\u0120ben","1823":"\u0120getting","1824":"\u0120House","1825":"ances","1826":"\u0120announ","1827":"\u0120light","1828":"ored","1829":"ober","1830":"\u0120University","1831":"\u012030","1832":"\u0120Co","1833":"itions","1834":"\u0120ident","1835":"iron","1836":"\u0120sent","1837":"\u0120cut","1838":"\u0120lim","1839":"\u0120ca","1840":"\u0120Christ","1841":"iety","1842":"30","1843":"urther","1844":"\u0120sour","1845":"\u0120creat","1846":"\u0120cond","1847":"\u0120X","1848":"rest","1849":"ams","1850":"'ve","1851":"\u0120net","1852":"ashing","1853":"\u0120bat","1854":"ament","1855":"\u0120national","1856":".,","1857":"\u0120close","1858":"\u0120started","1859":"\u0120saf","1860":"\u0120death","1861":"aster","1862":"\u0120available","1863":"arm","1864":"\u0120hig","1865":"For","1866":"\u0120based","1867":"\u0120issue","1868":"of","1869":"\u0120indust","1870":"\u0120Democrat","1871":"\u0120Min","1872":"\u0120low","1873":"\u0120following","1874":"resent","1875":"\u0120account","1876":"\u0120land","1877":"use","1878":"\u0120Cent","1879":"\u0120employ","1880":"\u0120love","1881":"\u01202015","1882":"\u0120#","1883":"\u0120history","1884":"\u0120ago","1885":"orts","1886":"selves","1887":"\u0120mom","1888":"\u0120party","1889":"ability","1890":"\u0120series","1891":"eb","1892":"\u0120comes","1893":"\u0120trying","1894":"uly","1895":"utes","1896":"\u0120Am","1897":"\u0120almost","1898":"gether","1899":"ument","1900":"\u0120together","1901":"ination","1902":"AT","1903":"\u0120America","1904":"pro","1905":"\u0120idea","1906":"ief","1907":"\u0120access","1908":"\u0120foc","1909":"hers","1910":"ilar","1911":"\u0120Fl","1912":"reed","1913":"ails","1914":"\u0120commit","1915":"itional","1916":"\u0120isn","1917":"\u0120Sen","1918":"\u0120clear","1919":"\u012016","1920":"\u0120One","1921":"\u0120trad","1922":"though","1923":"ring","1924":"\u0120What","1925":"\u0120pract","1926":"\u0120added","1927":"\u0120impro","1928":"\u0120experience","1929":"erence","1930":"\u0120film","1931":"15","1932":"\u0120half","1933":"ustom","1934":"ged","1935":"\u0120hit","1936":"af","1937":"\u0120Bro","1938":"witter","1939":"rict","1940":"\u0120anal","1941":"inton","1942":"ograp","1943":"unch","1944":"\u01202014","1945":"\u0120rul","1946":"ividual","1947":"\u0120looking","1948":"\u0120six","1949":"\u0120live","1950":"\u0120anything","1951":"\u0120area","1952":"\u0120complete","1953":"erman","1954":"minist","1955":"\u0120miss","1956":"rael","1957":"\u0120Ex","1958":"\u0120Comm","1959":"\u0120fav","1960":"\u0120ris","1961":"ai","1962":"nes","1963":"\u0120present","1964":"ote","1965":"rug","1966":"\u0120saying","1967":"raw","1968":"aid","1969":"\u0120Canad","1970":"\u0120vict","1971":"IN","1972":"cially","1973":"\u0120bad","1974":"ows","1975":"uge","1976":"\u0120taken","1977":"ert","1978":"\u0120entire","1979":"oto","1980":"\u0120Pr","1981":"ators","1982":"ev","1983":"\u0120bill","1984":"\u0120compet","1985":"\u0120Eng","1986":"\u0120mor","1987":"\u0120behind","1988":"ien","1989":"\u0120aut","1990":"\u0120To","1991":"'m","1992":"\u0120court","1993":"play","1994":"\u0120try","1995":"\u0120tre","1996":"\u0120military","1997":"\u0120z","1998":"\u0120near","1999":"osp","2000":"\u0120mult","2001":"What","2002":"\u0120face","2003":"wards","2004":"\u012014","2005":"\u0120security","2006":"\u0120er","2007":"\u0120Pol","2008":"sy","2009":"\u0120proper","2010":"\u0120discuss","2011":"\u0120threat","2012":"\u0120tot","2013":"\u0120study","2014":"\u0120single","2015":"\u0120rather","2016":"\u0120individual","2017":"\u0120Af","2018":"\u0120Brit","2019":"\u0120War","2020":"\u0120\u00c2","2021":"ttp","2022":"\u0120quick","2023":"\u0120Don","2024":"\u0120mind","2025":"\u0120Sec","2026":"lement","2027":"ales","2028":"amed","2029":"atic","2030":"An","2031":"\u0120North","2032":"aper","2033":"\u0120publ","2034":"\u0120policy","2035":"\u0120mess","2036":"ris","2037":"par","2038":"\u0120black","2039":"\u0120wanted","2040":"\u0120fall","2041":"irc","2042":"**","2043":"off","2044":"\u0120food","2045":"\u0120sum","2046":"\u0120someone","2047":"lling","2048":"ids","2049":"On","2050":"\u0120|","2051":"\u0120/","2052":"\u0120cult","2053":"\u0120special","2054":"\u0120comb","2055":"\u0120key","2056":"\u0120Man","2057":"\u0120player","2058":"\u0120redu","2059":"\u0120Gr","2060":"\u0120bring","2061":"\u012013","2062":"\u0120compan","2063":"\u012017","2064":"ply","2065":"\u0120Dep","2066":"\u0120attempt","2067":"\u0120National","2068":"\u0120taking","2069":"\u0120Bar","2070":"When","2071":"ON","2072":"ify","2073":"olution","2074":"\u0120:","2075":"viron","2076":"\u0120foot","2077":"\u0120Cal","2078":"://","2079":"\u0120else","2080":"\u0120pret","2081":"\u0120body","2082":"\u0120space","2083":"elt","2084":"rote","2085":"over","2086":"dd","2087":"\u0120probably","2088":"16","2089":"icult","2090":".)","2091":"\u0120front","2092":"\u0120cou","2093":"\u0120nothing","2094":"\u0120sw","2095":"ashington","2096":"\u0120Im","2097":"\u0120connect","2098":"ches","2099":"\u0120World","2100":"\u0120research","2101":"14","2102":"ming","2103":"\u0120Clinton","2104":"\u0120City","2105":"\u0120coming","2106":"\u0120points","2107":"\u0120Israel","2108":"RE","2109":"\u0120however","2110":"\u0120describ","2111":"go","2112":"\u0120jo","2113":"\u0120signific","2114":"\u0120similar","2115":"yn","2116":"reme","2117":"cing","2118":"\u0120benef","2119":"lier","2120":"\u0120Aust","2121":"\u0120decision","2122":"\u0120either","2123":"aces","2124":"\u0120coun","2125":"ault","2126":"So","2127":"\u0120mass","2128":"mb","2129":"\u0120Har","2130":"\u0120sus","2131":"\u0120targ","2132":"ully","2133":"ana","2134":"\u0120feat","2135":"That","2136":"\u0120imm","2137":"\u0120conv","2138":"\u0120exist","2139":"irl","2140":"\u0120enc","2141":"\u01202013","2142":"\u0120rights","2143":"\u0120service","2144":"\u0120Su","2145":"asing","2146":"ung","2147":"sw","2148":"IS","2149":"\u0120fire","2150":"\u0120doc","2151":"\u0120wrote","2152":"\u0120further","2153":"\u0120house","2154":"rodu","2155":"\u0120fig","2156":"\u0120chall","2157":"ww","2158":"\u0120ban","2159":"\u0120third","2160":"\u0120wa","2161":"\u0120create","2162":"\u0120stop","2163":"\u0120field","2164":"now","2165":"\u0120pick","2166":"AN","2167":"ape","2168":"ively","2169":"\u0120meas","2170":"\u0120repl","2171":"\u0120compl","2172":"\u0120With","2173":"\u0120issues","2174":"pping","2175":"\u0120begin","2176":"\u0120super","2177":"amer","2178":"\u0120step","2179":"ried","2180":"ently","2181":"\u0120whole","2182":"\u0120relations","2183":"\u0120seems","2184":"\u0120)","2185":"\u0120companies","2186":"pecially","2187":"\u0120due","2188":"\u0120exec","2189":"\u0120cand","2190":"\u0120everything","2191":"\u0120federal","2192":"\u0120Gu","2193":"\u0120states","2194":"\u0120ey","2195":"\u0120room","2196":"aul","2197":"\u0120tra","2198":"\u0120watch","2199":"oon","2200":"\u0120Ge","2201":"\u0120custom","2202":"\u0120leaders","2203":"13","2204":"uation","2205":"\u0120However","2206":"pite","2207":"\u0120Jan","2208":"\u0120Washington","2209":"Ch","2210":"lam","2211":"\u0120self","2212":"\u0120role","2213":"ran","2214":"ilt","2215":"\u0120sound","2216":"\u0120lab","2217":"att","2218":"head","2219":"\u0120dam","2220":"ivil","2221":"\u0120officials","2222":"\u0120stri","2223":"\u01202012","2224":"lu","2225":"iday","2226":"ibility","2227":"\u0120released","2228":"\u0120Inst","2229":"eal","2230":"\u0120began","2231":"\u0120Dav","2232":"\u0120App","2233":"\u0120South","2234":"\u0120opt","2235":"obal","2236":"\u0120students","2237":"\u0120treat","2238":"\u0120final","2239":"\u0120character","2240":"\u0120position","2241":"\u0120matter","2242":"\u00c3\u00a9","2243":"ender","2244":"\u0120ener","2245":"lim","2246":"\u0120outside","2247":"ery","2248":"sec","2249":"ades","2250":"\u0120dou","2251":"vironment","2252":"\u0120development","2253":"\u0120statement","2254":"\u0120himself","2255":"\u01202017","2256":"\u0120above","2257":"like","2258":"\u0120stat","2259":"\u0120init","2260":"\u0120break","2261":"\u0120100","2262":"\u0120amount","2263":"\u0120provide","2264":"\u0120hours","2265":"\u0120itself","2266":"\u0120themselves","2267":"\u0120office","2268":"\u0120represent","2269":"\u0120action","2270":"\u0120Part","2271":"\u0120di","2272":"\u0120became","2273":"\u0120198","2274":"\u0120general","2275":"\u0120continue","2276":"\u0120countries","2277":"\u0120Intern","2278":"\u0120neg","2279":"iod","2280":"\u0120address","2281":"\u012025","2282":"\u0120gun","2283":"aced","2284":"ask","2285":"\u0120true","2286":"\u0120specific","2287":"ograph","2288":"umb","2289":"arter","2290":"reg","2291":"\u0120larg","2292":"\u0120significant","2293":"lish","2294":"\u0120simply","2295":"\u0120Ass","2296":"\u0120Res","2297":"\u0120wasn","2298":"'ll","2299":"\u0120interview","2300":"acebook","2301":"ili","2302":"\u0120ground","2303":"\u0120rad","2304":"oid","2305":"ogn","2306":"\u0120difficult","2307":"\u0120running","2308":"\u0120Just","2309":"\u0120evidence","2310":"\u0120administ","2311":"BC","2312":"\u0120cop","2313":"17","2314":"ream","2315":"\u0120drug","2316":"\u0120version","2317":"ogle","2318":"\u0120bar","2319":"\u0120Ed","2320":"\u0120agree","2321":"eks","2322":"iddle","2323":"\u0120building","2324":"\u0120China","2325":"\u0120needs","2326":"\u0120profess","2327":"angu","2328":"\u0120groups","2329":"right","2330":"\u0120typ","2331":"\u0120respons","2332":"\u0120common","2333":"\u0120shows","2334":"\u0120everyone","2335":"\u0120dom","2336":"\u0120dest","2337":"\u0120needed","2338":"\u0120ball","2339":"\u0120woman","2340":"\u0120German","2341":"\u0120lat","2342":"\u0120below","2343":"\u0120tem","2344":"light","2345":"ournal","2346":"\u0120music","2347":"\u0120exc","2348":"\u0120release","2349":"ift","2350":"\u0120inj","2351":"\u0120pretty","2352":"\u0120Med","2353":"\u0120Ab","2354":"AR","2355":"ribut","2356":"\u0120include","2357":"\u0120saw","2358":"\u0120deep","2359":"\u0120ap","2360":"body","2361":"18","2362":"\u0120played","2363":"\u0120quite","2364":"\u0120industry","2365":"\u0120charg","2366":"\u0120mag","2367":"\u0120energy","2368":"\u0120playing","2369":"\u0120mot","2370":"\u012050","2371":"\u0120candid","2372":"\u0120sense","2373":"\u0120phys","2374":"\u0120late","2375":"\u0120alleg","2376":"\u0120white","2377":"\u0120His","2378":"ival","2379":"\u0120friends","2380":"\u0120gen","2381":"\u0120legal","2382":"atur","2383":"\u0120anim","2384":"isc","2385":"bo","2386":"yle","2387":"\u0120After","2388":"How","2389":"AS","2390":"where","2391":"\u0120abs","2392":"lev","2393":"\u0120instead","2394":"\u0120red","2395":"\u0120billion","2396":"\u0120lost","2397":"\u0120especially","2398":"\u0120value","2399":"\u0120Mus","2400":"\u0120West","2401":"\u0120host","2402":"\u0120hom","2403":"osing","2404":"oring","2405":"\u0120News","2406":"time","2407":"ager","2408":"\u0120ple","2409":"istic","2410":"\u0120weeks","2411":"epend","2412":"\u0120Not","2413":"ccording","2414":"omm","2415":"\u0120forward","2416":"ique","2417":"\u0120deter","2418":"\u0120election","2419":"\u0120recently","2420":"\u0120jud","2421":"\u0120track","2422":"\u0120suff","2423":"\u0120vote","2424":"\u0120Twitter","2425":"\u0120object","2426":"irt","2427":"lt","2428":"medi","2429":"\u0120period","2430":"\u0120changes","2431":"\u0120opportun","2432":"\u0120White","2433":"\u0120Oct","2434":"\u0120lo","2435":"\u0120longer","2436":"arc","2437":"oke","2438":"eed","2439":"\u0120ep","2440":"\u0120pain","2441":"\u0120soon","2442":"\u0120site","2443":"\u0120{","2444":"hod","2445":"ript","2446":"ached","2447":"\u0120accept","2448":"\u0120Cong","2449":"____","2450":"\u0120shoot","2451":"\u0120economic","2452":"\u0120hope","2453":"irm","2454":"oe","2455":"\u0120moment","2456":"\u0120decl","2457":"lege","2458":"\u0120consum","2459":"\u0120Will","2460":"\u0120pie","2461":"\u0120tit","2462":"\u0120check","2463":"oph","2464":"\u0120potential","2465":"ij","2466":"\u0120block","2467":"\u0120March","2468":"ole","2469":"\u0120wrong","2470":"duct","2471":"ners","2472":"\u0120Sept","2473":"\u0120Department","2474":"\u0120higher","2475":"onse","2476":"\u0120cred","2477":"\u0120online","2478":"\u0120focus","2479":"\u012024","2480":"\u0120consider","2481":"key","2482":"\u0120educ","2483":"ancial","2484":"\u0120My","2485":"ns","2486":"iding","2487":"\u0120circ","2488":"\u0120works","2489":"\u0120relig","2490":"\u0120share","2491":"\u0120parent","2492":"cial","2493":"\u0120held","2494":"25","2495":"\u0120pred","2496":"\u0120Dr","2497":"\u0120walk","2498":"\u0120webs","2499":"\u0120led","2500":"ularly","2501":"==","2502":"\u0120reve","2503":"lear","2504":"\u0120stay","2505":"\u0120These","2506":"overed","2507":"alt","2508":"\u0120stru","2509":"\u0120Republican","2510":"\u0120risk","2511":"\u0120words","2512":"\u0120Aug","2513":"\u0120rev","2514":"\u0120sold","2515":"\u0120review","2516":"icro","2517":"\u0120contract","2518":"\u0120results","2519":"\u0120services","2520":"\u0120laws","2521":"They","2522":"\u0120code","2523":"cil","2524":"\u0120Mich","2525":"\u0120wind","2526":"\u0120function","2527":"\u0120aud","2528":"\u0120ce","2529":"\u0120Syri","2530":"put","2531":"aut","2532":"\u0120total","2533":"fect","2534":"\u0120article","2535":"\u0120age","2536":"\u0120applic","2537":"\u0120minutes","2538":"urd","2539":"\u0120Me","2540":"\u0120personal","2541":"ilities","2542":"\u0120anyone","2543":"uary","2544":"ients","2545":"itution","2546":"asons","2547":"\u0120June","2548":"Ad","2549":"ateg","2550":"\u0120prim","2551":"anger","2552":"\u0120target","2553":"\u0120Ste","2554":"fer","2555":"\u0120den","2556":"\u0120earlier","2557":"ule","2558":"\u0120favor","2559":"\u0120express","2560":"haps","2561":"\u0120dead","2562":"\u0120answ","2563":"\u0120upd","2564":"\u0120popular","2565":"che","2566":"\u0120comput","2567":"\u0120vol","2568":"pril","2569":"\u0120necess","2570":"ham","2571":"\u0120hy","2572":"\u0120rate","2573":"ES","2574":"aging","2575":"\u0120technology","2576":"apan","2577":"\u0120respect","2578":"\u0120Pe","2579":"val","2580":"\u0120environment","2581":"\u01202011","2582":"Ph","2583":"\u0120received","2584":"\u0120expected","2585":"ude","2586":"ends","2587":"\u0120goal","2588":"\u0120Par","2589":"\u0120created","2590":"\u0120base","2591":"\u0120surpr","2592":"\u0120anti","2593":"\u0120Sm","2594":"\u0120July","2595":"eter","2596":"tee","2597":"\u0120problems","2598":"uel","2599":"\u0120ways","2600":"\u0120port","2601":"iple","2602":"action","2603":"\u0120private","2604":"\u0120Do","2605":"\u0120scient","2606":"\u0120increase","2607":"ray","2608":"reet","2609":"\u0120announced","2610":"\u0120comment","2611":"isl","2612":"\u0120cannot","2613":"\u0120easy","2614":"Al","2615":"\u0120shot","2616":"\u0120Congress","2617":"\u0120questions","2618":"bit","2619":"\u0120force","2620":"aterial","2621":"hern","2622":"\u0120impact","2623":"na","2624":"\u0120et","2625":"\u0120Mond","2626":"ples","2627":"\u0120pack","2628":"\u0120+","2629":"\u0120Facebook","2630":"\u0120pur","2631":"\u0120langu","2632":"atives","2633":"\u0120God","2634":"\u0120En","2635":"\u0120involved","2636":"omb","2637":"aving","2638":"ills","2639":"60","2640":"lex","2641":"hood","2642":"onst","2643":"\u0120Austral","2644":"\u0120div","2645":"uesday","2646":"\u0120execut","2647":"ctor","2648":"\u0120model","2649":"itiz","2650":"\u0120sen","2651":"\u0120speak","2652":"\u0120staff","2653":"\u0120exact","2654":"\u0120civil","2655":"ires","2656":"\u0120nearly","2657":"\u0120type","2658":"ourt","2659":"okes","2660":"ees","2661":"\u0120original","2662":"\u0120cases","2663":"\u0120content","2664":"\u0120197","2665":"\u0120relationship","2666":"\u0120terror","2667":"\u0120Google","2668":"To","2669":"\u0120leave","2670":"\u0120Friday","2671":"\u0120response","2672":"\u0120capt","2673":"\u0120inside","2674":"\u0120<","2675":"\u0120phot","2676":"lled","2677":"ech","2678":"\u0120fans","2679":"\u0120April","2680":"rem","2681":"\u0120Red","2682":"\u0120international","2683":"\u0120coll","2684":"cast","2685":"\u0120heart","2686":"\u0120average","2687":"\u0120broad","2688":"\u0120arrest","2689":"\u0120users","2690":"\u0120Count","2691":"\u0120cal","2692":"At","2693":"rel","2694":"\u0120cell","2695":"\u0120worth","2696":"\u0120soft","2697":"\u0120ur","2698":"\u0120living","2699":"\u0120Em","2700":"bor","2701":"\u0120nation","2702":"ips","2703":"ky","2704":"\u0120killed","2705":"\u0120reports","2706":"\u01202010","2707":"\u00e3\u0123","2708":"ging","2709":"\u0120becom","2710":"\u0120source","2711":"\u0120Monday","2712":"\u0120Tuesday","2713":"\u0120subject","2714":"\u0120worked","2715":"atural","2716":"ests","2717":"\u0120estab","2718":"\u0120immedi","2719":"EN","2720":"\u0120respond","2721":"\u0120global","2722":"\u0120associ","2723":"joy","2724":"ellig","2725":"\u0120club","2726":"ops","2727":"\u0120Americans","2728":"ael","2729":"\u0120obs","2730":"ites","2731":"\u0120Per","2732":"\u0120Pal","2733":"\u0120chance","2734":"\u0120oil","2735":"\u0120Act","2736":"\u0120ability","2737":"\u0120Ne","2738":"\u0120takes","2739":"rought","2740":"\u0120weap","2741":"hel","2742":"\u0120price","2743":"\u0120Japan","2744":"ological","2745":"\u0120director","2746":"izing","2747":"\u0120workers","2748":"\u0120terms","2749":"\u0120road","2750":"mon","2751":"\u0120published","2752":"\u0120del","2753":"\u0120While","2754":"\u0120tou","2755":"\u0120phone","2756":"rain","2757":"\u0120collect","2758":"\u0120financial","2759":"\u0120mid","2760":"osition","2761":"\u0120decided","2762":"ises","2763":"OR","2764":"\u0120Russia","2765":"\u0120Some","2766":"\u0120Wed","2767":"\u0120mother","2768":"\u0120squ","2769":"\u0120lack","2770":"\u0120defin","2771":"ovember","2772":"\u012040","2773":"\u0120girl","2774":"\u0120store","2775":"\u0120gave","2776":"\u0120buy","2777":"\u0120influ","2778":"\u0120Calif","2779":"\u0120log","2780":"\u0120happened","2781":"ino","2782":"\u0120require","2783":"\u0120Now","2784":"\u0120emer","2785":"\u0120fem","2786":"\".","2787":"\u0120capital","2788":"clus","2789":"\u0120foreign","2790":"\u0120currently","2791":"\u0120Off","2792":"based","2793":"\u0120San","2794":"\u0120goes","2795":"\u0120By","2796":"oved","2797":"\u0120Geor","2798":"vertise","2799":"\u0120situation","2800":"\u0120indic","2801":"\u0120offer","2802":"\u0120whose","2803":"\u0120@","2804":"\u0120tal","2805":"\u0120material","2806":"\u0120lives","2807":"unt","2808":"\u0120affect","2809":"rown","2810":"ought","2811":"\u0120plans","2812":"nesday","2813":"\u0120arri","2814":"\u0120member","2815":"\u0120pict","2816":"ursday","2817":"\u0120Feb","2818":"\u0120particip","2819":"ruction","2820":"\u0120recogn","2821":"\u0120turned","2822":"\u0120method","2823":"\u0120events","2824":"\u0120January","2825":"\u0120Hill","2826":"\u0120network","2827":"One","2828":"\u0120teams","2829":"\u0120Sund","2830":"\u0120bank","2831":"\u0120meeting","2832":"40","2833":"rect","2834":"\u0120norm","2835":"\u0120introdu","2836":"\u0120simple","2837":"fully","2838":"\u0120Islam","2839":"\u0120ill","2840":"\u0120Ag","2841":"\u0120huge","2842":"\u0120September","2843":"oud","2844":"\u0120regard","2845":"\u0120areas","2846":"\u0120cy","2847":"order","2848":"\u0120Cor","2849":"ese","2850":"\u0120TV","2851":"\u0120couple","2852":"\u0120approach","2853":"\u0120career","2854":"aur","2855":"\u0120Afric","2856":"\u0120Gl","2857":"load","2858":"\",","2859":"\u0120deli","2860":"\u0120race","2861":"lin","2862":"\u0120performance","2863":"\u0120page","2864":"ety","2865":"apt","2866":"\u0120November","2867":"\u0120tool","2868":"\u0120David","2869":"\u0120felt","2870":"\u0120quickly","2871":"\u0120mis","2872":"\u0120numbers","2873":"oor","2874":"\u0120email","2875":"\u012021","2876":"aily","2877":"\u0120ord","2878":"\u0120El","2879":"istan","2880":"\u0120administration","2881":"\u0120hon","2882":"\u0120Wednesday","2883":"\u0120victim","2884":"\u0120Paul","2885":"\u0120via","2886":"\u0120improve","2887":"\u0120engine","2888":"chie","2889":"--------","2890":"\u0120fre","2891":"\u0120pull","2892":"\u0120Ang","2893":"\u0120round","2894":"bl","2895":"\u0120built","2896":"\u012022","2897":"\u0120pers","2898":"\u0120European","2899":"\u0120dig","2900":"ened","2901":"\u0120Thursday","2902":"\u0120father","2903":"ornia","2904":"\u0120loss","2905":"avy","2906":"\u0120thous","2907":"\u00c2\u0143","2908":"\u0120http","2909":"ructure","2910":"\u0120production","2911":"\u0120boy","2912":"ume","2913":"\u0120heard","2914":"down","2915":"Sh","2916":"\u0120economy","2917":"\u00e2\u0122\u013f.","2918":"\u0120enjoy","2919":"\u0120August","2920":"\u0120trade","2921":"\u0120Sch","2922":"face","2923":"\u0120website","2924":"iment","2925":"\u0120secret","2926":"\u0120cover","2927":"\u0120reveal","2928":"\u0120wide","2929":"\u0120board","2930":"\u0120match","2931":"\u0120Court","2932":"AL","2933":"\u0120allowed","2934":"\u0120hands","2935":"\u0120spent","2936":"\u0120travel","2937":"\u0120lower","2938":"\u0120repe","2939":"atory","2940":"\u0120poll","2941":"\u0120ste","2942":"\u0120included","2943":"cember","2944":"\u0120October","2945":"\u0120neigh","2946":"\u0120legisl","2947":"orters","2948":"uses","2949":"\u0120behav","2950":"iction","2951":"\u0120knew","2952":"\u0120text","2953":"\u0120wants","2954":"\u0120town","2955":"ights","2956":"\u0120British","2957":"\u0120separ","2958":"ences","2959":"estern","2960":"\u0120visit","2961":"\u0120Canada","2962":"anks","2963":"ctions","2964":"With","2965":"\u0120perfect","2966":"\u0120gets","2967":"ze","2968":"ession","2969":"\u0120movement","2970":"ishing","2971":"ground","2972":"agement","2973":"\u0120tried","2974":"\u0120cause","2975":"?\u00e2\u0122\u013f","2976":"gest","2977":"\u0120}","2978":"\u0120forces","2979":"\u0120Sunday","2980":"\u0120ens","2981":"After","2982":"force","2983":"ceed","2984":"\u0120attention","2985":"\u0120particular","2986":"\u0120bi","2987":"][","2988":"ening","2989":"\u0120veh","2990":"\u0120bud","2991":"\u0120fear","2992":"\u0120population","2993":"\u0120various","2994":"\u0120UK","2995":"\u0120reach","2996":"ma","2997":"\u0120looks","2998":"\u012023","2999":"\u0120California","3000":"\u0120brought","3001":"\u0120vo","3002":"\u0120Kore","3003":"\u0120link","3004":"ibly","3005":");","3006":"urning","3007":"arily","3008":"\u0120IS","3009":"200","3010":"\u0120previous","3011":"ED","3012":"\u0120mention","3013":"\u0120Russian","3014":"\u0120morning","3015":"\u0120Qu","3016":"cle","3017":"idered","3018":"eg","3019":"'d","3020":"\u0120fair","3021":"\u0120growth","3022":"aker","3023":"\u0120Sw","3024":"undred","3025":"99","3026":"sequ","3027":"yond","3028":"\u0120progress","3029":"\u0120fell","3030":"raz","3031":"alled","3032":"\u0120song","3033":"iam","3034":"\u0120Cont","3035":"AC","3036":"\u0120training","3037":"field","3038":"hold","3039":"uk","3040":"\u0120size","3041":"\u0120Black","3042":"cies","3043":"\u0120December","3044":"idents","3045":"\u0120contact","3046":"ledge","3047":"\u0120Her","3048":"\u0120demand","3049":"While","3050":"\u0120image","3051":"\u0120hor","3052":"\u0120rac","3053":"\u0120hot","3054":"ification","3055":"OS","3056":"\u0120leader","3057":"set","3058":"ecause","3059":"\u0120rules","3060":"\u0120prep","3061":"\u0120liber","3062":"\u0120search","3063":"\u0120ess","3064":"\u0120Post","3065":"\u0120citiz","3066":"\u0120upon","3067":"\u0120strugg","3068":"\u0120Street","3069":"\u0120latest","3070":"come","3071":"\u0120independ","3072":"US","3073":"uments","3074":"inks","3075":"arth","3076":"\u0120features","3077":"\u0120coach","3078":"ondon","3079":"\u0120Park","3080":"iant","3081":"\u0120fast","3082":"Tr","3083":"oo","3084":"sych","3085":"\u0120talking","3086":"\u0120Jew","3087":"omp","3088":"\u0120addition","3089":"ges","3090":"\u0120star","3091":"\u0120wond","3092":"\u0120Senate","3093":"IT","3094":"\u0120Pat","3095":"\u0120speed","3096":"\u0120exam","3097":"\u0120considered","3098":"raq","3099":"icles","3100":"aries","3101":"\u0120reb","3102":"bed","3103":"\u0120levels","3104":"eth","3105":"\u0120Times","3106":"\u0120County","3107":"elligence","3108":"\u0120slow","3109":"\u0120investigation","3110":"ps","3111":"ille","3112":"\u0120conduct","3113":"aph","3114":"\u0120Party","3115":"22","3116":"\u0120King","3117":"\u0120medical","3118":"\u0120mach","3119":"imately","3120":"vent","3121":"\u0120achie","3122":"\u0120language","3123":"aturday","3124":"\u0120card","3125":"\u0120sn","3126":"unk","3127":"\u0120sort","3128":"\u0120critic","3129":"ope","3130":"\u0120Tex","3131":"\u0120Center","3132":"\u0120pen","3133":"\u0120und","3134":"wo","3135":"\u0120India","3136":"\u0120paper","3137":"ysis","3138":"IC","3139":"\u01202008","3140":"pir","3141":"\u0120conserv","3142":"\u0120parents","3143":"imin","3144":"\u0120sexual","3145":"\u0120systems","3146":"\u0120prior","3147":"ha","3148":"uit","3149":"asc","3150":"\u0120doll","3151":"\u0120written","3152":"uf","3153":"\u0120box","3154":"\u0120spokes","3155":"igr","3156":"\u0120seek","3157":"\u0120sens","3158":"het","3159":"\u0120document","3160":"idge","3161":"eared","3162":"\u0120increasing","3163":"\u0120hear","3164":"ani","3165":"atform","3166":"\u0120draw","3167":"\u0120seven","3168":"\u0120son","3169":"\u0120Muslim","3170":"\u0120effort","3171":"ruary","3172":"\u0120jobs","3173":"\u0120Iran","3174":"\u0120extreme","3175":"\u0120prevent","3176":"\u0120learn","3177":"ining","3178":"\u0120serious","3179":"\u0120regul","3180":"rast","3181":"\u0120inn","3182":"\u0120range","3183":"\u0120...","3184":"room","3185":"\u0120violence","3186":"\u0120eight","3187":"\u0120Mark","3188":"80","3189":"ources","3190":"\u0120Iraq","3191":"itch","3192":"OP","3193":"\u0120surve","3194":"\u0120completely","3195":"\u0120conc","3196":"\u01202009","3197":"\u0120message","3198":"ico","3199":"tr","3200":"\u0120\u00e2","3201":"She","3202":"\u0120obv","3203":"\u0120interesting","3204":"reedom","3205":"\u0120screen","3206":"abor","3207":"\u0120opportunity","3208":"eff","3209":"\u0120climate","3210":"24","3211":"ext","3212":"\u0120majority","3213":"\u0120Ke","3214":"anced","3215":"\u0120particularly","3216":"\u0120doub","3217":"\u0120journal","3218":"\u0120Rom","3219":"\u0120despite","3220":"\u0120claims","3221":"\u0120Char","3222":"\u0120answer","3223":"\u0120society","3224":"\u0120London","3225":"\u0120defense","3226":"\u0120carry","3227":"entially","3228":"aming","3229":"\u0120guy","3230":"\u0120extra","3231":"ension","3232":"mp","3233":"\u0120Donald","3234":"isions","3235":"\u0120attacks","3236":"\u0120required","3237":"erve","3238":"rench","3239":"illed","3240":"\u0120biggest","3241":"vertisement","3242":"\u0120East","3243":"\u0120exactly","3244":"iers","3245":"\u0120paid","3246":"\u0120More","3247":"ibr","3248":"\u0120experien","3249":"\u0120aren","3250":"lying","3251":"uclear","3252":"inese","3253":"\u0120modern","3254":"\u0120remain","3255":"\u0120quarter","3256":"\u0120officers","3257":"ett","3258":"\u0120hundred","3259":"\u0120cross","3260":"\u0120except","3261":"utions","3262":"ari","3263":"\u0120table","3264":"\u0120practice","3265":"\u0120natural","3266":"inally","3267":"\u0120middle","3268":"erc","3269":"\u012027","3270":"\u0120certainly","3271":"\u0120dro","3272":"add","3273":"oses","3274":"\u0120Saturday","3275":"\u0120stories","3276":"\u0120Net","3277":"\u0120histor","3278":"\u0120gas","3279":"\u0120products","3280":"\u0120surv","3281":"\u0120looked","3282":"\u0120sometimes","3283":"nces","3284":"\u0120stuff","3285":"\u0120rout","3286":"\u0120science","3287":"\u0120finally","3288":"\u0120user","3289":"AM","3290":"\u0120summer","3291":"\u0120movie","3292":"\u0120blood","3293":"ospital","3294":"aves","3295":"\u0120communic","3296":"\u0120aw","3297":"ously","3298":"\u0120lay","3299":"\u0120changed","3300":"\u0120ones","3301":"\u0120leading","3302":"\u0120described","3303":"\u0120Sand","3304":"\u0120imag","3305":"\u0120term","3306":"\u0120February","3307":"fl","3308":"\u0120prison","3309":"\u0120convers","3310":"ny","3311":"\u0120details","3312":"icks","3313":"\u0120starting","3314":"\u0120Spe","3315":"\u0120quality","3316":"\u0120occur","3317":"\u0120pan","3318":"hib","3319":"\u0120showed","3320":"\u0120named","3321":"\u0120giving","3322":"\u0120ult","3323":"\u0120remains","3324":"\u0120McC","3325":"uing","3326":"\u0120region","3327":"pper","3328":"\u0120provided","3329":"\u0120costs","3330":"akers","3331":"\u0120Soc","3332":"arr","3333":"\u0120damage","3334":"\u0120mob","3335":"\u0120danger","3336":"\u0120fit","3337":"aught","3338":"\u0120TH","3339":"\u0120Tur","3340":"\u0120chief","3341":"\u0120poor","3342":"\u0120path","3343":"\u0120Mor","3344":"ida","3345":"\u0120education","3346":"\u0120multiple","3347":"\u0120continued","3348":"enge","3349":"\u0120Int","3350":"\u0120growing","3351":"No","3352":"\u0120demonst","3353":"\u0120Che","3354":"\u0120*","3355":"\u0120parts","3356":"yl","3357":"\u012026","3358":"\u0120writing","3359":"\u0120comments","3360":"\u012028","3361":"\u0120ment","3362":"\u0120maintain","3363":"\u0120safe","3364":"\u0120assist","3365":"\u0120thinking","3366":"\u0120Des","3367":"inary","3368":"\u0120Republicans","3369":"\u0120Even","3370":"\u0120purp","3371":"\u0120request","3372":"\u0120write","3373":"\u0120fix","3374":"\u0120item","3375":"\u0120purch","3376":"ables","3377":"\u0120died","3378":"\u0120Democratic","3379":"\u0120Coun","3380":"FL","3381":"ago","3382":"\u0120ready","3383":"coin","3384":"\u0120wouldn","3385":"\u0120implement","3386":"23","3387":"\u0120increased","3388":"\u0120culture","3389":"fort","3390":"\u0120efforts","3391":"\u0120voters","3392":"ux","3393":"pre","3394":"\u0120camer","3395":"\u0120mill","3396":"aly","3397":"....","3398":"oper","3399":"\u0120reading","3400":"mitted","3401":"iminal","3402":"\u0120file","3403":"\u0120usually","3404":"\u0120calls","3405":"\u0120spot","3406":"\u0120effects","3407":"Im","3408":"\u0120Gener","3409":"zz","3410":"\u0120perhaps","3411":"ban","3412":"\u0120alone","3413":"arian","3414":"iles","3415":"\u0120First","3416":"\u0120although","3417":"\u0120towards","3418":"\u0120League","3419":"de","3420":"\u0120consist","3421":"\u0120Bill","3422":"\u0120Texas","3423":"\u0120select","3424":"\u0120guys","3425":"\u0120standard","3426":"\u0120Michael","3427":"\u0120subst","3428":"\u0120cele","3429":"\u0120beyond","3430":"\u0120directly","3431":"\u0120platform","3432":"\u0120Chinese","3433":"\u0120(@","3434":"\u0120hous","3435":"using","3436":"itute","3437":"\u0120speech","3438":"\u0120reality","3439":"icated","3440":"\u0120kids","3441":"\u0120James","3442":"\u0120avoid","3443":"\u0120throughout","3444":"\u0120football","3445":"\u0120student","3446":"ara","3447":"\u0120couldn","3448":"rowd","3449":"BI","3450":"\u0120unf","3451":"ford","3452":"\u0120immediately","3453":"oul","3454":"\u0120rob","3455":"\u0120includes","3456":"\u0120cat","3457":"\u0120concept","3458":"egr","3459":"\u0120center","3460":"\u0120choice","3461":"\u0120scene","3462":"\u0120complex","3463":"anch","3464":"\u0120additional","3465":"sp","3466":"\u0120Mon","3467":"\u0120challeng","3468":"\u0120Cons","3469":"\u0120wife","3470":"\u0120clos","3471":"urt","3472":"\u0120tro","3473":"\u0120recomm","3474":"\u0120researc","3475":"Re","3476":"\u0120epis","3477":"hest","3478":"itor","3479":"All","3480":"\u0120ver","3481":"\u0120Minister","3482":"\u0120sle","3483":"\u0120corpor","3484":"\u0120\u00e2\u0122\u00a6","3485":"\u0120designed","3486":"\u0120Ser","3487":"urg","3488":"agon","3489":"\u0120remember","3490":"\u0120software","3491":"\u0120safety","3492":"\u0120Indian","3493":"wise","3494":"\u0120gone","3495":"\u0120il","3496":"astic","3497":"ports","3498":"\u0120cast","3499":"\u0120sell","3500":"\u0120toward","3501":"\u0120agency","3502":"\u0120ten","3503":"\u0120officer","3504":"aches","3505":"\u0120figure","3506":"\u0120piece","3507":"\u0120brain","3508":"omen","3509":"\u0120battle","3510":"\u0120Jack","3511":"men","3512":"\u0120counter","3513":"\u0120debate","3514":"airs","3515":"ression","3516":"ston","3517":"\u0120thousands","3518":"adem","3519":"\u0120swe","3520":"rupt","3521":"\u0120opin","3522":"\u0120ahead","3523":"icient","3524":"Now","3525":"imum","3526":"\u0120relative","3527":"irth","3528":"\u0120letter","3529":"\u0120receive","3530":"\u0120pressure","3531":"\u0120\u00d0","3532":"\u0120Bo","3533":"\u0120blog","3534":"ilies","3535":"ampions","3536":"\u0120>","3537":"\u0120sil","3538":"\u0120moved","3539":"\u0120launch","3540":"\u0120appears","3541":"\u0120option","3542":"\u0120Play","3543":"\u0120passed","3544":"\u0120ut","3545":"\u0120prec","3546":"\u0120stage","3547":"roy","3548":"oes","3549":"\u012060","3550":"\u0120clean","3551":"\u0120Serv","3552":"olute","3553":"\u0120II","3554":"atever","3555":"berg","3556":"OT","3557":"\u0120property","3558":"27","3559":"\u0120helped","3560":"amb","3561":"\u0120drive","3562":"\u0120Apple","3563":"just","3564":"\u0120alleged","3565":"\u0120Green","3566":"\u0120twe","3567":"new","3568":"\u0120disapp","3569":"\u0120tour","3570":"\u0120meaning","3571":"\u0120rock","3572":"\u0120dog","3573":"\u0120x","3574":"\u0120cris","3575":"itation","3576":"\u0120Associ","3577":"\u0120suspect","3578":"\u0120date","3579":"\u0120Rich","3580":"aughter","3581":"\u0120moving","3582":"\u0120score","3583":"\u0120Democrats","3584":"\u0120organization","3585":"\u0120sat","3586":"\u0120conditions","3587":"\u0120touch","3588":"\u0120dark","3589":"\u0120command","3590":"\u0120Then","3591":"\u0120ign","3592":"?\"","3593":"\u0120reasons","3594":"\u0120budget","3595":"\u0120park","3596":"more","3597":"\u0120nuclear","3598":"\u0120myself","3599":"\u0120nom","3600":"\u0120deg","3601":"\u0120happy","3602":"\u0120device","3603":"\u0120difference","3604":"rief","3605":"\u0120Sim","3606":"\u0120maybe","3607":"chan","3608":"\u0120beginning","3609":"AD","3610":"\u0120copy","3611":"\u0120nature","3612":"\u0120failed","3613":"wood","3614":"\u0120fan","3615":"\u0120characters","3616":"yan","3617":"\u0120computer","3618":"\u0120encour","3619":"\u0120aim","3620":"\u0120Mart","3621":"\u0120title","3622":"\u0120wall","3623":"\u0120compared","3624":"\u0120league","3625":"ocked","3626":"\u0120Super","3627":"ivity","3628":"\u0120estim","3629":"\u0120Val","3630":"\u0120Star","3631":"\u0120college","3632":"\u0120eyes","3633":"\u0120shown","3634":"\u0120English","3635":"\u0120century","3636":"\u0120powerful","3637":"\u0120Day","3638":"lease","3639":"ource","3640":"\u0120bal","3641":"aint","3642":"\u0120limited","3643":"\u0120yes","3644":"\u0120band","3645":"\u0120contribut","3646":"\u0120positive","3647":"\u0120forced","3648":"\u0120sche","3649":"\u0120necessary","3650":"\u0120refer","3651":"\u0120candidate","3652":"\u0120stra","3653":"\u0120disp","3654":"35","3655":"cient","3656":"\u0120books","3657":"\u0120trust","3658":"AP","3659":"\u0120French","3660":"\u0120largest","3661":"26","3662":"\u0120arch","3663":"enty","3664":"\u0120sal","3665":"\u0120Here","3666":"\u0120conference","3667":"\u0120Rober","3668":"aud","3669":"\u0120note","3670":"\u0120analysis","3671":"ufact","3672":"\u0120spending","3673":"\u0120presidential","3674":"45","3675":"\u0120Of","3676":"\u0120citizens","3677":"orks","3678":"\u0120schools","3679":"igration","3680":"\u0120Syria","3681":"\u0120throw","3682":"venue","3683":"\u0120Ben","3684":"\u0120aware","3685":"\u0120meant","3686":"\u0120executive","3687":"\u0120eventually","3688":"My","3689":"\u0120physical","3690":"\u0120followed","3691":"\u0120feature","3692":"\u0120treatment","3693":"\u0120crowd","3694":"Be","3695":"\u0120Tor","3696":"\u0120Wind","3697":"\u0120firm","3698":"\u0120streng","3699":"\u0120confir","3700":"\u0120mix","3701":"\u0120bott","3702":"ero","3703":"\u0120correct","3704":"orney","3705":"\u012029","3706":"ares","3707":"\u0120Dis","3708":"\u0120grad","3709":"\u0120religious","3710":"\u0120easily","3711":"\u0120autom","3712":"\u0120esc","3713":"\u0120pus","3714":"band","3715":"board","3716":"Is","3717":"\u0120cool","3718":"etro","3719":"\u0120196","3720":"\u0120families","3721":"\u0120illeg","3722":"ressed","3723":"craft","3724":"cul","3725":"rated","3726":"\u0120actions","3727":"\u0120overall","3728":"\u0120Air","3729":"\u0120Mex","3730":"\u0120allows","3731":"\u0120gives","3732":"\u0120feed","3733":"\u0120\u00c2\u00a3","3734":"):","3735":"\u0120susp","3736":"ube","3737":"\u0120yourself","3738":"By","3739":"\u0120draft","3740":"bum","3741":"ken","3742":"\u0120smart","3743":"\u0120appeared","3744":"\u0120detail","3745":"\u0120income","3746":"iring","3747":"\u0120analy","3748":"\u0120Bel","3749":"\u0120signed","3750":"New","3751":"encies","3752":"\u0120central","3753":"\u0120ideas","3754":"\u0120ang","3755":"\u0120Govern","3756":"\u0120senior","3757":"Advertisement","3758":"\u0120frequ","3759":"\u0120weapons","3760":"ID","3761":"\u0120Bre","3762":"\u0120har","3763":"\u0120display","3764":"\u0120promot","3765":"\u0120nice","3766":"\u0120credit","3767":"\u0120decades","3768":"\u0120psych","3769":"\u0120politics","3770":"Don","3771":"\u0120crime","3772":"OM","3773":"EC","3774":"\u0120uses","3775":"inn","3776":"\u0120door","3777":"\u0120dise","3778":"uty","3779":"\u0120International","3780":"\u0120unique","3781":"28","3782":"\u0120altern","3783":"\u0120lif","3784":"According","3785":"\u0120drop","3786":"\u0120sales","3787":"mar","3788":"\u0120developed","3789":"Ar","3790":"resh","3791":"\u0120customers","3792":"ET","3793":"\u0120benefits","3794":"\u0120conflic","3795":"urance","3796":"\u0120related","3797":"\u0120crisis","3798":"\u0120School","3799":"\u0120mist","3800":"erry","3801":"iable","3802":"\u0120predict","3803":"\u0120noted","3804":"\u0120Cap","3805":"29","3806":"\u0120Australia","3807":"\u0120EU","3808":"\u0120truth","3809":"box","3810":"part","3811":"\u0120goals","3812":"iny","3813":"\u0120individuals","3814":"\u0120charge","3815":"\u0120Earth","3816":"\u0120beaut","3817":"\u0120continues","3818":"onents","3819":"\u0120Union","3820":"\u0120Arab","3821":"\u0120observ","3822":"\u0120rap","3823":"\u0120challenge","3824":"\u0120sto","3825":"nown","3826":"\u0120apparent","3827":"\u0120Angel","3828":"itely","3829":"\u0120Smith","3830":"\u0120lic","3831":"\u0120projects","3832":"\u0120peace","3833":"\u0120measure","3834":"\u0120Police","3835":"oti","3836":"\u0120intelligence","3837":"\u0120Christian","3838":"\u0120previously","3839":"\u0120Germany","3840":"\u0120fully","3841":"\u0120rule","3842":"\u0120manager","3843":"\u0120brother","3844":"\u0120rates","3845":"\u0120advant","3846":"Un","3847":"change","3848":"\u0120expand","3849":"\u0120clearly","3850":"\u0120reform","3851":"\u0120lines","3852":"net","3853":"\u0120successful","3854":"riage","3855":"\u0120highly","3856":"\u0120larger","3857":"ounds","3858":"21","3859":"\u0120traff","3860":"\u0120spread","3861":"iance","3862":"\u0120seemed","3863":"\u0120Council","3864":"\u0120straight","3865":"Some","3866":"\u0120criminal","3867":"\u0120Comp","3868":"\u0120minor","3869":"\u0120emb","3870":"ki","3871":"\u0120George","3872":"\u0120programs","3873":"iced","3874":"attle","3875":"owers","3876":"\u0120Franc","3877":"\u0120incident","3878":"\u0120resources","3879":"\u0120Tom","3880":"\u0120greater","3881":"\u0120primary","3882":"IA","3883":"inated","3884":"antly","3885":"\u0120knowledge","3886":"Pro","3887":"\u0120studies","3888":"while","3889":"dom","3890":"\u0120save","3891":"orter","3892":"\u0120web","3893":"ategy","3894":"ean","3895":"\u0120kept","3896":"\u0120attract","3897":"\u0120Flor","3898":"olic","3899":"\u0120spir","3900":"\u0120emot","3901":"que","3902":"\u0120color","3903":"\u0120feet","3904":"\u0120Cr","3905":"sey","3906":"\u0120rare","3907":"\u0120reached","3908":"\u0120Ant","3909":"secut","3910":"\u0120arm","3911":"\u0120High","3912":"levision","3913":"\u0120Internet","3914":"\u0120Brown","3915":"oday","3916":"iders","3917":"osh","3918":"\u0120favorite","3919":"\u0120places","3920":"rs","3921":"\u0120Rec","3922":"\u0120regular","3923":"wide","3924":"ota","3925":"vere","3926":"\u0120manufact","3927":"\u0120laun","3928":"\u0120Def","3929":"100","3930":"\u0120send","3931":"\u0120prem","3932":"\u0120Ham","3933":"roll","3934":"lick","3935":"icit","3936":"\u0120knows","3937":"\u0120shooting","3938":"\u0120activity","3939":"\u0120pun","3940":"\u0120sources","3941":"\u0120normal","3942":"icago","3943":"bon","3944":"term","3945":"ingly","3946":"onent","3947":"ser","3948":"ville","3949":"\u0120status","3950":"\u0120fighting","3951":"\u0120voice","3952":"\u0120rise","3953":"ocks","3954":"\u0120fine","3955":"\u0120owners","3956":"\u0120caused","3957":"\u0120claimed","3958":"\u0120Mac","3959":"\u0120enem","3960":"\u0120liter","3961":"\u0120Rob","3962":"\u0120Up","3963":"\u0120General","3964":"aith","3965":"EO","3966":"\u0120options","3967":"\u01202007","3968":"\u0120integr","3969":"ength","3970":"usion","3971":"\u0120spend","3972":"\u0120Gold","3973":"ado","3974":"\u0120cities","3975":"miss","3976":"\u0120organiz","3977":"ING","3978":"\u0120ended","3979":"iled","3980":"\u0120researchers","3981":"\u0120calling","3982":"\u0120shut","3983":"\u0120reflect","3984":"\u0120La","3985":"mission","3986":"mark","3987":"org","3988":"\u00e2\u0122\u013f,","3989":"oles","3990":"70","3991":"roid","3992":"\u0120prices","3993":"\u0120Every","3994":"\u0120album","3995":"\u0120From","3996":"ifying","3997":"\u0120employees","3998":"\u0120female","3999":"\u0120England","4000":"ya","4001":"www","4002":"\u0120virt","4003":"\u0120haven","4004":"\u0120raised","4005":"mittee","4006":"\u0120ele","4007":"\u0120jump","4008":"uana","4009":"33","4010":"\u0120supposed","4011":"itness","4012":"\u0120happens","4013":"\u0120adding","4014":"\u0120policies","4015":"\u0120names","4016":"\u0120charges","4017":"\u0120pros","4018":"\u0120trou","4019":"ica","4020":"ribution","4021":"\u0120basic","4022":"iverse","4023":"uman","4024":"Not","4025":"\u0120Mag","4026":"\u0120concerns","4027":"\u0120traditional","4028":"\u0120wait","4029":"inger","4030":"\u0120plant","4031":"\u0120absolute","4032":"\u0120acqu","4033":"\u0120hospital","4034":"\u0120funding","4035":"ram","4036":"\u0120Bay","4037":"\u0120print","4038":"\u0120slight","4039":"\u0120commer","4040":"rol","4041":"\u0120patients","4042":"\u0120authorities","4043":"\u0120minister","4044":"Sc","4045":"\u0120creating","4046":"\u0120freedom","4047":"\u0120AP","4048":"\u0120mechan","4049":"\u0120scen","4050":"\u0120Mo","4051":"\u0120style","4052":"\u0120seeing","4053":"\u0120grand","4054":".\u00e2\u0122\u013b","4055":"\u0120beat","4056":"\u0120lik","4057":"ona","4058":"rian","4059":"\u0120station","4060":"\u0120Scott","4061":"see","4062":"\u0120push","4063":"ijuana","4064":"\u0120behavior","4065":"\u0120beg","4066":"\u0120leaving","4067":"\u0120cry","4068":"\u0120impl","4069":"\u0120birth","4070":"\u0120ir","4071":"\u0120actual","4072":"EL","4073":"\u0120ensure","4074":"\u0120offered","4075":"pen","4076":"\u0120agreement","4077":"\u0120Florida","4078":"\u0120eth","4079":"soft","4080":"\u0120Hillary","4081":"\u0120posted","4082":"\u0120gold","4083":"\u0120Sun","4084":"\u0120weekend","4085":"\u0120green","4086":"\u0120Most","4087":"\u0120Ber","4088":"\u0120Reg","4089":"\u0120adult","4090":"alse","4091":"\u0120weight","4092":"OU","4093":".'","4094":"acing","4095":"\u0120determin","4096":"\u0120vac","4097":"Here","4098":"\u0120revealed","4099":"\u0120Well","4100":"\u0120application","4101":"\u0120mostly","4102":"\u0120values","4103":"\u0120propos","4104":"itude","4105":"\u0120Alex","4106":"aby","4107":"\u0120willing","4108":"earch","4109":"\u0120rank","4110":"\u0120adop","4111":"\u0120According","4112":"\u0120establ","4113":"\u0120eye","4114":"\u0120records","4115":"ection","4116":"\u00e2\u0122\u00a2","4117":"500","4118":"\u0120enforce","4119":"http","4120":"\u0120picture","4121":"\u0120believed","4122":"pri","4123":"\u0120mer","4124":"uild","4125":"\u0120brief","4126":"\u0120Let","4127":"\u0120learned","4128":"\u0120Law","4129":"\u0120install","4130":"\u0120strategy","4131":"\u0120appl","4132":"SA","4133":"igned","4134":"\u0120choose","4135":"istry","4136":"\u0120dire","4137":"\u0120wonder","4138":"\u0120qual","4139":"\u0120massive","4140":"\u0120devices","4141":"\u0120benefit","4142":"\u0120wild","4143":"\u0120parties","4144":"\u0120Chicago","4145":"\u0120lawy","4146":"\u0120People","4147":"\u0120uns","4148":"cher","4149":"\u0120cars","4150":"\u0120Trans","4151":"\u0120Port","4152":"cont","4153":"\u0120Phil","4154":"\u0120arrested","4155":"\u0120mount","4156":"\u0120whatever","4157":"\u0120wat","4158":"\u0120Oh","4159":"\u0120France","4160":"\u0120street","4161":"\u0120;","4162":"\u0120provides","4163":"\u0120whom","4164":"\u0120assault","4165":"90","4166":"liament","4167":"\u0120asking","4168":"\u0120influence","4169":"ties","4170":"\u0120judge","4171":"\u0120lose","4172":"\u0120fat","4173":"\u0120feeling","4174":"\u0120operations","4175":"\u0120produced","4176":"\u0120temper","4177":"ste","4178":"\u0120critical","4179":"\u0120Secret","4180":"\u0120Lou","4181":"\u0120negoti","4182":"point","4183":"\u0120mission","4184":"\u0120enter","4185":"\u0120Bush","4186":"Ex","4187":"\u0120images","4188":"\u00d0\u00be","4189":"\u0120Stud","4190":"\u0120confirmed","4191":"\u0120showing","4192":"IL","4193":"\u0120district","4194":"ription","4195":"\u0120runs","4196":"\u0120pattern","4197":"gen","4198":"\u0120tend","4199":"\u0120Mat","4200":"\u0120border","4201":"\u0120residents","4202":"orial","4203":"rav","4204":"\u0120debt","4205":"However","4206":"\u0120\u00c3","4207":"aked","4208":"no","4209":"\u0120cru","4210":"\u0120teac","4211":"mine","4212":"\u0120Committee","4213":"udd","4214":"\u0120opposition","4215":"Cl","4216":"\u0120celebr","4217":"\u0120Wall","4218":"\u0120Health","4219":"\u0120section","4220":"\u0120defend","4221":"\u0120etc","4222":"estic","4223":"\u0120produce","4224":"icial","4225":"\u0120Commission","4226":"\u0120drink","4227":"\u0120independent","4228":"\u0120Mod","4229":"ront","4230":"cell","4231":"\u0120Why","4232":"\u0120brand","4233":"ented","4234":"ags","4235":"ugg","4236":"\u0120core","4237":"\u0120Press","4238":"\u0120tick","4239":"\u0120digital","4240":"\u0120Bit","4241":"\u0120hero","4242":"\u0120advoc","4243":"ae","4244":"\u0120dollars","4245":"ocr","4246":"rial","4247":"\u0120effective","4248":"\u0120solution","4249":"\u0120Mal","4250":"\u0120vill","4251":"\u0120interested","4252":"\u0120Sam","4253":"\u0120Korea","4254":"BA","4255":"\u0120highest","4256":"ords","4257":"\u0120memory","4258":"\u0120opening","4259":"\u0120worse","4260":"\u0120learning","4261":"\u0120responsible","4262":"\u0120trial","4263":"\u0120daily","4264":"\u0120kick","4265":"\u0120theory","4266":"\u0120Other","4267":"\u0120offers","4268":"\u0120Palest","4269":"\u0120replace","4270":"\u0120restrict","4271":"\u0120Get","4272":"\u0120mur","4273":"\u0120Office","4274":"\u0120agreed","4275":"\u0120television","4276":"\u0120Francis","4277":"cience","4278":"\u0120Micro","4279":"\u0120Because","4280":"\u0120occas","4281":"ST","4282":"illing","4283":"CC","4284":"\u0120train","4285":"\u0120investment","4286":"\u0120vs","4287":"\u0120types","4288":"iation","4289":"\u0120Western","4290":"aks","4291":"icians","4292":"\u0120chair","4293":"\u0120miles","4294":"\u0120millions","4295":"uries","4296":"\u0120chem","4297":"\u0120Justice","4298":"\u0120Del","4299":"\u0120generally","4300":"\u0120basis","4301":"\u0120proposed","4302":"\u012080","4303":"\u0120Mike","4304":"\u0120Mil","4305":"\u0120Cup","4306":"These","4307":"ipe","4308":"\u0120heavy","4309":"\u0120explained","4310":"\u0120map","4311":"\u0120Our","4312":"AA","4313":"rad","4314":"\u0120der","4315":"\u0120bur","4316":"oly","4317":"\u0120partners","4318":"ander","4319":"\u0120Add","4320":"\u0120opinion","4321":"win","4322":"\u0120defe","4323":"\u0120onto","4324":"\u0120protest","4325":"Con","4326":"________","4327":"Get","4328":"\u0120associated","4329":"\u0120load","4330":"rig","4331":"azing","4332":"\u0120NFL","4333":"rate","4334":"oom","4335":"44","4336":"\u0120Found","4337":"\u0120male","4338":"\u0120becomes","4339":"\u0120reject","4340":"outhern","4341":"====","4342":"\u0120Security","4343":"vest","4344":"\u0120coal","4345":"\u0120obtain","4346":"\u0120destroy","4347":"\u0120advantage","4348":"\u0120assum","4349":"\u0120Liber","4350":"\u0120condition","4351":"\u0120announce","4352":"\u0120hundreds","4353":"\u0120achieve","4354":"\u0120opened","4355":"eline","4356":"\u0120understanding","4357":"odes","4358":"\u0120Johnson","4359":"coming","4360":"icip","4361":"\u0120surround","4362":"ading","4363":"orthern","4364":"bert","4365":"well","4366":"la","4367":"upp","4368":"\u0120initial","4369":"\u0120Att","4370":"\u0120Big","4371":"\u0120sleep","4372":"36","4373":"\u0120ship","4374":"\u0120marriage","4375":"\u0120management","4376":"\u0120Windows","4377":"\u0120thus","4378":"\u0120limit","4379":"\u0120born","4380":"32","4381":"\u0120becoming","4382":"known","4383":"\u0120photo","4384":"\u0120easier","4385":"FC","4386":"\u0120Great","4387":"\u0120rat","4388":"\u0120legislation","4389":"\u0120controvers","4390":"\u0120unlike","4391":"\u0120electric","4392":"\u0120Many","4393":"\u0120camera","4394":"witch","4395":"\u0120accused","4396":"\u0120spl","4397":"\u0120neighbor","4398":"\u0120double","4399":"\u0120ice","4400":"\u0120species","4401":"lant","4402":"\u0120shared","4403":"\u0120join","4404":"\u0120illegal","4405":"\u012031","4406":"\u0120Lab","4407":"\u01202006","4408":"Mr","4409":"\u0120harm","4410":"\u0120machine","4411":"\u0120served","4412":"\u0120Jer","4413":"GB","4414":"\u0120extremely","4415":"olf","4416":"\u0120active","4417":"\u012035","4418":"\u0120serve","4419":"\u0120documents","4420":"\u0120Islamic","4421":"\u0120frame","4422":"za","4423":"\u0120strik","4424":"level","4425":"\u0120Dist","4426":"\u0120audience","4427":"BS","4428":"\u0120location","4429":"\u0120AM","4430":"\u0120scientists","4431":"\u0120bottom","4432":"\u0120victims","4433":"\u0120Art","4434":"orrow","4435":"\u0120wealth","4436":"\u0120professional","4437":"\u0120resist","4438":"ih","4439":"\u0120reduce","4440":"\u0120belief","4441":"\u0120nine","4442":"\u0120solid","4443":"\u0120winning","4444":"\u0120marijuana","4445":"ears","4446":"\u0120Uk","4447":"\u0120negative","4448":"75","4449":"iful","4450":"\u0120communities","4451":"\u0120returned","4452":"ortunately","4453":"\u0120bed","4454":"\u0120incred","4455":"\u0120PM","4456":"\u0120Institute","4457":"met","4458":"tered","4459":"\u0120church","4460":"PS","4461":"\u0120department","4462":"irgin","4463":"\u0120Sanders","4464":"\u0120ran","4465":"\u0120victory","4466":"rey","4467":"\u0120purpose","4468":"\u012090","4469":"\u0120Commun","4470":"\u0120amb","4471":"lands","4472":"\u0120vehicle","4473":"\u0120internet","4474":"\u0120leadership","4475":"ios","4476":"\u0120Hall","4477":"istics","4478":"\u0120bomb","4479":"\u0120mobile","4480":"ghan","4481":"\u0120instance","4482":"ipped","4483":"38","4484":"\u0120separate","4485":"\u0120existing","4486":"\u0120notice","4487":"\u0120hearing","4488":"\u0120die","4489":"\u0120explain","4490":"\u0120doubt","4491":"\u0120faith","4492":"\u0120teach","4493":"house","4494":"\u0120Your","4495":"atically","4496":"\u0120episode","4497":"\u0120watching","4498":"\u0120comfort","4499":"\u0120Canadian","4500":"\u0120Bank","4501":"\u0120notes","4502":"\u0120radio","4503":"\u0120Ev","4504":"\u0120fresh","4505":"\u0120Fin","4506":"\u0120unc","4507":"\u0120views","4508":"\u0120Inc","4509":"\u0120putting","4510":"asy","4511":"\u0120supporters","4512":"\u0120conservative","4513":"\u0120purs","4514":"\u0120argument","4515":"omas","4516":"\u0120micro","4517":"ario","4518":"acity","4519":"\u0120launched","4520":"scrib","4521":"works","4522":"OL","4523":"\u0120appeal","4524":"iliar","4525":"\u0120items","4526":"\u0120committee","4527":"resp","4528":"\u0120Mad","4529":"which","4530":"\u0120definitely","4531":"\u0120dangerous","4532":"iller","4533":"PA","4534":"zen","4535":"\u0120coverage","4536":"\u0120direction","4537":"\u0120Over","4538":"\u0120charged","4539":"\u0120floor","4540":"\u0120sun","4541":"\u0120max","4542":"ography","4543":"34","4544":"EM","4545":"\u0120Carol","4546":"\u0120Church","4547":"\u0120Fox","4548":"\u0120issued","4549":"\u0120drugs","4550":"Image","4551":"ipp","4552":"\u0120task","4553":"\u0120background","4554":"\u0120competition","4555":"\u0120trend","4556":"\u0120stated","4557":"vention","4558":"andom","4559":"ada","4560":"\u0120traffic","4561":"\u0120FBI","4562":"\u0120commercial","4563":"\u0120Direct","4564":"urb","4565":"itt","4566":"NA","4567":"\u0120spoke","4568":"\u0120sett","4569":"inct","4570":"\u0120transfer","4571":"\u0120suggested","4572":"\u0120structure","4573":"\u0120sites","4574":"\u0120hus","4575":"\u0120north","4576":"\u0120Since","4577":"\u0120Like","4578":"\u0120restaur","4579":"ampionship","4580":"\u0120labor","4581":"\u0120decade","4582":"\u0120repeated","4583":"\u0120Game","4584":"\u0120react","4585":"oman","4586":"\u0120cards","4587":"\u0120animals","4588":"going","4589":"\u0120novel","4590":"ctors","4591":"but","4592":"ribute","4593":"\u0120daughter","4594":"anted","4595":"\u0120Sl","4596":"\u0120driving","4597":"\u0120closed","4598":"\u0120worst","4599":"\u0120contain","4600":"\u0120entirely","4601":"\u0120ded","4602":"\u0120Britain","4603":"ady","4604":"gency","4605":"\u0120driver","4606":"\u0120Wil","4607":"\u0120disease","4608":"\u0120telling","4609":"iling","4610":"\u0120smaller","4611":"\u0120discovered","4612":"\u0120nor","4613":"Bl","4614":"akistan","4615":"\u0120refere","4616":"\u0120Pri","4617":"Americ","4618":"\u0120Los","4619":"ius","4620":"\u0120hack","4621":"hem","4622":"equ","4623":"!\u00e2\u0122\u013f","4624":"ference","4625":"\u0120Que","4626":"spe","4627":"\u0120false","4628":"\u0120cash","4629":"\u0120concerned","4630":"ulf","4631":"\u0120plays","4632":"\u0120surface","4633":"semb","4634":"\u0120supported","4635":"annel","4636":"ulated","4637":"\u0120tools","4638":"oyal","4639":"\u0120compar","4640":"\u0120transport","4641":"\u0120Chris","4642":"\u0120experiment","4643":"\u0120finding","4644":"night","4645":"\u0120categ","4646":"\u00e3\u0124","4647":"\u0120aspect","4648":"##","4649":"\u0120businesses","4650":"\u012070","4651":"\u0120UN","4652":"ait","4653":"\u0120farm","4654":"\u0120please","4655":"\u0120older","4656":"azon","4657":"how","4658":"\u0120activities","4659":"\u0120requires","4660":"phone","4661":"CH","4662":"\u0120gay","4663":"\u0120Jones","4664":"do","4665":"ibrary","4666":"\u0120strength","4667":"48","4668":"\u0120wel","4669":"andon","4670":"\u0120insurance","4671":"\u0120consequ","4672":"37","4673":"\u0120largely","4674":"\u0120murder","4675":"NN","4676":"ici","4677":"55","4678":"\u0120exerc","4679":"\u0120caught","4680":"\u0120candidates","4681":"kins","4682":"\u0120Israeli","4683":"\u0120allowing","4684":"icy","4685":"\u0120blue","4686":"\u0120Are","4687":"\u0120annual","4688":"\u0120Ken","4689":"\u0120Tre","4690":"\u0120testing","4691":"ossible","4692":"\u0120strateg","4693":"\u0120Sup","4694":"\u0120raise","4695":"\u0120stock","4696":"arant","4697":"overy","4698":"\u0120Robert","4699":"izes","4700":"\u0120decisions","4701":"\u0120accur","4702":"rick","4703":"\u0120context","4704":"\u0120fuel","4705":"\u0120Ac","4706":"SP","4707":"lor","4708":"osure","4709":"\u0120Ukrain","4710":"\u0120concern","4711":"\u0120afford","4712":"\u0120believes","4713":"\u0120construction","4714":"\u0120truly","4715":"****","4716":"\u0120Ty","4717":"\u0120Miss","4718":"\u0120ge","4719":"\u0120justice","4720":"igrants","4721":"\u0120generation","4722":"\u0120highlight","4723":"\u0120unit","4724":"rim","4725":"\u0120presence","4726":"\u0120Jewish","4727":"anging","4728":"!!","4729":"\u0120Sil","4730":"\u00d0\u00b0","4731":"tery","4732":"\u00d0\u00b5","4733":"ception","4734":"\u0120Africa","4735":"\u0120guess","4736":"ancy","4737":"\u0120witness","4738":"itable","4739":"\u0120holding","4740":"\u0120Gree","4741":"\u0120establish","4742":"\u0120length","4743":"\u0120planning","4744":"bre","4745":"ava","4746":"\u0120African","4747":"\u0120sequ","4748":"cknow","4749":"\u0120refuge","4750":"\u0120placed","4751":"\u0120catch","4752":"\u0120Afghan","4753":"\u0120san","4754":"inter","4755":"\u0120Association","4756":"\u0120tells","4757":"\u00e2\u0122\u013a","4758":"\u0120scale","4759":"ey","4760":"\u0120spokesman","4761":"\u0120tim","4762":"nel","4763":"\u0120rough","4764":"\u0120attend","4765":"olly","4766":"\u0120Ver","4767":"\u0120cells","4768":"\u0120joined","4769":"\u0120Pre","4770":"\u0120mentioned","4771":"\u0120interests","4772":"\u0120abuse","4773":"pective","4774":"\u0120Jim","4775":"More","4776":"\u0120hasn","4777":"\u0120PC","4778":"Le","4779":"\u0120initi","4780":"\u0120enforcement","4781":"\u0120kid","4782":"\u0120GOP","4783":"\u0120introduced","4784":"\u0120deliver","4785":"\u0120conflict","4786":"\u0120Mer","4787":"\u0120Microsoft","4788":"\u0120phil","4789":"\u00e2\u0122\u0136\u00e2\u0122\u0136","4790":"\u0120update","4791":"\u0120missing","4792":"ros","4793":"\u0120providing","4794":"\u0120waiting","4795":"\u0120cancer","4796":"39","4797":"\u0120recommend","4798":"ocracy","4799":"\u0120established","4800":"isation","4801":"\u0120eat","4802":"bour","4803":"\u0120Yes","4804":"\u0120occup","4805":"\u0120Frank","4806":"\u0120Jeff","4807":"\u0120Angeles","4808":"\u0120removed","4809":"\u01202005","4810":"ula","4811":"\u0120offensive","4812":"\u0120Fore","4813":"\u0120Instead","4814":"icon","4815":"\u0120injury","4816":"\u0120sports","4817":"47","4818":"\u0120fant","4819":"\u0120discussion","4820":"vant","4821":"\u0120operation","4822":"\u0120download","4823":"\u0120useful","4824":"\u0120newsp","4825":"\u0120conversation","4826":"\u0120homes","4827":"ronic","4828":"\u0120south","4829":"\u0120cook","4830":"\u0120CEO","4831":"\u0120assess","4832":"\u0120Group","4833":"itz","4834":"formation","4835":"lig","4836":"\u0120banks","4837":"onto","4838":"\u0120stopped","4839":"\u0120Step","4840":"\u0120Const","4841":"\u0120obvious","4842":"ications","4843":"\u0120measures","4844":"\u0120models","4845":"\u0120Kh","4846":"\u0120fourth","4847":"\u0120MP","4848":"Our","4849":"season","4850":"DA","4851":"what","4852":"\u0120bul","4853":"anda","4854":"\u01202018","4855":"\u0120files","4856":"\u0120girls","4857":"\u0120Louis","4858":"\u0120stick","4859":"cks","4860":"azine","4861":"mail","4862":"umn","4863":"\u0120managed","4864":"iter","4865":"apped","4866":"\u0120Palestin","4867":"oted","4868":"\u0120figures","4869":"oms","4870":"\u0120Tim","4871":"\u0120Leg","4872":"\u0120identified","4873":"\u0120graph","4874":"\u0120Jud","4875":"\u0120Sal","4876":"\u0120finished","4877":"\u0120funds","4878":"Pl","4879":"\u0120Pakistan","4880":"real","4881":"\u0120setting","4882":"\u0120conclud","4883":"\u0120prefer","4884":"\u0120hair","4885":"\u0120committed","4886":"\u0120Mexico","4887":"49","4888":"\u0120skills","4889":"kin","4890":"\u0120appropri","4891":"\u0120spirit","4892":"\u0120Rock","4893":"\u0120veter","4894":"\u0120focused","4895":"\u0120arrived","4896":"\u0120THE","4897":"\u0120housing","4898":"\u0120Virgin","4899":"\u0120keeping","4900":"\u0120therefore","4901":"\u0120acknow","4902":"\u0120detect","4903":"ulate","4904":"Des","4905":"\u0120partner","4906":"\u0120exclus","4907":"igan","4908":"\u0120Android","4909":"enses","4910":"ups","4911":"\u0120earth","4912":"\u0120transl","4913":"outs","4914":"place","4915":"\u0120tough","4916":"\u0120Japanese","4917":"\u01202000","4918":"\u0120relatively","4919":"\u00c3\u00a1","4920":"\u0120Supreme","4921":"owl","4922":"wing","4923":"\u0120identity","4924":"\u0120feels","4925":"rd","4926":"\u0120Met","4927":"\u0120otherwise","4928":"\u0120survey","4929":"RA","4930":"\u0120Ryan","4931":"ocal","4932":"ication","4933":"itutional","4934":"\u0120protection","4935":"agn","4936":"\u0120exchange","4937":"\u0120owner","4938":"isf","4939":"Trump","4940":"\u0120steps","4941":"\u0120Inter","4942":"\u0120trip","4943":"imb","4944":"\u0120husband","4945":"\u0120Mont","4946":"\u0120tweet","4947":"\u0120connection","4948":"\u0120Army","4949":"\u0120slightly","4950":"\u0120Prof","4951":"eah","4952":"ka","4953":"\u0120weak","4954":"\u0120Government","4955":"verse","4956":"\":","4957":"\u0120circum","4958":"\u0120elements","4959":"\u0120click","4960":"\u0120Richard","4961":"\u0120strike","4962":"\u0120photos","4963":"ga","4964":"\u0120mere","4965":"\u0120defensive","4966":"dden","4967":"gar","4968":"\u0120gain","4969":"\u0120fle","4970":"\u0120depend","4971":"ucky","4972":"\u0120collection","4973":"onym","4974":"hens","4975":"\u0120killing","4976":"\u0120roll","4977":"ighter","4978":"Go","4979":"\u0120corner","4980":"\u0120Martin","4981":"ancing","4982":"odies","4983":"\u0120suggests","4984":"uct","4985":"\u0120aggress","4986":"with","4987":"prof","4988":"\u0120guard","4989":"Photo","4990":"\u0120gender","4991":"makers","4992":"\u0120College","4993":"\u0120commission","4994":"\u0120Although","4995":"range","4996":"\u0120dat","4997":"\u0120Sur","4998":"46","4999":"\u0120Ir","5000":"\u0120Dec","5001":"\u0120mental","5002":"icide","5003":"\u0120amazing","5004":"rees","5005":"\u0120Sub","5006":"hi","5007":"\u0120planet","5008":"\u0120Team","5009":"rency","5010":"\u0120Out","5011":"\u0120bigger","5012":"\u0120failure","5013":"ym","5014":"\u0120Jose","5015":"\u0120supply","5016":"Why","5017":"ania","5018":"\u0120Nor","5019":"\u0120starts","5020":"gers","5021":"\u0120sides","5022":"hedul","5023":"iser","5024":"\u0120familiar","5025":"\u0120remind","5026":"\u0120sust","5027":"\u0120spect","5028":"ils","5029":"uate","5030":"\u0120speaking","5031":"ano","5032":"\u0120talks","5033":"\u0120happening","5034":"mas","5035":"gypt","5036":"\u0120organizations","5037":"\u0120hate","5038":"\u0120window","5039":"\u0120army","5040":"\u0120Good","5041":"\u0120Joe","5042":"\u0120none","5043":"uke","5044":"\u0120taxes","5045":"\u0120planned","5046":"\u0120Pet","5047":"\u0120thanks","5048":"\u0120Mary","5049":"\u0120struct","5050":"\u0120pit","5051":"\u0120decide","5052":"\u0120sudden","5053":"\u0120wish","5054":"lo","5055":"\u0120crew","5056":"\u0120carried","5057":"\u0120appoint","5058":"oston","5059":"\u0120pet","5060":"awn","5061":"eless","5062":"agues","5063":"ynam","5064":"\u0120regist","5065":"TC","5066":"\u0120multi","5067":"idering","5068":"\u0120helping","5069":"Last","5070":"\u0120award","5071":"\u0120standards","5072":"\u012032","5073":"\u0120Fire","5074":"\u0120revolution","5075":"\u0120environmental","5076":"].","5077":"\u0120Web","5078":"arsh","5079":"\u0120Thomas","5080":"olit","5081":"\u0120script","5082":"pm","5083":"ola","5084":"\u0120seconds","5085":"gn","5086":"run","5087":"\u0120Research","5088":"\u0120scientific","5089":"\u0120Bern","5090":"\u0120immigration","5091":"\u0120standing","5092":"\u0120Their","5093":"\u012045","5094":"stream","5095":"ocol","5096":"\u0120que","5097":"\u0120beer","5098":"\u0120domestic","5099":"imal","5100":"adium","5101":"\u0120pair","5102":"uters","5103":"\u0120Also","5104":"\u0120Secretary","5105":"\u0120Us","5106":"\u0120academ","5107":"\u0120cold","5108":"\u0120variety","5109":"\u0120markets","5110":"\u0120sch","5111":"fe","5112":"HL","5113":"\u0120territ","5114":"\u0120dropped","5115":"\u0120accounts","5116":"!\"","5117":"\u0120Atlant","5118":"\u0120filed","5119":"erous","5120":"acks","5121":"illa","5122":"\u0120balance","5123":"\u0120impossible","5124":"\u0120Ter","5125":"aven","5126":"\u0120interact","5127":"\u0120neighborhood","5128":"\u0120degree","5129":"Read","5130":"\u0120turns","5131":"ores","5132":"itect","5133":"\u0120possibly","5134":"\u0120appre","5135":"\u0120operating","5136":"\u0120princ","5137":"\u0120alternative","5138":"\u0120union","5139":"\u0120votes","5140":"\u0120vul","5141":"ader","5142":"\u0120professor","5143":"\u0120tack","5144":"\u0120Service","5145":"\u0120increasingly","5146":"ayer","5147":"ruit","5148":"\u0120apply","5149":"\u0120fellow","5150":"\u0120cuts","5151":"stein","5152":"\u0120honest","5153":"\u0120Prime","5154":"\u0120univers","5155":"\u0120server","5156":"vis","5157":"\u0120developers","5158":"arks","5159":"\u0120Syrian","5160":"\u0120apparently","5161":"abb","5162":"aren","5163":"\u0120lived","5164":"\u0120changing","5165":"\u0120worry","5166":"rastructure","5167":"\u0120Carolina","5168":"\u0120tests","5169":"\u0120units","5170":"\u0120rich","5171":"\u0120Two","5172":"cious","5173":"icted","5174":"From","5175":"aded","5176":"\u0120humans","5177":"IM","5178":"\u0120Foundation","5179":"\u0120Mos","5180":"\u0120agencies","5181":"\u0120sounds","5182":"ashed","5183":"\u0120twice","5184":"\u0120ultimately","5185":"obby","5186":"\u0120losing","5187":"\u0120philos","5188":"\u0120authority","5189":"\u0120soldiers","5190":"\u00e3\u0125","5191":"\u0120animal","5192":"gu","5193":"\u0120Images","5194":"\u0120settle","5195":"\u0120ath","5196":"\u0120schedul","5197":"\u0120mut","5198":"\u0120colle","5199":"\u0120corporate","5200":"\u0120absolutely","5201":"\u0120healthy","5202":"\u0120paying","5203":"och","5204":"\u0120equip","5205":"iams","5206":"\u0120developing","5207":"\u0120sea","5208":"\u0120Time","5209":"\u0120closer","5210":"\u0120Den","5211":"\u0120innov","5212":"related","5213":"\u0120seeking","5214":"\u0120regarding","5215":"coh","5216":"roud","5217":"\u0120skin","5218":"\u0120expensive","5219":"ansion","5220":"\u0120possibility","5221":"\u0120beautiful","5222":"\u0120religion","5223":"\u0120apart","5224":"\u0120Central","5225":"\u0120fundament","5226":"\u0120experts","5227":"\u0120solar","5228":"65","5229":"\u0120yards","5230":"\u0120vast","5231":"\u0120writer","5232":"\u0120flight","5233":"\u0120District","5234":"\u0120Last","5235":"\u0120deploy","5236":"\u0120adjust","5237":"Of","5238":"\u0120internal","5239":"\u0120tast","5240":"\u0120Under","5241":"\u0120Lat","5242":"31","5243":"\u0120Peter","5244":"apers","5245":"\u0120imagine","5246":"\u0120Jon","5247":"IV","5248":"\u0120applications","5249":"iot","5250":"ologies","5251":"\u0120vision","5252":"look","5253":"state","5254":"osen","5255":"\u0120Francisco","5256":"\u0120Toronto","5257":"den","5258":"\u0120sitting","5259":"\u0120Plan","5260":"\u0120trail","5261":"\u0120unless","5262":"\u0120USA","5263":"\u0120Jes","5264":"isted","5265":"\u0120heat","5266":"\u01202004","5267":"Even","5268":"\u0120responsibility","5269":"\u0120capacity","5270":"IP","5271":"atures","5272":"\u0120Middle","5273":"\u0120error","5274":"aine","5275":"ias","5276":"\u0120symb","5277":"\u0120fol","5278":"\u0120arms","5279":"\u0120pil","5280":"\u0120gar","5281":"pire","5282":"\u0120covered","5283":"idden","5284":"\u0120Bur","5285":"\u0120famous","5286":"\u0120Camp","5287":"\u0120forms","5288":"uzz","5289":"ND","5290":"\u0120university","5291":"\u0120guarant","5292":"\u0120tight","5293":"\u0120presented","5294":"ortion","5295":"oving","5296":"enced","5297":"\u0120ST","5298":"\u0120Egypt","5299":"\u0120earn","5300":"\u0120Put","5301":"\u0120convention","5302":"under","5303":"Just","5304":"\u0120Public","5305":"\u0120surprise","5306":"\u0120attorney","5307":"\u0120elections","5308":"\u0120estimated","5309":"\u0120fif","5310":"\u0120Ari","5311":"\u0120teen","5312":"\u0120instit","5313":"\u0120vehicles","5314":"rible","5315":"\u0120Amazon","5316":"road","5317":"\u0120intended","5318":"\u0120rid","5319":"\u0120odd","5320":"\u0120helps","5321":"\u0120occurred","5322":"person","5323":"\u0120streets","5324":"uster","5325":"hand","5326":"ini","5327":"\u0120Boston","5328":"\u0120Sol","5329":"\u0120=>","5330":"=\"","5331":"\u0120Mur","5332":"\u0120sport","5333":"sen","5334":"\u0120determine","5335":"ressive","5336":"\u0120Bitcoin","5337":"\u0120expert","5338":"alls","5339":"\u0120consult","5340":"uration","5341":"\u0120broken","5342":"Let","5343":"lets","5344":"\u0120fired","5345":"\u0120ton","5346":"\u0120flow","5347":"\u0120domin","5348":"\u0120Gal","5349":"porary","5350":"eder","5351":"LE","5352":"\u0120shall","5353":"\u0120reserv","5354":"Up","5355":"\u0120troops","5356":"ION","5357":"\u0120Those","5358":"\u0120hyp","5359":"\u0120nar","5360":"terday","5361":"\u0120pieces","5362":"\u0120Chief","5363":"\u0120prepared","5364":"\u0120Mass","5365":"\u0120Cath","5366":"\u0120rapid","5367":"gl","5368":"orage","5369":"\u0120Jo","5370":"\u0120located","5371":"\u0120Social","5372":"\u0120baby","5373":"----------------","5374":"\u0120conclus","5375":"\u0120bringing","5376":"anche","5377":"\u0120Prot","5378":"\u0120prove","5379":"\u0120specifically","5380":"\u0120Any","5381":"\u0120potentially","5382":"\u0120sector","5383":"\u0120random","5384":"\u0120jail","5385":"OW","5386":"\u0120selling","5387":"\u0120governments","5388":"\u0120Once","5389":"\u0120scr","5390":"Ab","5391":"\u0120equal","5392":"class","5393":"war","5394":"\u0120faster","5395":"\u0120heav","5396":"\u0120Spr","5397":"\u0120boost","5398":"useum","5399":"vey","5400":"\u0120clin","5401":"\u0120proposal","5402":"oty","5403":"\u0120factors","5404":"\u0120plenty","5405":"TH","5406":"\u0120equipment","5407":"\u0120council","5408":"\u0120era","5409":"\u0120infrastructure","5410":"Do","5411":"\u0120stress","5412":"phas","5413":"\u0120stars","5414":"\u0120Journal","5415":"\u0120Rub","5416":"endment","5417":"\u0120Virginia","5418":"\u0120breat","5419":"\u0120prosecut","5420":"\u0120voted","5421":"\u0120offering","5422":"\u0120carbon","5423":"inent","5424":"\u0120expressed","5425":"\u0120vulner","5426":"\u0120combat","5427":"\u0120Paris","5428":"\u0120broke","5429":"()","5430":"ureau","5431":"\u0120clot","5432":"ours","5433":"\u0120ruling","5434":"\u0120Federal","5435":"\u0120retail","5436":"\u0120Guard","5437":"\u0120refused","5438":"\u0120dram","5439":"\u0120Dan","5440":"\u0120elected","5441":"\u0120Open","5442":"\u0120River","5443":"Every","5444":"\u0120secure","5445":"cean","5446":"\u0120seasons","5447":"\u0120conducted","5448":",'","5449":"ht","5450":"\u0120challenges","5451":"\u0120remove","5452":"isher","5453":"\u0120Sant","5454":"\u0120methods","5455":"\u0120weapon","5456":"noon","5457":"\u0120pointed","5458":"\u0120Island","5459":"\u0120master","5460":"\u0120remained","5461":"\u0120Australian","5462":"\u0120prime","5463":"ENT","5464":"\u0120trig","5465":"\u0120positions","5466":"\u0120Cru","5467":"\u0120din","5468":"\u0120Mel","5469":"\u0120criticism","5470":"ipping","5471":"First","5472":"ocking","5473":"\u0120Medic","5474":"\u0120Please","5475":"rog","5476":"onom","5477":"IG","5478":"\u0120sale","5479":"olved","5480":"\u0120Fe","5481":"\u0120cultural","5482":"that","5483":"\u0120weren","5484":"\u0120significantly","5485":"\u0120brow","5486":"etic","5487":"\u0120originally","5488":"rie","5489":"\u0120During","5490":"\u0120affected","5491":"\u0120appearance","5492":"\u0120cas","5493":"\u0120tourn","5494":"\u0120facing","5495":"\u0120greatest","5496":"\u0120finish","5497":"\u0120Lee","5498":"\u0120stret","5499":"yr","5500":"\u0120youth","5501":"\u0120tele","5502":"\u0120Who","5503":"\u0120Cur","5504":"\u0120percentage","5505":"\u0120Photo","5506":"col","5507":"\u0120determined","5508":"\u0120signs","5509":"\u0120involve","5510":"95","5511":"cel","5512":"\u00d0\u00b8","5513":"64","5514":"\u0120thank","5515":"\u0120bought","5516":"\u0120500","5517":"lyn","5518":"\u0120Sing","5519":"standing","5520":"\u0120chemical","5521":"ashion","5522":"\u0120shape","5523":"\u0120vir","5524":"\u0120regime","5525":"\u0120grew","5526":"pired","5527":"\u0120remaining","5528":"\u0120Steve","5529":"lymp","5530":"\u0120minimum","5531":"\u0120Saud","5532":"reens","5533":"\u0120indeed","5534":"\u0120dream","5535":"rier","5536":"Since","5537":"\u0120marg","5538":"Sp","5539":"\u0120Both","5540":">>","5541":"\u0120mode","5542":"\u0120herself","5543":"\u0120voting","5544":"\u0120Color","5545":"\u0120obviously","5546":"\u0120Force","5547":"\u0120reduced","5548":"ordin","5549":"\u0120Nov","5550":"\u0120wood","5551":"\u0120Rem","5552":"\u0120recorded","5553":"\u0120argued","5554":"\u01201990","5555":"\u0120revenue","5556":"\u0120tact","5557":"\u0120Ro","5558":"\u0120wearing","5559":"aling","5560":"ighters","5561":"\u0120leads","5562":"edia","5563":"\u0120hun","5564":"\u0120politicians","5565":"\u0120plus","5566":"\u0120contrast","5567":"\u0120switch","5568":"\u0120handle","5569":"\u0120purchase","5570":"\u0120thr","5571":"\u0120subs","5572":"\u0120concent","5573":"\u0120proced","5574":"\u00d1\u0124","5575":"\u0120agent","5576":"arp","5577":"\u0120Williams","5578":"\u0120appreci","5579":"\u0120experienced","5580":"\u0120hurt","5581":"top","5582":"\u0120excited","5583":"\u0120videos","5584":"\u0120https","5585":"cohol","5586":"\u0120supporting","5587":"DP","5588":"\u0120Haw","5589":"mm","5590":"ownt","5591":"\u0120Free","5592":"\u0120surprising","5593":"\u0120minute","5594":"odd","5595":"\u0120explos","5596":"\u0120belong","5597":"\u0120consumers","5598":"\u0120identify","5599":"\u0120considering","5600":"\u0120Pac","5601":"\u0120Conserv","5602":"ller","5603":"apter","5604":"\u0120aircraft","5605":"\u0120rent","5606":"\u0120aid","5607":"CL","5608":"\u0120pulled","5609":"gment","5610":"\u0120basically","5611":"\u0120differences","5612":"ogue","5613":"\u0120Book","5614":"\u0120glass","5615":"\u0120afternoon","5616":"\u0120shift","5617":"\u0120diss","5618":"\u0120Rad","5619":"\u0120depart","5620":"\u0120ends","5621":"essions","5622":"\u0120turning","5623":"\u0120bound","5624":"\u0120films","5625":"\u0120spring","5626":"\u0120prospect","5627":"ruption","5628":"ket","5629":"\u0120Charl","5630":"hab","5631":"\u0120mort","5632":"05","5633":"life","5634":"\u0120treated","5635":"\u0120accident","5636":",[","5637":"01","5638":"\u0120motiv","5639":"\u0120listen","5640":"\u0120seat","5641":"\u0120Power","5642":"uts","5643":"\u0120combined","5644":"\u0120construct","5645":"Ind","5646":"\u0120seriously","5647":"\u0120privacy","5648":"apping","5649":"\u0120evening","5650":"hered","5651":"hy","5652":"\u0120opportunities","5653":"asp","5654":"\u0120struggle","5655":"\u0120195","5656":"\u0120panel","5657":"\u0120enemy","5658":"\u0120lots","5659":"\u0120completed","5660":"\u0120Daily","5661":"\u0120visual","5662":"His","5663":"Phone","5664":"pet","5665":"\u0120talked","5666":"\u0120cart","5667":"\u0120hopes","5668":"oral","5669":"\u0120passing","5670":"\u0120id","5671":"\u0120apps","5672":"osite","5673":"PD","5674":"\u0120calcul","5675":"Another","5676":"\u0120widely","5677":"ensions","5678":"\u0120emergency","5679":"\u0120Hol","5680":"\u0120Show","5681":"\u0120suit","5682":"\u0120element","5683":"amm","5684":"\u0120ast","5685":"anged","5686":"SS","5687":"aled","5688":"ucks","5689":"\u0120powers","5690":"ato","5691":"\u0120Rel","5692":"\u0120BBC","5693":"\u0120Olymp","5694":"\u0120burn","5695":"TV","5696":"\u0120discl","5697":"Pe","5698":"\u0120plants","5699":"\u0120flat","5700":"\u0120Space","5701":"\u0120liberal","5702":"raud","5703":"obe","5704":"\u0120opposed","5705":"Well","5706":"\u0120proceed","5707":"ompl","5708":"\u0120copyright","5709":"oking","5710":"\u0120Project","5711":"\u0120advance","5712":"\u0120factor","5713":"\u0120distance","5714":"\u01202003","5715":"ivered","5716":"\u0120dismiss","5717":"plom","5718":"\u0120attempts","5719":"\u0120tun","5720":"\u0120Matt","5721":"\u0120Road","5722":"abilities","5723":"Am","5724":"ributed","5725":"\u0120IN","5726":"\u0120trouble","5727":"unction","5728":"\u0120hol","5729":"\u0120collabor","5730":"\u0120default","5731":"sts","5732":"idel","5733":"\u0120Bet","5734":"\u0120zone","5735":"\u0120Jackson","5736":"\u0120upgr","5737":"rawn","5738":"ita","5739":"Cont","5740":"\u0120reaction","5741":"\u0120storm","5742":"\u0120reporters","5743":"\u0120Mem","5744":"\u0120frust","5745":"PR","5746":"nell","5747":"mosp","5748":"adow","5749":"\u0120writes","5750":"mond","5751":"aints","5752":"\u0120typically","5753":"\u0120Today","5754":"lines","5755":"respond","5756":"UT","5757":"\u0120pages","5758":"\u0120instruct","5759":"ternal","5760":"eds","5761":"\u0120reference","5762":"\u0120package","5763":"\u0120bodies","5764":"zer","5765":"\u0120matters","5766":"free","5767":"42","5768":"\u0120denied","5769":"care","5770":"edd","5771":"App","5772":"\u0120quant","5773":"\u0120disappoint","5774":"\u0120sem","5775":"\u0120explo","5776":"\u0120NAS","5777":"\u0120optim","5778":"ache","5779":"\u0120quiet","5780":"\u0120entertain","5781":"\u0120mal","5782":"\u0120responded","5783":"\u0120approved","5784":"\u0120Turkey","5785":"\u0120satisf","5786":"aped","5787":"\u0120broadcast","5788":"esters","5789":"\u0120institutions","5790":"\u0120advert","5791":"\u0120stands","5792":"\u0120Director","5793":"\u0120sets","5794":"estival","5795":"\u0120elimin","5796":"isters","5797":"razy","5798":"\u00c3\u00a4","5799":"Rep","5800":"\u0120Penn","5801":"\u0120valid","5802":"host","5803":"\u0120renew","5804":"\u0120Ohio","5805":"elly","5806":"0000","5807":"\u0120split","5808":"\u0120severe","5809":"\u0120William","5810":"\u0120sac","5811":"\u0120capable","5812":"\u01202001","5813":"\u0120//","5814":"\u0120pitch","5815":"abin","5816":"aniel","5817":"\u0120caption","5818":"\u0120cloud","5819":"\u0120loved","5820":"\u0120technical","5821":"\u0120giant","5822":"pass","5823":"\u0120cann","5824":"\u0120tradition","5825":"rant","5826":"\u0120prompt","5827":"\u0120bull","5828":"\u0120confident","5829":"uous","5830":"\u0120confidence","5831":"\u0120numerous","5832":"\u0120reportedly","5833":"\u0120Ma","5834":"\u0120faces","5835":"],","5836":"writ","5837":"\u0120weather","5838":"\u0120fly","5839":"\u0120transition","5840":"rid","5841":"\u012036","5842":"\u0120System","5843":"\u0120Afghanistan","5844":"\u0120gra","5845":"\u0120Squ","5846":"\u0120creation","5847":"De","5848":"\u0120perspective","5849":"\u0120unable","5850":"\u0120forget","5851":"\u0120Labour","5852":"\u0120Yet","5853":"43","5854":"astern","5855":"employ","5856":"oken","5857":"\u0120Media","5858":"angers","5859":"II","5860":"unte","5861":"\u0120craft","5862":"\u0120substant","5863":"\u0120cooper","5864":"\u0120violent","5865":"\u0120suffered","5866":"ilit","5867":"\u0120coast","5868":"\u0120mand","5869":"ampion","5870":"\u0120pictures","5871":"\u0120experiences","5872":"\u0120approx","5873":"abled","5874":"\u0120route","5875":"88","5876":"sex","5877":"\u0120flag","5878":"\u0120advice","5879":"\u0120Andrew","5880":"usiness","5881":"\u0120declared","5882":"\u0120Wal","5883":"\u0120ordered","5884":"\u0120Human","5885":"razil","5886":"\u0120crimes","5887":"\u0120coff","5888":"Se","5889":"\u0120proud","5890":"ishes","5891":"\u0120reporting","5892":"\u0120messages","5893":"\u0120circumst","5894":"\u0120findings","5895":"\u0120Lin","5896":"Res","5897":"\u0120eval","5898":"ulations","5899":"\u0120excell","5900":"Over","5901":"\u0120declined","5902":"\u0120explains","5903":"\u0120delay","5904":"\u0120\\","5905":"\u0120Follow","5906":"\u0120newspaper","5907":"ounded","5908":"\u0120connected","5909":"ilty","5910":"\u0120shouldn","5911":"evin","5912":"oves","5913":"\u0120ongoing","5914":"can","5915":"\u0120van","5916":"dule","5917":"\u0120movies","5918":"\u0120picked","5919":"ionally","5920":"resents","5921":"77","5922":"\u0120admitted","5923":"\u0120delivered","5924":"During","5925":"\u0120guns","5926":"\u0120ML","5927":"\u0120Scot","5928":"\u0120walking","5929":"\u0120agents","5930":"called","5931":"\u0120prin","5932":"tion","5933":"\u0120editor","5934":"\u0120thoughts","5935":"\u0120married","5936":"\u0120Tra","5937":"\u0120auth","5938":"\u0120emails","5939":"\u0120appropriate","5940":"\u0120emphas","5941":"uations","5942":"\u0120edge","5943":"\u0120architect","5944":"\u0120Grand","5945":"\u0120leaves","5946":"\u0120updates","5947":"\u0120accompl","5948":"OD","5949":"\u0120gather","5950":"\u0120Muslims","5951":"\u0120forg","5952":"ansas","5953":"\u0120Wood","5954":"\u0120quarterback","5955":"\u0120session","5956":"ooth","5957":"41","5958":"\u0120Techn","5959":"\u0120pool","5960":"\u0120Science","5961":"cos","5962":"\u0120injured","5963":"arn","5964":"\u0120publicly","5965":"ellow","5966":"\u0120Sov","5967":"\u0120statements","5968":"\u0120perman","5969":"\u0120legit","5970":"arl","5971":"nergy","5972":"MA","5973":"\u0120confirm","5974":"\u0120Lake","5975":"\u0120ourselves","5976":"Other","5977":"\u0120realize","5978":"\u0120rot","5979":"\u0120drivers","5980":"\u0120Av","5981":"\u0120Dou","5982":"TA","5983":"mates","5984":",\u00e2\u0122\u013b","5985":"\u0120armed","5986":"essor","5987":"\u0120dial","5988":"cons","5989":"\u0120lawyer","5990":"ourney","5991":"\u0120rail","5992":"\u0120readers","5993":"reland","5994":"\u0120sad","5995":"\u0120contains","5996":"\u0120argue","5997":"\u0120Rev","5998":"\u0120talent","5999":"\u0120filled","6000":"\u0120Sum","6001":"\u0120allegations","6002":"\u0120activists","6003":"\u0120Christmas","6004":"\u0120dynam","6005":"\u01201980","6006":"\u0120Michigan","6007":"date","6008":"\u0120Back","6009":"\u0120Ron","6010":"\u0120crack","6011":"\u0120transform","6012":"Tube","6013":"\u0120Ill","6014":"\u0120buildings","6015":"\u0120Read","6016":"long","6017":"\u0120wear","6018":"Many","6019":"\u0120terrorist","6020":"\u0120sam","6021":"\u0120tree","6022":"\u0120exercise","6023":"enda","6024":"\u0120label","6025":"\u0120effectively","6026":"Oh","6027":"\u0120practices","6028":"ala","6029":"\u0120subsequ","6030":"\u0120Jul","6031":"\u0120Sher","6032":"uls","6033":"\u0120flo","6034":"TS","6035":"\u0120fish","6036":"ette","6037":"enture","6038":"\u0120shop","6039":"\u0120examples","6040":"\u0120Hy","6041":"\u0120patient","6042":"\u0120Gen","6043":"\u0120Seattle","6044":"\u0120objects","6045":"\u0120tech","6046":"\u0120See","6047":"\u0120secretary","6048":"asure","6049":"\u0120rain","6050":"\u0120missed","6051":"\u0120causes","6052":"illy","6053":"rum","6054":"\u0120debut","6055":"\u0120Rod","6056":"gia","6057":"\u0120essentially","6058":"66","6059":"amin","6060":"\u0120moral","6061":"orders","6062":"ador","6063":"word","6064":"acter","6065":"\u0120Work","6066":"def","6067":"arters","6068":"\u0120Ukraine","6069":"\u0120centre","6070":"Follow","6071":"\u0120Vict","6072":"bur","6073":"\u0120Stan","6074":"\u0120ID","6075":"icing","6076":"\u0120injuries","6077":"\u0120Phot","6078":"\u0120motor","6079":"\u0120iPhone","6080":"\u0120artist","6081":"\u0120client","6082":"\u0120bond","6083":"\u0120thinks","6084":"iat","6085":"orse","6086":"ouston","6087":"\u0120pure","6088":"\u0120hell","6089":"Although","6090":"\u0120Saudi","6091":"\u0120facts","6092":"\u0124\u00ac","6093":"\u0120desire","6094":"agers","6095":"aza","6096":"\u0120ske","6097":"orry","6098":"\u0120linked","6099":"\u00c3\u0143","6100":"\u0120governor","6101":"\u0120materials","6102":"\u0120performed","6103":"Spe","6104":"\u0120franch","6105":"esome","6106":"\u0120suc","6107":"\u0120philosoph","6108":"\u0120initially","6109":"iest","6110":"\u0120Sign","6111":"\u0120necessarily","6112":"\u0120Bat","6113":"\u0120Fer","6114":"\u0120expansion","6115":"\u0120scheduled","6116":"water","6117":"ERS","6118":"\u0120warned","6119":"\u0120diplom","6120":"\u0120advanced","6121":"\u0120ing","6122":"\u0120explan","6123":"\u0120vari","6124":"\u0120everybody","6125":"\u0120joint","6126":"\u0120decre","6127":"\u0120resolution","6128":"\u0120increases","6129":"enger","6130":"Yes","6131":"\u0120accepted","6132":"\u0120incor","6133":"\u0120myster","6134":"\u0120faced","6135":"\u0120bare","6136":"illance","6137":"\u0120Mount","6138":"\u0120announcement","6139":"\u0120follows","6140":"\u0120nations","6141":"\u0120playoff","6142":"\u0120Life","6143":"\u0120abandon","6144":"\u0120Second","6145":"\u0120radical","6146":"\u0120athlet","6147":"\u0120neither","6148":"\u0120yesterday","6149":"gent","6150":"\u0120datab","6151":"\u0120nearby","6152":"\u0120distribution","6153":"otic","6154":"\u0120applied","6155":"irty","6156":"\u0120magazine","6157":"Most","6158":"athan","6159":"rich","6160":"\u0120mir","6161":"\u0120consequences","6162":"\u0120doctor","6163":"\u0120listed","6164":"\u0120fort","6165":"uy","6166":"\u0120Columb","6167":"\u0120atmosp","6168":"American","6169":"\u0120surprised","6170":"\u0120offense","6171":"Qu","6172":"itors","6173":"\u0120CNN","6174":"\u0120RE","6175":"\u0120spons","6176":"\u0120begins","6177":"\u0120Week","6178":"\u0120threats","6179":"sembly","6180":"\u0120represents","6181":"\u0120Jews","6182":"\u0120GM","6183":"\u0120Aff","6184":"\u0120enh","6185":"\u0120moves","6186":"\u0120remark","6187":"\u0120TO","6188":"\u0120pra","6189":"\u0120songs","6190":"kay","6191":"\u0120chart","6192":"\u0120behavi","6193":"omin","6194":"\u0120ride","6195":"\u0120adds","6196":"\u0120withd","6197":"Can","6198":"\u00c3\u0124","6199":"\u0120improved","6200":"\u0120phen","6201":"\u0120Blue","6202":"\u0120bot","6203":"\u0120warm","6204":"\u0120af","6205":"\u0120alcohol","6206":"rip","6207":"\u0120AT","6208":"\u0120output","6209":"law","6210":"\u0120flood","6211":"\u0120Develop","6212":"\u0120Hen","6213":"whel","6214":"edy","6215":"\u0120shots","6216":"\u0120fill","6217":"\u0120Vol","6218":"\u0120alt","6219":"\u0120stood","6220":"\u0120brings","6221":"\u0120pushed","6222":"\u0120guilty","6223":"\u0120Romney","6224":"\u0120Kim","6225":"\u0120subscrib","6226":"85","6227":"\u0120entry","6228":"ocratic","6229":"\u0120Brazil","6230":"\u0120democracy","6231":"\u0120boys","6232":"\u012033","6233":"\u0120row","6234":"\u0120Swed","6235":"\u0120config","6236":"\u0120restaurant","6237":"\u0120NBA","6238":"\u0120lawsuit","6239":"\u0120Dev","6240":"\u0120Ireland","6241":"acle","6242":"\u0120manufacture","6243":"\u0120receiving","6244":"\u0120rein","6245":"\u0120Barack","6246":"Then","6247":"\u0120trib","6248":"\u0120totally","6249":"\u0120Only","6250":"\u0120discussed","6251":"\u0120sought","6252":"\u0120rising","6253":"\u0120entered","6254":"\u0120ISIS","6255":"\u0120Board","6256":"\u0120consistent","6257":"\u0120historical","6258":"twitter","6259":"ideo","6260":"\u0120storage","6261":"\u0120correspond","6262":"\u0120plane","6263":"\u0120combination","6264":"\u0120scored","6265":"\u0120input","6266":"\u0120300","6267":"\u0120symbol","6268":"\u0120bright","6269":"\u0120button","6270":"irds","6271":"\u0120succeed","6272":"stood","6273":"\u0120creative","6274":"\u0120investors","6275":"\u0120square","6276":"\u0120articles","6277":"\u01202002","6278":"\u0120island","6279":"mes","6280":"\u0120deaths","6281":"\u0120functions","6282":"\u0120networks","6283":"\u0120classes","6284":"\u0120unlikely","6285":"alty","6286":"\u0120heads","6287":"ician","6288":"\u0120boss","6289":"\u0120native","6290":"icious","6291":"\u0120lie","6292":"\u0120sav","6293":"\u0120Lib","6294":"\u0120roughly","6295":"\u0120consumer","6296":"\u0120Str","6297":"\u0120Whe","6298":"\u0120Walk","6299":"\u0120Prem","6300":"fortunately","6301":"\u0120Ms","6302":"\u0120string","6303":"\u0120Maybe","6304":"\u0120heavily","6305":"\u0120Another","6306":"\u0120fairly","6307":"\u0120temperature","6308":"arden","6309":"\u0120kit","6310":"\u0120existence","6311":"\u0120Its","6312":"\u0120Asia","6313":"\u0120contest","6314":"Add","6315":"\u0120plot","6316":"issions","6317":"dis","6318":"\u0120Cub","6319":"\u0120resident","6320":"usal","6321":"\u0120targets","6322":"\u0120Bob","6323":"\u0120resc","6324":"\u0120Korean","6325":"ican","6326":"duc","6327":"\u0120lock","6328":"\u0120younger","6329":"Man","6330":"',","6331":"\u0120colleagues","6332":"PU","6333":"\u0120library","6334":"\u00c3\u00b6","6335":"\u0120rally","6336":"\u0120parliament","6337":"\u0120protests","6338":"\u0120anywhere","6339":"oked","6340":"\u0120Sports","6341":"\u0120Sky","6342":"\u0120bike","6343":"zona","6344":"\u0120breaking","6345":"ii","6346":"\u0120grab","6347":"\u0120sym","6348":"\u0120stores","6349":"\u0120expression","6350":"\u0120waste","6351":"\u0120chain","6352":"\u0120blow","6353":"\u0120warning","6354":"\u0120importance","6355":"\u0120defined","6356":"\u0120buying","6357":"\u0120manage","6358":"\u0120prohib","6359":"\u0120classic","6360":"\u0120cere","6361":"\u0120snow","6362":"\u0120adults","6363":"\u0120illust","6364":"\u0120Each","6365":"See","6366":"\u0120marketing","6367":"Ob","6368":"\u0120links","6369":"\u00c3\u00b3","6370":"iques","6371":"\u0120shif","6372":"born","6373":"andal","6374":"\u0120Club","6375":"\u0120tow","6376":"\u0120Hist","6377":"\u0120fraud","6378":"OC","6379":"\u0120facility","6380":"ollywood","6381":"erences","6382":"\u0120hardware","6383":"\u0120schol","6384":"\u0120allegedly","6385":"\u012037","6386":"\u0120regulations","6387":"pret","6388":"\u0120doctors","6389":"\u0120bon","6390":"\u0120Colorado","6391":"\u0120currency","6392":"\u0120household","6393":"\u0120replaced","6394":"agan","6395":"\u0120essential","6396":"opy","6397":"\u0120empt","6398":"onna","6399":"\u0120Ram","6400":"\u0120somewhat","6401":"\u0120Div","6402":"press","6403":"86","6404":"\u0120nav","6405":"\u0120favour","6406":"power","6407":"\u0120promise","6408":"\u0120DC","6409":"\u0120Boy","6410":"\u0120laugh","6411":"ena","6412":"Pol","6413":"\u0120Rights","6414":"\u0120holds","6415":"\u0120opposite","6416":"ocket","6417":"\u00d1\u0123","6418":"\u0120moments","6419":"west","6420":"\u0120hat","6421":"tering","6422":"\u0120opponent","6423":"\u0120bug","6424":"\u0120Far","6425":"cho","6426":"\u0120campus","6427":"\u0120acts","6428":"\u0120rum","6429":"etroit","6430":"\u0120versions","6431":"\u0120motion","6432":"\u0120metal","6433":"hips","6434":"\u0120evolution","6435":"ometimes","6436":"\u0120vice","6437":"anish","6438":"\u0120relevant","6439":"\u0120sees","6440":"\u0120Image","6441":"\u0120bag","6442":"\u0120industrial","6443":"\u0120zero","6444":"IR","6445":"\u0120sick","6446":"\u0120downt","6447":"oma","6448":"\u0120closely","6449":"\u0120Ann","6450":"hetic","6451":"\u0120emotional","6452":"chen","6453":"game","6454":"IF","6455":"\u0120YouTube","6456":"\u0120Year","6457":"va","6458":"\u0120fewer","6459":"\u0120division","6460":"olve","6461":"\u0120adm","6462":"\u0120harder","6463":"\u0120customer","6464":"\u0120hoping","6465":"ologist","6466":"\u0120tom","6467":"\u0120Brook","6468":"Donald","6469":"En","6470":"\u0120Valley","6471":"\u0120hur","6472":"\u0120Gra","6473":"\u0120mechanism","6474":"ittle","6475":"ml","6476":"\u0120Houston","6477":"\u0120Elect","6478":"inem","6479":"\u0120returns","6480":"NC","6481":"atell","6482":"\u0120volunte","6483":"\u0120participants","6484":"\u0120extent","6485":"\u0120intention","6486":"po","6487":"alian","6488":"esc","6489":"ellect","6490":"\u0120excellent","6491":"\u0120Soviet","6492":"\u0120acknowled","6493":"\u0120syn","6494":"ulous","6495":"oming","6496":"\u0120Mot","6497":"\u0120batt","6498":"\u0120Games","6499":"\u0120squad","6500":"greg","6501":"\u0120circumstances","6502":"pan","6503":"\u0120fashion","6504":"\u0120isol","6505":"\u00c3\u00bc","6506":"otal","6507":"\u0120immediate","6508":"\u0120Eric","6509":"\u0120suffering","6510":"\u0120Watch","6511":"str","6512":"\u0120lies","6513":"\u0120tiny","6514":"\u0120authors","6515":"\u012038","6516":"\u0120grown","6517":"\u0120Gar","6518":"iger","6519":"efully","6520":"\u0120immigrants","6521":"\u00c3\u0125","6522":"print","6523":"ora","6524":"\u0120kinds","6525":"utch","6526":"\u012049","6527":"\u0120Die","6528":"\u0120cheap","6529":"\u0120mine","6530":"\u0120detailed","6531":"ordan","6532":"\u0120Hel","6533":"name","6534":"\u0120featured","6535":"\u0120Wik","6536":"\u0120Er","6537":"\u0120Sar","6538":"ayers","6539":"\u0120meat","6540":"\u0120unus","6541":"\u0120Aut","6542":"\u0120competitive","6543":"\u0120describe","6544":"\u0120formed","6545":"\u0120Home","6546":"\u0120IP","6547":"friend","6548":"nic","6549":"certain","6550":"\u0120carrying","6551":"\u0120tournament","6552":"\u0120termin","6553":"\u0120trick","6554":"\u0120relationships","6555":"\u0120fundamental","6556":"kel","6557":"\u0120wave","6558":"\u0120cycle","6559":"obb","6560":"\u0120crazy","6561":"\u0120Cy","6562":"\u0120signing","6563":"\u0120Way","6564":"\u0120guide","6565":"\u0120wins","6566":"\u0120Catholic","6567":"\u0120earned","6568":"08","6569":"\u0120decline","6570":"\u0120regional","6571":"nam","6572":"ensus","6573":"style","6574":"\u0120embr","6575":"\u0120strange","6576":"\u0120Palestinian","6577":"\u0120Jesus","6578":"\u0120Long","6579":"\u0120ancient","6580":"\u0120frequently","6581":"06","6582":"\u0120acting","6583":"\u0120Putin","6584":"\u0120manner","6585":"\u0120efficient","6586":"rome","6587":"\u0120pushing","6588":"\u0120CIA","6589":"\u0120comfortable","6590":"\u0120Card","6591":"\u0120pip","6592":"ORE","6593":"Per","6594":"\u0120sharing","6595":"\u0120wire","6596":"\u0120skill","6597":"\u0120Econom","6598":"ockey","6599":"chers","6600":"\u0120instru","6601":"\u0120Ell","6602":"\u0120owned","6603":"bar","6604":"\u0120commitment","6605":"\u0120alongside","6606":"\u0120OF","6607":"uated","6608":"anes","6609":"\u0120Lord","6610":"09","6611":"\u0120Davis","6612":"rison","6613":"\u0120controversial","6614":"\u0120artists","6615":"\u0120referred","6616":"weight","6617":"\u0120egg","6618":"\u0120mouth","6619":"\u0120repeatedly","6620":"\u012048","6621":"\u0120Top","6622":"\u00ef\u00bf","6623":"\u012034","6624":"FP","6625":"awa","6626":"\u0120attempted","6627":"\u0120femin","6628":"umber","6629":"\u0120updated","6630":"foot","6631":"\u0120cert","6632":"ua","6633":"\u0120pregn","6634":"\u0120Old","6635":"\u0120schedule","6636":"vin","6637":"xy","6638":"\u0120PS","6639":"amily","6640":"adel","6641":"\u0120dedicated","6642":"\u00d0\u00bd","6643":"\u0120AL","6644":"\u0120sentence","6645":"\u0120upcoming","6646":"\u0120Right","6647":"\u0120NY","6648":"\u0120Down","6649":"\u0120Di","6650":"\u0120column","6651":"hus","6652":"\u0120depth","6653":"\u0120pled","6654":"\u0120virtual","6655":"uable","6656":"\u0120journey","6657":"\u0120struck","6658":"\u00d1\u0122","6659":"\u0120desk","6660":"\u0120studio","6661":"\u0120realized","6662":"\u0120Energy","6663":"Despite","6664":"ceived","6665":"%)","6666":"ographic","6667":"ko","6668":"ugh","6669":"\u0120medic","6670":"DS","6671":"\u0120serving","6672":"iami","6673":"\u0120walked","6674":"rive","6675":"iveness","6676":"\u0120king","6677":"\u0120ring","6678":"\u0120reput","6679":"you","6680":"\u0120urban","6681":"phy","6682":"07","6683":"\u0120Cle","6684":"\u0120Charles","6685":"\u0120Wild","6686":"\u0120targeted","6687":"\u0120channel","6688":"\u0120assets","6689":"luding","6690":"\u0120tort","6691":"\u0120inspired","6692":"\u0120hotel","6693":"\u0120Arizona","6694":"\u0120posts","6695":"\u0120newslet","6696":"Like","6697":"Two","6698":"\u0120Supp","6699":"\u0120universe","6700":"\u0120agenda","6701":"\u0120causing","6702":"\u0120watched","6703":"\u0120suicide","6704":"\u0120stream","6705":"\u0120overwhel","6706":"\u0120Py","6707":"\u0120usual","6708":"\u0120surveillance","6709":"\u0120Men","6710":"\u0120intent","6711":"sole","6712":"People","6713":"\u0120liqu","6714":"\u0120sister","6715":"\u0120opponents","6716":"\u0120chairman","6717":"\u0120du","6718":"\u0120Wars","6719":"\u0120Cruz","6720":"\u0120mainstream","6721":"gor","6722":"bel","6723":"\u0120latter","6724":"\u0120hall","6725":"\u0120surrounding","6726":"\u0120folks","6727":"\u0120knowing","6728":"\u0120orders","6729":"\u0120Inf","6730":"\u0120remote","6731":"\u012075","6732":"\u0120sand","6733":"\u0120literally","6734":"\u0120Java","6735":"\u0120observed","6736":"\u0120Again","6737":"\u0120subsid","6738":"Fr","6739":"\u0120Defense","6740":"\u0120infl","6741":"\u0120approval","6742":"acc","6743":"\u0120Van","6744":"iments","6745":"\u0120basket","6746":"rence","6747":"burg","6748":"\u0120teachers","6749":"azi","6750":"avor","6751":"izz","6752":"\u0120winter","6753":"iciency","6754":"alle","6755":"\u0120exciting","6756":"aze","6757":"iro","6758":"aylor","6759":"\u0120Tal","6760":"\u0120format","6761":"boy","6762":"\u0120congress","6763":"\u0120protected","6764":"ati","6765":"\u0120noticed","6766":"\u0120simpl","6767":"\u0120dealing","6768":"\u0120Young","6769":"rations","6770":"\u0120Child","6771":"\u0120precise","6772":"67","6773":"xual","6774":"\u0120deeply","6775":"ipl","6776":"\u0120communication","6777":"\u0120gang","6778":"\u0120sending","6779":"\u0120forth","6780":"\u0120Jr","6781":"\u0120fasc","6782":"\u0120battery","6783":"\u0120wal","6784":"mun","6785":"\u0120sky","6786":"\u0120narr","6787":"\u0120fixed","6788":"post","6789":"abis","6790":"\u0120aside","6791":"\u0120requirements","6792":"Int","6793":"\u0120properties","6794":"rors","6795":"\u0120alive","6796":"\u0120narrow","6797":"\u0120wake","6798":"allas","6799":"\u0120passion","6800":"\u0120Arch","6801":"onymous","6802":"\u0120eating","6803":"Or","6804":"ensity","6805":"\u0120mistake","6806":"woman","6807":"\u0120explore","6808":"\u0120coffee","6809":"\u0120Pan","6810":"\u01201970","6811":"\u0120rape","6812":"\u0120volume","6813":"\u0120promised","6814":"\u0120diet","6815":"acking","6816":"\u0120risks","6817":"\u0120exhib","6818":"\u0120Polit","6819":"\u0120Fort","6820":"\u0120sweet","6821":"May","6822":"\u00e2\u0122\u013b.","6823":"\u0120Enter","6824":"\u0120Wat","6825":"\u0120neut","6826":"\u0120involving","6827":"\u0120wage","6828":"\u0120selection","6829":"\u0120Max","6830":"\u0120tested","6831":"ether","6832":"\u0120flu","6833":"ulture","6834":"\u0120defeat","6835":"\u0120northern","6836":"\u0120reward","6837":"\u0120welcome","6838":"\u0120Cast","6839":"\u0120extended","6840":"\u0120puts","6841":"\u0120territory","6842":"\u0120phenomen","6843":"\u0120unemploy","6844":"\u0120refugees","6845":"\u0120sample","6846":"\u0120height","6847":"\u0120approximately","6848":"\u0120Kevin","6849":"59","6850":"\u0120blame","6851":"\u0120Brad","6852":"\u0120anyway","6853":"ums","6854":"\u0120Detroit","6855":"\u0120destroyed","6856":"obile","6857":"ta","6858":"\u0120impressive","6859":"\u0120Stephen","6860":"asks","6861":"\u0120god","6862":"\u0120proof","6863":"\u0120gap","6864":"\u0120dry","6865":"\u00ef\u00bf\u00bd","6866":"\u0120crash","6867":"\u0120unknown","6868":"\u0120locations","6869":"04","6870":"igg","6871":"\u0120selected","6872":"apse","6873":"\u0120west","6874":"anges","6875":"gery","6876":"stone","6877":"\u0120Fil","6878":"\u0120attacked","6879":"\u0120maximum","6880":"\u0120Miller","6881":"\u0120Wilson","6882":"\u0120Tit","6883":"\u0120promote","6884":"\u0120shel","6885":"aser","6886":"\u0120merely","6887":"\u0120franchise","6888":"arry","6889":"lv","6890":"\u0120requests","6891":"\u0120sho","6892":"\u0120retire","6893":"\u0120suddenly","6894":"\u0120slowly","6895":"\u0120protesters","6896":"\u0120disag","6897":"dro","6898":"\u0120teacher","6899":"ixt","6900":"\u0120typical","6901":"ogan","6902":"\u0120Women","6903":"\u0120Ins","6904":"ingu","6905":"\u0120conver","6906":"list","6907":"\u0120chose","6908":"\u0120Camer","6909":"\u0120Class","6910":"\u0120Lu","6911":"\u0120matches","6912":"\u0120prote","6913":"\u0120license","6914":"\u0120properly","6915":"\u0120assume","6916":"oration","6917":"\u0120discover","6918":"03","6919":"\u0120wid","6920":"\u0120PR","6921":"\u0120Mic","6922":"Rel","6923":"\u0120worried","6924":"\u0120moder","6925":"fire","6926":"\u0120abortion","6927":"owered","6928":"\u0120allies","6929":"ao","6930":"\u0120oblig","6931":"\u0120terrorism","6932":"02","6933":"\u0120supports","6934":"\u0120\u00ce","6935":"uilding","6936":"\u00c3\u0125\u00c3\u0124","6937":"inson","6938":"verty","6939":"\u0120arguments","6940":"\u0120adapt","6941":"\u0120theme","6942":"\u0120confront","6943":"\u0120facilities","6944":"\u0120sustain","6945":"gender","6946":"\u0120east","6947":"\u0120pal","6948":"\u0120recognize","6949":"igure","6950":"\u0120fuck","6951":"\u00c3\u0125\u00c3\u0124\u00c3\u0125\u00c3\u0124","6952":"lies","6953":"\u0120equival","6954":"mo","6955":"\u0120obtained","6956":"\u0120poverty","6957":"\u0120rub","6958":"\u0120Italy","6959":"\u0120nomine","6960":"\u0120deals","6961":"\u0120fees","6962":"alo","6963":"itarian","6964":"osis","6965":"\u0120Hollywood","6966":"\u0120understood","6967":"\u0120controlled","6968":"VER","6969":"\u0120Best","6970":"\u0120Dam","6971":"\u0120topic","6972":"\u0120critics","6973":"\u0120Society","6974":"\u0120Agency","6975":"axy","6976":"\u0120Ford","6977":"\u0120sole","6978":"\u0120Jersey","6979":"arity","6980":"\u0120village","6981":"\u0120diagn","6982":"\u0120Administ","6983":"raid","6984":"68","6985":"\u0120likes","6986":"celer","6987":"han","6988":"sters","6989":"\u0120Four","6990":"\u0120evil","6991":"Te","6992":"\u0120punish","6993":"\u0120dress","6994":"cript","6995":"\u0120ped","6996":"\u0120Georgia","6997":"\u0120bunch","6998":"\u0120Company","6999":"\u0120journalists","7000":"John","7001":"\u0120exposed","7002":"\u0120regions","7003":"redit","7004":"ocation","7005":"\u0120scheme","7006":"\u0120communications","7007":"\u0120transp","7008":"\u0120stim","7009":"\u0120limits","7010":"\u0120somehow","7011":"\u0120strongly","7012":"\u0120honor","7013":"\u0120drag","7014":"\u0120resistance","7015":"lls","7016":"aire","7017":"aug","7018":"\u0120champion","7019":"\u0120Labor","7020":"\u0120constant","7021":"\u0120phase","7022":"\u0120NASA","7023":"asts","7024":"\u0120Carl","7025":"pool","7026":"\u0120profit","7027":"\u0120truck","7028":"\u0120condem","7029":"\u0120escape","7030":"\u0120personally","7031":"\u0120Night","7032":"\u0120Dun","7033":"rimination","7034":"\u0120Land","7035":"\u0120bid","7036":"\u0120NHL","7037":"\u0120Stand","7038":"\u0120vacc","7039":"\u0120deck","7040":"CA","7041":"nesota","7042":"iform","7043":"\u0120falling","7044":"GBT","7045":"\u0120Network","7046":"\u0120somewhere","7047":"ems","7048":"cers","7049":"\u0120employee","7050":"\u0120harass","7051":"ads","7052":"\u0120bear","7053":"\u0120CD","7054":"iner","7055":"\u0120comparison","7056":"orted","7057":"ciples","7058":"\u0120polls","7059":"owa","7060":"\u0120inqu","7061":"\u0120Love","7062":"pected","7063":"\u0120southern","7064":"oric","7065":"\u0120decent","7066":"cow","7067":"\u0120Spanish","7068":"\u0120encourage","7069":"\u0120emissions","7070":"\u012039","7071":"\u0120Kn","7072":"\u0120View","7073":"enders","7074":"\u0120empty","7075":"\u0120Miami","7076":"\u0120hits","7077":"oster","7078":"\u0120Cam","7079":"\u0120definition","7080":"57","7081":"\u0120pic","7082":"wan","7083":"\u0120directed","7084":"pes","7085":"\u0120flex","7086":"zens","7087":"\u0120Ok","7088":"\u0120meetings","7089":"\u0120End","7090":"\u0120Bell","7091":"\u00d0\u00be\u00d0","7092":"\u0120comprom","7093":"\u0120winner","7094":"intend","7095":"icken","7096":"\u0120gotten","7097":"\u0120Daniel","7098":"\u0120Turk","7099":"\u0120electricity","7100":"aun","7101":"\u0120chosen","7102":"\u0120officially","7103":"\u0120bench","7104":"\u0120stretch","7105":"\u0120database","7106":"Com","7107":"\u0120Despite","7108":"\u0120intellect","7109":"\u0120spin","7110":"igation","7111":"\u0120stronger","7112":"\u0120deleg","7113":"\u0120purposes","7114":"\u0120DNA","7115":"\u0120cutting","7116":"\u0120Turn","7117":"\u0120fold","7118":"rary","7119":"\u0120extensive","7120":"\u0120amounts","7121":"\u0120desper","7122":"\u0120trees","7123":"\u0120anx","7124":"\u0120ideal","7125":"\u0120Asian","7126":"\u0120thread","7127":"\u0120fifth","7128":"\u012a\u0134","7129":"UR","7130":"\u0120goods","7131":"\u0120colon","7132":"\u0120developer","7133":"\u0120claiming","7134":"unning","7135":"Any","7136":"\u0120retain","7137":"\u0120soul","7138":"\u0120captured","7139":"\u0120Though","7140":"\u0120finds","7141":"\u0120driven","7142":"\u0120payments","7143":"asters","7144":"\u0120Jordan","7145":"ras","7146":"CS","7147":"\u0120ties","7148":"\u0120reasonable","7149":"\u0120dogs","7150":"\u00e2\u0138","7151":"\u0120somebody","7152":"\u0120ending","7153":"\u0120Nations","7154":"\u0120choices","7155":"\u0120ble","7156":"\u0120seats","7157":"\u0120Services","7158":"\u0120Thank","7159":"\u0120pod","7160":"\u0120engage","7161":"\u0120drawn","7162":"\u0120sight","7163":"CE","7164":"\u0120param","7165":"\u0120Dar","7166":"\u0120threatened","7167":"\u0120ruled","7168":"eping","7169":"\u0120Attorney","7170":"\u0120Irish","7171":"ura","7172":"\u0120Sea","7173":"\u0120trading","7174":"owed","7175":"\u0120primarily","7176":"\u0120aspects","7177":"\u0120fighters","7178":"ML","7179":"\u0120answers","7180":"\u0120perfectly","7181":"irms","7182":"\u0120Academ","7183":"\u0120incl","7184":"\u0120rival","7185":"\u0120parking","7186":"\u0120rejected","7187":"\u0120Gall","7188":"\u0120constantly","7189":"\u0120Hun","7190":"fast","7191":"\u0120payment","7192":"\u0120Cat","7193":"\u0120distinct","7194":"\u0120flying","7195":"\u0120rig","7196":"\u0120technologies","7197":"\u0120Real","7198":"</","7199":"\u0120components","7200":"Police","7201":"\u0120admit","7202":"\u0120Scotland","7203":"\u0120elsewhere","7204":"\u0120Dark","7205":"\u0120constit","7206":"\u0120tur","7207":"\u0120anymore","7208":"lder","7209":"\u0120icon","7210":"\u0120fields","7211":"\u0120estimates","7212":"EW","7213":"sea","7214":"\u0120solutions","7215":"\u0120resulting","7216":"78","7217":"\u0120Bru","7218":"\u0120awesome","7219":"\u0120encoun","7220":"\u0120province","7221":"mod","7222":"\u0120worldwide","7223":"\u0120actor","7224":"\u0120regularly","7225":"\u0120Moore","7226":"\u0120courts","7227":"\u0120narrative","7228":"\u0120Ut","7229":"Once","7230":"\u0120boot","7231":"\u0120enemies","7232":"\u0120mixed","7233":"regon","7234":"\u0120OS","7235":"\u0120Disney","7236":"sm","7237":"icer","7238":"\u0120houses","7239":"\u0120nobody","7240":"\u0120Sk","7241":"inations","7242":"\u0120controls","7243":"\u0120Water","7244":"\u0120letters","7245":"ez","7246":"apes","7247":"agram","7248":"iana","7249":"imp","7250":"\u012042","7251":"\u0120murd","7252":"\u0120mayor","7253":"\u0120loan","7254":"\u0120outcome","7255":"\u0120MS","7256":"\u0120contem","7257":"sell","7258":"Sec","7259":"vy","7260":"ship","7261":"\u0120Light","7262":"onic","7263":"isan","7264":"\u0120apartment","7265":"\u0120Steven","7266":"\u0120coalition","7267":"\u0120contributed","7268":"\u0120Bas","7269":"\u0120tank","7270":"\u0120concluded","7271":"\u0120Adam","7272":"\u0120exists","7273":"\u0120Tw","7274":"\u0120founder","7275":"\u0120Brian","7276":"earing","7277":"\u0120Lew","7278":"\u0120atmosphere","7279":"\u0120profile","7280":"\u0120brew","7281":"\u0120Id","7282":"\u0120situations","7283":"\u0120Championship","7284":"\u0120Author","7285":"rates","7286":"\u0120incredible","7287":"\u0120Constitution","7288":"\u0120signal","7289":"otes","7290":"\u0120Rog","7291":"\u0120accurate","7292":"300","7293":"\u0120Victor","7294":"otten","7295":"\u0120unp","7296":"\u0120Where","7297":"ker","7298":"\u0120Southern","7299":".\"[","7300":"\u0120employment","7301":"\u0120clients","7302":"Dr","7303":"\u0120keeps","7304":"\u0120informed","7305":"\u0120continuing","7306":"inity","7307":"\u0120baseball","7308":"\u0120generate","7309":"\u0120ticket","7310":"\u0120conven","7311":"Also","7312":"\u0120Conf","7313":"\u0120weird","7314":"\u0120tied","7315":"lock","7316":"adelph","7317":"\u0120category","7318":"\u0120infect","7319":"ilarly","7320":"acked","7321":"\u0120angry","7322":"\u0120Organ","7323":"\u0120routine","7324":"aron","7325":"\u0120kil","7326":"\u0120raising","7327":"ifer","7328":"\u0120machines","7329":"\u0120registered","7330":"\u0120proved","7331":"there","7332":"\u0120demands","7333":"\u0120gaming","7334":"\u0120Italian","7335":"\u0120incredibly","7336":"\u0120crucial","7337":"\u0120stuck","7338":"\u0120Civil","7339":"\u0120Dallas","7340":"cr","7341":"\u0120terrible","7342":"56","7343":"MP","7344":"\u0120feedback","7345":"\u0120upper","7346":"\u0120plastic","7347":"\u0120imper","7348":"\u0120newly","7349":"\u0120Joseph","7350":"\u0120consumption","7351":"\u0120dozen","7352":"\u0120enthus","7353":"\u0120estate","7354":"ali","7355":"rage","7356":"\u0120innoc","7357":"\u0120manip","7358":"\u0120Tem","7359":"\u0120conscious","7360":"\u0120bills","7361":"\u0120Cross","7362":"\u0120Spain","7363":"ifications","7364":"Today","7365":"\u0120writers","7366":"\u0120excess","7367":"inding","7368":"\u0120aggressive","7369":"\u0120reporter","7370":"\u0120compens","7371":"\u0120returning","7372":"\u0120stead","7373":"\u0120programming","7374":"\u0120Thanks","7375":"\u0120represented","7376":"\u0120conclusion","7377":"98","7378":"\u0120rus","7379":"\u0120Bowl","7380":"\u0120AR","7381":"MS","7382":"\u0120origin","7383":"\u0120assistant","7384":"adelphia","7385":"\u0120roster","7386":"\u0120Minnesota","7387":"\u0120organized","7388":"ria","7389":"\u0120penalty","7390":"lers","7391":"\u0120drinking","7392":"\u0120paint","7393":"\u0120satell","7394":"\u0120gro","7395":"\u0120Program","7396":"\u0120capture","7397":"ni","7398":"\u0120conspir","7399":"\u0120interpret","7400":"\u0120explanation","7401":"iscal","7402":"58","7403":"\u0120county","7404":"iscons","7405":"essed","7406":"mont","7407":"ima","7408":"\u0120%","7409":"anny","7410":"gorith","7411":"emen","7412":"isconsin","7413":"\u0120assistance","7414":"\u0120Roman","7415":"\u0120complaint","7416":"\u0120ru","7417":"\u0120nut","7418":"LA","7419":"\u0120magic","7420":"\u0120tall","7421":"\u0120Oper","7422":"\u0120granted","7423":"Ed","7424":"Because","7425":"\u0120Contin","7426":"star","7427":"Off","7428":"\u0120Parliament","7429":"\u0120complicated","7430":"\u0120audio","7431":"\u0120chances","7432":"\u0120extract","7433":"rypt","7434":"\u0120Gi","7435":"\u01201999","7436":"\u0120hel","7437":"\u0120Educ","7438":"era","7439":"\u0120shares","7440":"\u0120successfully","7441":"esy","7442":"........","7443":"\u0120IT","7444":"zy","7445":"\u0120pilot","7446":"\u0120Ep","7447":"\u0120Hot","7448":"\u0120myth","7449":"\u0120recovery","7450":"\u0120Test","7451":"\u0120techniques","7452":"\u0120iron","7453":"\u0120Care","7454":"\u0120Zeal","7455":"\u0120SC","7456":"\u0120scenes","7457":"\u0120Fre","7458":"\u0120veteran","7459":"\u0120Win","7460":"\u0120($","7461":"\u0120degrees","7462":"actions","7463":"ked","7464":"\u0120sympt","7465":"thew","7466":"\u0120lawmakers","7467":"\u0120western","7468":"\u0120operate","7469":"\u0120ads","7470":"rating","7471":"\u0120habit","7472":"\u0120aimed","7473":"Inst","7474":"anchester","7475":"\u0120phr","7476":"rep","7477":"rete","7478":"\u0120taste","7479":"idency","7480":"\u0120engaged","7481":"\u0120privile","7482":"\u012055","7483":"========","7484":"\u0120rating","7485":"\u0120teaching","7486":"\u0120Os","7487":"\u0120academic","7488":"itar","7489":"\u0120therap","7490":"\u0120passes","7491":"\u0120dollar","7492":"hent","7493":"\u0120automatically","7494":"\u0120Pacific","7495":"\u0120monit","7496":"\u0120blocks","7497":"abama","7498":"\u0120attended","7499":"\u0120permanent","7500":"\u0120survive","7501":"uan","7502":"\u0120anticip","7503":"\u0120enable","7504":"\u0120Look","7505":"\u0120extrem","7506":"\u0120Foreign","7507":"chain","7508":"%.","7509":"\u0120marked","7510":"itals","7511":"\u0120hidden","7512":"\u0120accomp","7513":"\u0120titles","7514":"\u0120Senator","7515":"\u0120NBC","7516":"\u0120taught","7517":"aed","7518":"\u0120Linux","7519":"\u0120bom","7520":"\u0120index","7521":"everal","7522":"\u0120elite","7523":"ibilities","7524":"\u0120lawyers","7525":"from","7526":"\u0120depending","7527":"\u0120valuable","7528":"\u0120installed","7529":"\u0120championship","7530":"\u0120root","7531":"\u0120compre","7532":"mal","7533":"\u0120Bull","7534":"\u0120downtown","7535":"\u0120equivalent","7536":"\u0120solve","7537":"rific","7538":"\u0120duty","7539":"\u0120Special","7540":"\u0120Business","7541":"\u012064","7542":"\u0120pace","7543":"HS","7544":"\u0120reputation","7545":"\u0120uncertain","7546":"\u0120phones","7547":"uine","7548":"\u0120overse","7549":"bal","7550":"\u0120Taylor","7551":"\u0120personnel","7552":"\u0120pin","7553":"reams","7554":"aturally","7555":"\u0120sufficient","7556":"\u0120visited","7557":"\u0120warming","7558":"\u0120principles","7559":"\u0120vulnerable","7560":"\u0120enjoyed","7561":"\u0120fake","7562":"\u0120Nick","7563":"\u0120advis","7564":"\u0120negotiations","7565":"inder","7566":"\u0120generated","7567":"\u0120exposure","7568":"\u0120recording","7569":"\u0120collected","7570":"\u0120regardless","7571":"\u0120dict","7572":"EA","7573":"\u0120bitcoin","7574":"\u0120elev","7575":"\u00e3\u0122","7576":"active","7577":"\u0120Kelly","7578":"\u0120Anth","7579":"\u0120cup","7580":"\u0120patterns","7581":"Getty","7582":"\u0120Take","7583":"))","7584":"\u0120Avenue","7585":"\u0120Josh","7586":"bro","7587":"\u0120disaster","7588":"\u0120cable","7589":"\u012065","7590":"\u0120chat","7591":"\u0120worker","7592":"\u0120mainly","7593":"\u0120racial","7594":"quarters","7595":"\u0120Coast","7596":"\u0120Viet","7597":"month","7598":"\u0120pounds","7599":"\u0120150","7600":"\u0120Call","7601":"\u0120portion","7602":"\u0120afraid","7603":"\u0120inspir","7604":"\u0120Ah","7605":"\u0120defence","7606":"\u0120bes","7607":"\u0120Eastern","7608":"da","7609":"\u0120Tony","7610":"\u0120tracks","7611":"\u0120busy","7612":"\u0120grant","7613":"\u0120shit","7614":"\u0120intense","7615":"\u0120Series","7616":"\u0120LGBT","7617":"orne","7618":"\u0120Still","7619":"athy","7620":"\u0120funny","7621":"\u0120apolog","7622":"\u0120surgery","7623":"\u0120Moscow","7624":"mann","7625":"\u0120Coll","7626":"\u0120possession","7627":"\u0120prominent","7628":"\u0120Mars","7629":"\u0120comic","7630":"\u0120Ger","7631":"ashes","7632":"97","7633":"ules","7634":"\u0120Ray","7635":"\u0120thin","7636":"\u0120engineering","7637":"\u0120troub","7638":"\u0120Kurd","7639":"this","7640":"\u0120processes","7641":"\u0120Nation","7642":"fall","7643":"\u0120Kent","7644":"\u0120Come","7645":"\u0120entit","7646":"\u0120\u00e2\u0122\u013b","7647":"\u0120unusual","7648":"raph","7649":"etary","7650":"\u0120describes","7651":"Col","7652":"world","7653":"96","7654":"\u0120resulted","7655":"\u0120emerged","7656":"\u0120taxp","7657":"\u0120gall","7658":"iler","7659":"\u0120dim","7660":"\u0120propag","7661":"\u0120Iowa","7662":"\u0120Oregon","7663":"\u0120coordin","7664":"\u0120corruption","7665":"\u0120stations","7666":"\u0120Invest","7667":"\u0120fought","7668":"\u0120AD","7669":"\u0120brut","7670":"\u0120extension","7671":"ref","7672":"\u0120blind","7673":"\u0120adopted","7674":"prise","7675":"ye","7676":"\u0120compete","7677":"\u0120recru","7678":"\u0120Zealand","7679":"\u0120hadn","7680":"Pr","7681":"\u0120400","7682":"\u0120mail","7683":"\u0120everywhere","7684":"\u0120Balt","7685":"\u0120crypt","7686":"\u0120Hom","7687":"ba","7688":"Rec","7689":"Mean","7690":"herent","7691":"icate","7692":"\u0120Ali","7693":"\u0120contracts","7694":"front","7695":"\u0120neuro","7696":"\u0120Lo","7697":"\u0120Dead","7698":"\u0120Rick","7699":"\u0120feelings","7700":"\u0120firms","7701":"idelines","7702":"\u00e2\u0122\u013b,","7703":"\u0120minority","7704":"\u0120spr","7705":"cles","7706":"HA","7707":"\u0120advertising","7708":"tes","7709":"\u0120rarely","7710":"\u0120discipl","7711":"making","7712":"\u0120Northern","7713":"\u0120sanctions","7714":"gun","7715":"\u0120Veg","7716":"scape","7717":"\u0120Philadelphia","7718":"upid","7719":"\u0120cameras","7720":"\u0120explicit","7721":"\u0120strict","7722":"viously","7723":"log","7724":"\u0120enorm","7725":"\u0120finance","7726":"\u0120cited","7727":"ifies","7728":"\u0120Before","7729":"\u0120shortly","7730":"UL","7731":"\u0120Policy","7732":"olt","7733":"\u0120expectations","7734":"\u0120implementation","7735":"ogen","7736":"\u0120recip","7737":"cling","7738":"\u0120Greek","7739":"\u0120thick","7740":"\u0120thousand","7741":"antic","7742":"\u0120Mu","7743":"\u0120loud","7744":"istent","7745":"\u0120affili","7746":"urrent","7747":"orough","7748":"\u0120Navy","7749":"\u0120inev","7750":"rell","7751":"cus","7752":"\u0120photograph","7753":"\u0120medium","7754":"azz","7755":"\u0120Wisconsin","7756":"\u0120scenario","7757":"\u0120Food","7758":"\u0120Live","7759":"\u0120sup","7760":"ilton","7761":"\u0120plug","7762":"\u0120veget","7763":"\u0120ho","7764":"\u0120visible","7765":"LC","7766":"\u0120lights","7767":"\u0120creates","7768":"\u0120priority","7769":"\u0120ven","7770":"\u0120bridge","7771":"eland","7772":"inking","7773":"\u0120obst","7774":"\u0120agric","7775":"ATE","7776":"\u0120permission","7777":"\u0120Foot","7778":"\u0120algorith","7779":"izon","7780":"Co","7781":"elect","7782":"\u0120participate","7783":"aska","7784":"\u0120wing","7785":"who","7786":"asion","7787":"\u0120browser","7788":"\u0120Global","7789":"\u0120tag","7790":"\u0120Ol","7791":"\u0120Has","7792":"\u0120mel","7793":"\u0120acceler","7794":"\u0120dozens","7795":"\u0120Kingdom","7796":"\u0120historic","7797":"\u0120computers","7798":"\u0120laid","7799":"\u0120basketball","7800":"\u0120losses","7801":"text","7802":"\u0120Saf","7803":"\u0120Ash","7804":"76","7805":"ogether","7806":"\u0120unw","7807":"::","7808":"\u0120tor","7809":"\u0120Amendment","7810":"Mar","7811":"\u0120strikes","7812":"\u0120principle","7813":"\u0120Development","7814":"\u0120formal","7815":"EP","7816":"igen","7817":"54","7818":"\u0120scoring","7819":"obs","7820":"athered","7821":"\u012044","7822":"\u0120counsel","7823":"found","7824":"++","7825":"\u0120shock","7826":"\u0120wonderful","7827":"\u0120SP","7828":"\u0120behalf","7829":"abs","7830":"\u0120uncom","7831":"profit","7832":"52","7833":"enth","7834":"\u0120interface","7835":"\u0120establishment","7836":"\u0120toler","7837":"\u0120Henry","7838":"\u0120Greg","7839":"amber","7840":"car","7841":"\u0120Major","7842":"\u0120Thus","7843":"Us","7844":"\u0120gained","7845":"\u0120fee","7846":"lete","7847":"she","7848":"\u0120founded","7849":"etime","7850":"\u0120foundation","7851":"jo","7852":"51","7853":"\u0120ESP","7854":"ilipp","7855":"\u0120clubs","7856":"\u0120cannabis","7857":"\u0120ju","7858":"\u0120airport","7859":"\u0120Key","7860":"ystem","7861":"\u0120borrow","7862":"olis","7863":"weet","7864":"BO","7865":"\u0120manufacturing","7866":"\u0120rely","7867":"\u0120Hit","7868":"aus","7869":"\u0120Pay","7870":"\u0120Alabama","7871":"\u0120genuine","7872":"\u0120Royal","7873":"rators","7874":"Before","7875":"uer","7876":"\u0120component","7877":"\u0120ridic","7878":"osexual","7879":"\u0120wheel","7880":"rative","7881":"\u0120Oak","7882":"\u0120journalist","7883":"\u0120relief","7884":"\u0120Sn","7885":"\u0120saved","7886":"\u0120hole","7887":"\u0120yield","7888":"\u0120headed","7889":"\u0120cyber","7890":"Ne","7891":"\u0120Moh","7892":"ependent","7893":"\u0120gift","7894":"bell","7895":"\u0120fault","7896":"\u0120withdraw","7897":"\u0120indicate","7898":"\u0120drawing","7899":"\u0120uniform","7900":"umer","7901":"\u0120Rand","7902":"\u0120Vis","7903":"arlier","7904":"\u0120stable","7905":"\u0120ships","7906":"\u0120->","7907":"\u0120banned","7908":"\u0120magn","7909":"\u0120Mid","7910":"\u0120footage","7911":"Meanwhile","7912":"rous","7913":"\u0120doors","7914":"lan","7915":"\u0120recognized","7916":"\u01201960","7917":"\u0120containing","7918":"pread","7919":"\u0120FC","7920":"\u0120river","7921":"ami","7922":"\u0120struggling","7923":"Sub","7924":"\u0120spark","7925":"\u0120Academy","7926":"\u0120walls","7927":"\u0120achieved","7928":"opher","7929":"ounced","7930":"\u0120neighb","7931":"aning","7932":"\u0120plate","7933":"\u0120edition","7934":"\u0120HT","7935":"portion","7936":"mate","7937":"\u0120movements","7938":"\u0120deliber","7939":"uce","7940":"teen","7941":"Post","7942":"\u0120sharp","7943":"\u0120AS","7944":"\u0120Snow","7945":"ulating","7946":"\u0120Three","7947":"\u0120episodes","7948":"\u0120neutral","7949":"\u0120Premier","7950":"\u0120Ret","7951":"\u0120Fund","7952":"\u0120exception","7953":"etts","7954":"\u0120producer","7955":"________________","7956":"\u0120Fred","7957":"\u0120destruction","7958":"\u01201998","7959":"oured","7960":"\u0120beliefs","7961":"\u012047","7962":"\u0120Review","7963":"\u0120legend","7964":"\u0120pump","7965":"\u0120McG","7966":"\u0120backed","7967":"umin","7968":"\u0120liked","7969":"\u0120hired","7970":"idespread","7971":"cription","7972":"\u0120roles","7973":"\u0120languages","7974":"\u0120profession","7975":"\u0120entering","7976":"osa","7977":"\u0120VR","7978":"\u0120interviews","7979":"\u0120hang","7980":"isp","7981":"\u0120Kir","7982":"eman","7983":"\u0120tox","7984":"\u0120philosophy","7985":"\u0120Administration","7986":"\u0120arrange","7987":"oen","7988":"interest","7989":"\u0120flaw","7990":"Those","7991":"\u0120Nob","7992":"sylv","7993":"imore","7994":"\u0120stadium","7995":"\u0120Atlanta","7996":"\u0120Jac","7997":"\u0120reduction","7998":"\u0120dinner","7999":"ca","8000":"ja","8001":"\u0120bath","8002":"\u0120Report","8003":"iel","8004":"uper","8005":"\u0120Turkish","8006":"400","8007":"\u0120aver","8008":"\u0120finger","8009":"\u0120Note","8010":"\u0120Conference","8011":"\u0120tackle","8012":"\u0120cha","8013":"burgh","8014":"\u0120gonna","8015":"\u0120Diego","8016":"\u0120Point","8017":"\u0120crop","8018":"\u0120Centre","8019":"\u0120farmers","8020":"\u0120Manchester","8021":"\u0120nominee","8022":"\u012041","8023":"53","8024":"aching","8025":"\u0120Jason","8026":"\u0120barely","8027":"ATO","8028":"\u0120structures","8029":"\u0120contained","8030":"\u0120synt","8031":"\u0120Ott","8032":"\u0120delivery","8033":"\u0120convin","8034":"%,","8035":"\u0120processing","8036":"\u0120discrimination","8037":"\u0120incent","8038":"riers","8039":"\u0120Fair","8040":"erved","8041":"RS","8042":"\u0120Data","8043":"then","8044":"\u0120Arm","8045":"abinet","8046":"\u0120intellectual","8047":"\u0120Radio","8048":"amsung","8049":"\u012046","8050":"\u0120Bry","8051":"\u0120OK","8052":"\u0120Field","8053":"Me","8054":"\u0120Did","8055":"\u0120upset","8056":"\u0120Perhaps","8057":"\u0120Mir","8058":"\u0120Education","8059":"sylvania","8060":"away","8061":"President","8062":"\u0120challenging","8063":"\u0120proven","8064":"\u0120restrictions","8065":"rik","8066":"\u0120forever","8067":"ho","8068":"https","8069":"olen","8070":"\u0120electronic","8071":"\u0120hitting","8072":"\u0120Hay","8073":"\u0120euro","8074":"\u0120unex","8075":"\u0120reviews","8076":"\u0120Fed","8077":"\u0120Christians","8078":"\u012043","8079":"\u0120NC","8080":"\u0120convicted","8081":"Star","8082":"\u0120illness","8083":"\u0120smooth","8084":"page","8085":"Dav","8086":"\u0120Hor","8087":"\u0120retired","8088":"\u0120indicated","8089":"usive","8090":"\u0120producing","8091":"\u0120About","8092":"\u0120Harry","8093":"\u0120rapidly","8094":"\u0120rose","8095":"\u0120hide","8096":"fr","8097":"\u0120corporations","8098":"\u0120ocean","8099":"iy","8100":"\u0120Rus","8101":"aying","8102":"owing","8103":"\u0120listening","8104":"\u0120Reuters","8105":"\u0120UFC","8106":"\u0120Sat","8107":"\u0120technique","8108":"\u0120mo","8109":"yard","8110":"sels","8111":"\u0120loyal","8112":"\u0120Nic","8113":"lessly","8114":"\u0120robot","8115":"\u0120climb","8116":"\u0120notion","8117":"\u0120begun","8118":"87","8119":"\u0120util","8120":"\u0120recognition","8121":"\u0120ren","8122":"ouver","8123":"engers","8124":"\u0120perpet","8125":"\u0120association","8126":"\u0120milk","8127":"inf","8128":"\u0120asks","8129":"\u0120websites","8130":"\u0120description","8131":"\u0120Pack","8132":"\u0120tickets","8133":"\u0120Pen","8134":"achus","8135":"\u0120flash","8136":"\u0120bra","8137":"\u0120suggesting","8138":"enny","8139":"\u0120Judge","8140":"\u0120exclusive","8141":"\u0120reaching","8142":"\u0120prepare","8143":"iti","8144":"\u0120Kansas","8145":"Who","8146":"ione","8147":"\u0120bail","8148":"\u0120frag","8149":"\u0120progressive","8150":"\u0120burd","8151":"\u0120exceed","8152":"\u0120equally","8153":"\u0120Hard","8154":"\u0120hardly","8155":"\u0120widespread","8156":"\u0120ABC","8157":"\u0120campaigns","8158":"\u0120Mayor","8159":"\u0120contribute","8160":"udes","8161":"ologists","8162":"\u0120branch","8163":"Look","8164":"\u0120Rose","8165":"\u0120grass","8166":"\u0120initiative","8167":"\u0120Market","8168":"\u0120ethnic","8169":"\u0120external","8170":"ikes","8171":"\u0120Circ","8172":"uma","8173":"rient","8174":"\u0120sensitive","8175":"\u0120practical","8176":"usted","8177":"elf","8178":"\u0120unclear","8179":"\u0120normally","8180":"Ref","8181":"\u0120representative","8182":"pat","8183":"ls","8184":"89","8185":"thon","8186":"\u0120welf","8187":"\u0120Full","8188":"\u0120reducing","8189":"appy","8190":"\u0120friendly","8191":"bec","8192":"\u0120carefully","8193":"\u0120Arabia","8194":"\u0120Ref","8195":"lad","8196":"ester","8197":"\u0120Ly","8198":"PM","8199":"\u0120Luc","8200":"\u0120racist","8201":"\u0120invent","8202":"rical","8203":"ouch","8204":"PG","8205":"\u0120CO","8206":"\u0120Next","8207":"\u0120respectively","8208":"senal","8209":"rator","8210":"\u0120tail","8211":"imm","8212":"\u0120McCain","8213":"\u0120Bernie","8214":"ancouver","8215":"\u0120overwhelming","8216":"\u0120viewers","8217":"\u0120Beach","8218":"stract","8219":"\u0120welfare","8220":"arrass","8221":"\u0120Further","8222":"\u0120convinced","8223":"UN","8224":"\u0120smoke","8225":"umes","8226":"\u0120collapse","8227":"\u0120involvement","8228":"\u0120Lind","8229":"\u0120thrown","8230":"pload","8231":"\u0120connections","8232":"heast","8233":"\u0120terrorists","8234":"\u0120Battle","8235":"\u0120strategic","8236":"\u0120hook","8237":"\u012000","8238":"\u0120Latin","8239":"\u0120recover","8240":"omething","8241":"igrant","8242":"\u0120Ont","8243":"\u0120wine","8244":"Mc","8245":"inois","8246":"\u0120Music","8247":"rolled","8248":"\u0120minds","8249":"\u0120vital","8250":"\u0120settlement","8251":"\u0120statistics","8252":"\u0120lists","8253":"\u0120vary","8254":"\u0120Sir","8255":"\u0120featuring","8256":"\u0120ESPN","8257":"ecut","8258":"\u0120Dig","8259":"achusetts","8260":"\u0120behaviour","8261":"\u0120independence","8262":"worth","8263":"\u0120fantasy","8264":"\u0120devast","8265":"nedy","8266":"core","8267":"uties","8268":"\u0120invited","8269":"\u0120complaints","8270":"\u0120joining","8271":"\u0120scores","8272":"dem","8273":"\u0120fiscal","8274":"\u0120deeper","8275":"abil","8276":"\u0120Pennsylvania","8277":"ifest","8278":"\u0120steal","8279":"\u0120anger","8280":"\u0120deputy","8281":"\u0120elig","8282":"\u0120wars","8283":"\u0120Square","8284":"\u0120Tenn","8285":"\u0120investigate","8286":"\u0120Town","8287":"\u0120sugar","8288":"\u0120constitutional","8289":"\u0120III","8290":"\u0120scholars","8291":"\u0120Pit","8292":"\u0120iOS","8293":"\u0120anybody","8294":"\u0120subjects","8295":"\u0120AND","8296":"\u0120array","8297":"\u0120alien","8298":"FA","8299":"\u0120Ult","8300":"\u0120Gov","8301":"\u0120lobby","8302":"\u0120ownership","8303":"\u0120framework","8304":"\u0120unemployment","8305":"\u0120Division","8306":"\u0120transgender","8307":"bn","8308":"\u0120improvements","8309":"\u0120SS","8310":"\u0120menu","8311":"\u0120peak","8312":"Back","8313":"\u0120screens","8314":"ihad","8315":"\u0120inject","8316":"\u0120luck","8317":"iversary","8318":"\u0120define","8319":"\u0120tasks","8320":"\u0120Xbox","8321":"\u0120democratic","8322":"\u0120scandal","8323":"icking","8324":"\u0120jury","8325":"acon","8326":"\u0120Anton","8327":"Che","8328":"\u0120Ministry","8329":"\u0120cos","8330":"\u0120Es","8331":"\u0120comprehens","8332":"osit","8333":"\u0120Kat","8334":"\u0120remem","8335":"\u0120discovery","8336":"unior","8337":"\u0120register","8338":"\u0120casual","8339":"\u0120citizen","8340":"RI","8341":"\u0120fab","8342":"Under","8343":"een","8344":"\u0120roads","8345":"\u0120disagree","8346":"\u0120failing","8347":"\u0120Never","8348":"\u0120Little","8349":"\u0120Jay","8350":"\u0120dynamic","8351":"\u0120serves","8352":"\u0120Cameron","8353":"\u0120Brother","8354":"\u0120Mah","8355":"\u0120testim","8356":"\u0120gathered","8357":"\u0120Stone","8358":"\u0120Information","8359":"Sm","8360":"\u0120soph","8361":"oding","8362":"\u0120implemented","8363":"\u0120controversy","8364":"\u0120collective","8365":"\u0120trained","8366":"anna","8367":"\u0120NSA","8368":"\u0120neighbour","8369":"\u0120fears","8370":"leveland","8371":"\u0120samples","8372":"\u0120fiction","8373":"\u0120prosec","8374":"agg","8375":"\u0120estimate","8376":"\u0120Community","8377":"69","8378":"\u0120Ice","8379":"\u0120Medical","8380":"\u01201997","8381":"\u0120Philipp","8382":"\u0120referring","8383":"\u0120tip","8384":"\u0120captain","8385":"Will","8386":"\u01201996","8387":"\u0120spaces","8388":"cific","8389":"\u0120Walker","8390":"\u0120versus","8391":"\u0120legs","8392":"\u0120Santa","8393":"'.","8394":"\u0120temporary","8395":"PC","8396":"\u0120noise","8397":"\u0120HD","8398":"\u0120overt","8399":"\u0120incorpor","8400":"\u0120tone","8401":"\u0120visitors","8402":"\u0120reven","8403":"\u0120civilians","8404":"\u0120wages","8405":"\u0120hypot","8406":"\u0120sin","8407":"\u0120remarks","8408":"\u0120awareness","8409":"\u0120ON","8410":"\u0120Spring","8411":"\u0120recommended","8412":"\u0120stupid","8413":"\u0120Allen","8414":"\u0120heading","8415":"\u0120handful","8416":"\u0120regulation","8417":"icket","8418":"\u0120Action","8419":"\u0120Core","8420":"\u0120platforms","8421":"\u0120accus","8422":"\u0120Anthony","8423":"\u0120affairs","8424":"\u0120touchdown","8425":"\u0120rural","8426":"\u0120attacking","8427":"gener","8428":"\u0120extend","8429":"\u0120ultimate","8430":"\u0120attached","8431":"\u0120Vegas","8432":"\u0120discussions","8433":"\u0120Ren","8434":"\u0120horse","8435":"\u0120Brew","8436":"mad","8437":"\u0120reprodu","8438":"\u0120genetic","8439":"\u0120expanded","8440":"\u0120attempting","8441":"phones","8442":"\u0120Matthew","8443":"\u0120races","8444":"including","8445":"iry","8446":"\u0120Queen","8447":"\u0120raw","8448":"\u0120ignore","8449":"\u0120Columbia","8450":"serv","8451":"\u0120Pent","8452":"\u0120Guardian","8453":"hour","8454":"\u0120Cook","8455":"\u0120iP","8456":"itionally","8457":"\u0120gear","8458":"\u0120symptoms","8459":"\u0120Patrick","8460":"\u0120suffer","8461":"\u0120settings","8462":"\u0120Make","8463":"\u00e2\u0122\u0136\u00e2\u0122\u0136\u00e2\u0122\u0136\u00e2\u0122\u0136","8464":"alling","8465":"\u0120salary","8466":"case","8467":"\u0120licens","8468":"mary","8469":"GO","8470":"\u0120tweeted","8471":"angel","8472":"\u0120publication","8473":"\u0120brill","8474":"\u0120factory","8475":"\u0120suspected","8476":"\u0120purchased","8477":"aret","8478":"\u0120intervention","8479":"\u0120eastern","8480":"\u0120holiday","8481":"type","8482":"2014","8483":"\u0120theat","8484":"esh","8485":"About","8486":"\u0120displ","8487":"\u0120ranked","8488":"\u0120Budd","8489":"\u0120neck","8490":"\u0120Austin","8491":"\u0120Conservative","8492":"\u0120Museum","8493":"ective","8494":"\u0120Roy","8495":"\")","8496":"\u0120cro","8497":"\u0120enormous","8498":"Sen","8499":"####","8500":"intendo","8501":"\u0120cogn","8502":"\u0120logic","8503":"ultural","8504":"ictions","8505":"\u0120improvement","8506":"\u0120API","8507":"\u0120viewed","8508":"\u0120ingred","8509":"\u0120entertainment","8510":"Ass","8511":"\u0120legitimate","8512":"\u0120Professor","8513":"ommod","8514":"\u0120presum","8515":"\u0120Albert","8516":"\u0120Massachusetts","8517":"\u0120Ball","8518":"\u01202019","8519":"\u0120www","8520":"News","8521":"\u0120actors","8522":"\u0120substantial","8523":"\u0120humanity","8524":"\u0120involves","8525":"\u0120resource","8526":"arms","8527":"\u0120brothers","8528":"\u0120liquid","8529":"\u0120rational","8530":"\u0120seemingly","8531":"\u0120sorry","8532":"\u0120layer","8533":"\u0120loans","8534":"\u0120rook","8535":"\u0120investigating","8536":"\u0120absence","8537":"\u0120providers","8538":"\u0120tomorrow","8539":"\u0120fallen","8540":"\u0120bureau","8541":"\u0120grounds","8542":"\u0120coaches","8543":"\u0120stake","8544":"\u0120resign","8545":"\u0120outs","8546":"rec","8547":"\u0120advocates","8548":"\u0120\u00e2\u0124\u00ac","8549":"RC","8550":"\u0120investigators","8551":"\u0120conspiracy","8552":"Where","8553":"\u0120medicine","8554":"\u0120dramatic","8555":"\u0120fulf","8556":"\u0120monitor","8557":"\u0120Chair","8558":"EST","8559":"repre","8560":"\u0120overs","8561":"\u0120chapter","8562":"\u0120Season","8563":"\u0120coc","8564":"oval","8565":"GE","8566":"lah","8567":"\u0120Ho","8568":".-","8569":"\u0120activist","8570":"plete","8571":"ped","8572":"\u0120boat","8573":"\u0120Check","8574":"aka","8575":"\u0120Control","8576":"\u0120jur","8577":"\u0120suspended","8578":"\u0120papers","8579":"Script","8580":"\u0120Greece","8581":"\u0120opinions","8582":"\u0120Such","8583":"\u0120Ross","8584":"\u0120missile","8585":"\u0120Golden","8586":"\u0120celeb","8587":"\u0120Revolution","8588":"2016","8589":"\u0120stayed","8590":"\u0120covers","8591":"\u0120Ra","8592":"\u0120Head","8593":"iverpool","8594":"\u0120diversity","8595":"otype","8596":"\u0120bars","8597":"Part","8598":"\u0120gam","8599":"Russ","8600":"\u0120embarrass","8601":"xit","8602":"\u0120offices","8603":"\u0120Acc","8604":"rets","8605":"ourse","8606":"claim","8607":"\u0120Pot","8608":"hot","8609":"\u0120Iranian","8610":"ammed","8611":"\u0120disrupt","8612":"cover","8613":"\u0120WW","8614":"\u0120preced","8615":"\u0120poly","8616":"\u0120forest","8617":"wered","8618":"\u0120careful","8619":"mat","8620":"reprene","8621":"vard","8622":"\u0120amid","8623":"\u0120History","8624":"79","8625":"\u0120Hospital","8626":"isting","8627":"\u0120Ale","8628":"\u0120authent","8629":"quest","8630":"\u0120Illinois","8631":"\u0120CBS","8632":"\u0120Sony","8633":"uction","8634":"\u0120ham","8635":"geon","8636":"Related","8637":"dit","8638":"\u0120Ap","8639":"74","8640":"72","8641":"rine","8642":"\u0120transportation","8643":"\u0120Vancouver","8644":"\u0120Gaza","8645":"\u0120handed","8646":"\u0120protocol","8647":"\u0120consistently","8648":"\u0120mountain","8649":"\u012052","8650":"\u0120reads","8651":"\u0120Stat","8652":"\u0120pref","8653":"\u0120clothes","8654":"\u0120attitude","8655":"iability","8656":"\u0120Share","8657":"\u0120Kennedy","8658":"\u0120porn","8659":"\u0120princip","8660":"\u0120Freedom","8661":"\u0120depends","8662":"\u0120mining","8663":"\u0120petition","8664":"\u0120noting","8665":"\u0120warrant","8666":"des","8667":"\u0120conce","8668":"\u0120colors","8669":"\u0120lowest","8670":"\u0120Anderson","8671":"\u0120Tri","8672":"\u0120addressed","8673":"\u0120Family","8674":"bi","8675":"unes","8676":"\u0120entr","8677":"Ste","8678":"\u0120Stadium","8679":"xx","8680":"\u0120throwing","8681":"\u0120je","8682":"\u0120fruit","8683":"\u0120virtually","8684":"!)","8685":"\u0120stone","8686":"\u0120foss","8687":"\u0120Mean","8688":"\u0120guarantee","8689":"\u0120referend","8690":"Both","8691":"??","8692":"\u0120speaks","8693":"\u0120Baltimore","8694":"inch","8695":"\u0120steel","8696":"\u0120closing","8697":"\u0120reader","8698":"dri","8699":"FF","8700":"\u0120buff","8701":"\u0120personality","8702":"\u0120appreciate","8703":"\u0120Cre","8704":"\u0120Iraqi","8705":"\u0120surf","8706":"\u0120Environment","8707":"\u0120nerv","8708":"iences","8709":"maker","8710":"\u0120km","8711":"keep","8712":"\u0120handling","8713":"\u0120profits","8714":"ordon","8715":"\u0120grav","8716":"\u0120marks","8717":"low","8718":"\u0120tries","8719":"\u0120Broad","8720":"\u0120contributions","8721":"\u0120Engine","8722":"ropri","8723":"zed","8724":"\u0120spiritual","8725":"\u0120conversations","8726":"\u0120fantastic","8727":"\u0120Tro","8728":"\u0120lands","8729":"\u0120console","8730":"ila","8731":"\u0120horror","8732":"ppers","8733":"\".[","8734":"icity","8735":"\u0120gains","8736":"\u0120covering","8737":"\u0120tea","8738":"ivals","8739":"\u0120Harris","8740":"Her","8741":"\u0120hint","8742":"\u0120astron","8743":"aval","8744":"\u0120shoulder","8745":"scale","8746":"\u0120wrest","8747":"\u0120guest","8748":"\u0120Ext","8749":"\u0120accommod","8750":"uted","8751":"uits","8752":"\u0120depression","8753":"\u0120CA","8754":"\u0120_","8755":"\u0120Lewis","8756":"\u0120lucky","8757":"\u0120Bang","8758":"\u0120encouraged","8759":"flix","8760":"amac","8761":"\u0120judges","8762":"\u0120incidents","8763":"\u0120Cleveland","8764":"\u0120drew","8765":"\u0120subsequent","8766":"ira","8767":"\u0120spoken","8768":"\u0120Howard","8769":"annels","8770":"\u0120Bad","8771":"\u0120brown","8772":"\u0120bacter","8773":"Please","8774":"ixed","8775":"\u0120rhet","8776":"\u0120ranks","8777":"\u0120Getty","8778":"\u0120photograp","8779":"\u0120inflation","8780":"\u0120inner","8781":"\u0120Intelligence","8782":"\u0120Po","8783":"itting","8784":"\u0120Ba","8785":"\u0120maps","8786":"abeth","8787":"\u0120Patri","8788":"ported","8789":"ijing","8790":"plate","8791":"\u0120divided","8792":"\u01201995","8793":"\u0120NATO","8794":"********","8795":"\u0120paralle","8796":"\u0120drama","8797":"\u0120Mexican","8798":"\u0120distributed","8799":"\u0120gal","8800":"\u0120innovation","8801":"\u0120swing","8802":"unicip","8803":"\u0120cust","8804":"\u0120Unfortunately","8805":"\u0120premium","8806":"\u0120voter","8807":"\u0120permit","8808":"\u0120revel","8809":"\u0120Kong","8810":"\u0120trem","8811":"\u0120dance","8812":"\u0120clim","8813":"pled","8814":"\u0120Las","8815":"\u0120efficiency","8816":"\u0120promises","8817":"\u0120Indeed","8818":"Note","8819":"eding","8820":"\u0120CH","8821":"\u0120Which","8822":"\u0120ballot","8823":"\u012051","8824":"pie","8825":"\u0120Adv","8826":"\u0120temperatures","8827":"\u0120Samsung","8828":"\u0120portray","8829":"\u0120spokesperson","8830":"\u0120locked","8831":"\u0120lying","8832":"\u0120improving","8833":"\u0120threw","8834":"\u0120joy","8835":"\u0120dump","8836":"Art","8837":"\u0120musical","8838":"PP","8839":"\u0120mistakes","8840":"dated","8841":"\u0120shout","8842":"\u0120Start","8843":"\u0120homeless","8844":"conf","8845":"\u0120replacement","8846":"eries","8847":"\u0120comedy","8848":"\u0120checks","8849":"\u0120Without","8850":"\u0120Moon","8851":"\u0120instrument","8852":"ounce","8853":"\u0120Connect","8854":"\u0120acknowledged","8855":"\u0120barrel","8856":"\u0120responses","8857":"\u0120protecting","8858":"backs","8859":"\u0120Det","8860":"\u00c2\u0134","8861":"\u0120silver","8862":"\u0120copies","8863":"heim","8864":"\u0120les","8865":"\u0120AC","8866":"\u0120dad","8867":"\u0120breaks","8868":"\u0120Plus","8869":"\u0120Buff","8870":"\u0120commonly","8871":"\u0120lets","8872":"\u0120legacy","8873":"itage","8874":"\u0120protein","8875":"\u0120mathem","8876":"\u0120joke","8877":"amacare","8878":"erted","8879":"hop","8880":"arre","8881":"\u0120passengers","8882":"2015","8883":"\u0120yellow","8884":"\u0120Marvel","8885":"\u0120naturally","8886":"Your","8887":"\u0120Scient","8888":"\u0120nomination","8889":"Source","8890":"\u0120measured","8891":"aping","8892":"oded","8893":"alia","8894":"\u0120Use","8895":"\u0120abandoned","8896":"\u0120mad","8897":"\u0120Prince","8898":"\u0120studied","8899":"800","8900":"\u0120Football","8901":"helsea","8902":"\u0120diverse","8903":"argo","8904":"\u0120acquired","8905":"ieties","8906":"\u0120Lyn","8907":"Cons","8908":"esty","8909":"\u0120soil","8910":"\u0120Marsh","8911":"\u0120demonstrated","8912":"\u0120blast","8913":"\u0120rear","8914":"\u0120funded","8915":"\u0120headquarters","8916":"hesis","8917":"yo","8918":"\u0120stolen","8919":"\u0120scan","8920":"\u0120counts","8921":"\u0120tape","8922":"\u0120partnership","8923":"\u0120midfield","8924":"\u0120NOT","8925":"\u0120(\u00e2\u0122\u013e","8926":"\u0120upgrade","8927":"\u0120Cost","8928":"\u0120Atlantic","8929":"yer","8930":"\u0120march","8931":"\u0120ordinary","8932":"\u0120Aud","8933":"\u0120Nev","8934":"\u0120rom","8935":"aware","8936":"\u0120literature","8937":"\u0120plain","8938":"\u0120stages","8939":"\u0120\u00e2\u0122\u00a2","8940":"\u0120assert","8941":"\u01201994","8942":"high","8943":"\u0120AI","8944":"\u0120helpful","8945":"\u0120arrive","8946":"\u0120exit","8947":"\u0120scope","8948":"\u0120falls","8949":"63","8950":"dog","8951":"\u0120ignored","8952":"BM","8953":"\u0120twenty","8954":"eters","8955":"\u0120Master","8956":"\u0120clock","8957":"\u0120compe","8958":"inction","8959":"\u0120virus","8960":"\u0120Trib","8961":"\u0120referendum","8962":"\u0120inequ","8963":"\u0120unions","8964":"\u0120Does","8965":"assador","8966":"\u0120Gun","8967":"\u0120conservatives","8968":"\u0120rif","8969":"\u0120grid","8970":"\u0120symp","8971":"\u0120festival","8972":"\u0120fro","8973":"\u0120shopping","8974":"\u0120waters","8975":"\u0120Pop","8976":"\u0120capabilities","8977":"\u0120Bron","8978":"\u0120ax","8979":"lahoma","8980":"\u0120usage","8981":"\u0120Hind","8982":"iate","8983":"zing","8984":"\u0120Empire","8985":"aeda","8986":"\u0120Abb","8987":"ington","8988":"\u0120Indiana","8989":"iley","8990":"\u0120transactions","8991":"erg","8992":"\u0120hoped","8993":"\u0120distract","8994":"\u0120Ast","8995":"\u0120guitar","8996":"VE","8997":"\u0120Eag","8998":"\u0120sty","8999":"\u0120ramp","9000":"\u0120assessment","9001":"ctic","9002":"\u0120universities","9003":"\u0120Dave","9004":"\u0120moon","9005":"\u0120monitoring","9006":"ormal","9007":"acket","9008":"bridge","9009":"\u0120representing","9010":"Facebook","9011":"\u0120ratio","9012":"\u0120Death","9013":"encing","9014":"ught","9015":"62","9016":"\u0120Prov","9017":"\u0120conventional","9018":"comes","9019":"UST","9020":"orge","9021":"\u0120trave","9022":"\u0120Set","9023":"\u0120tracking","9024":"door","9025":"ntil","9026":"\u0120Sometimes","9027":"61","9028":"only","9029":"shire","9030":"\u0120hung","9031":"\u0120Sus","9032":"\u0120reliable","9033":"\u0120tie","9034":"\u0120proposals","9035":"\u0120skept","9036":"\u0120Hell","9037":"\u0120replied","9038":"\u0120Ros","9039":"fund","9040":"uh","9041":"\u0120criticized","9042":"\u0120appearances","9043":"rimin","9044":"\u0120Ha","9045":"ecutive","9046":"ela","9047":"\u0120racism","9048":"\u0120insisted","9049":"organ","9050":"\u0120introduction","9051":"\u01202020","9052":"\u0120appointed","9053":"dney","9054":"\u0120Bureau","9055":"olph","9056":"agic","9057":"\u0120Pass","9058":"cut","9059":"Ke","9060":"\u0120Line","9061":"\u0120beauty","9062":"\u0120concrete","9063":"\u0120receiver","9064":"\u0120supplies","9065":"\u0120performing","9066":"made","9067":"ji","9068":"\u0120bub","9069":"\u0120exch","9070":"rite","9071":"\u0120visiting","9072":"\u0120Technology","9073":"\u0120Denver","9074":"ocument","9075":"EE","9076":"omes","9077":"\u0120Capt","9078":"theless","9079":"RL","9080":"\u0120letting","9081":"AND","9082":"\u0120deficit","9083":"\u0120classified","9084":"\u0120Galaxy","9085":"\u0120auto","9086":"HT","9087":"\u0120render","9088":"\u0120absor","9089":"\u0120Orig","9090":"\u0120swim","9091":"\u0120accomplish","9092":"\u0120programme","9093":"\u0120presidency","9094":"crib","9095":"\u0120blocked","9096":"\u0120Sweden","9097":"archy","9098":"\u0120dust","9099":"\u0120Utah","9100":"\u0120drove","9101":"\u0120landscape","9102":"\u0120cance","9103":"\u0120Portland","9104":"plus","9105":"\u0120dismissed","9106":"\u0120LA","9107":"\u0120hyper","9108":"\u0120abroad","9109":"\u0120bonus","9110":"\u0120Jam","9111":"\u0120Tour","9112":"har","9113":"\u0120sequence","9114":"\u0120predicted","9115":"\u0120senator","9116":"\u00c2\u00b0","9117":"\u0120Age","9118":"\u0120domain","9119":"\u0120Code","9120":"\u0120ec","9121":"\u0120museum","9122":"\u0120warn","9123":"\u0120Associated","9124":"acco","9125":"\u0120persons","9126":"NS","9127":"\u0120dub","9128":"iano","9129":"aga","9130":"\u0120requested","9131":"\u0120trigger","9132":"\u0120Ontario","9133":"\u0120hockey","9134":"\u0120Corpor","9135":"\u0120artific","9136":"\u0120dates","9137":"\u0120testimony","9138":"\u0120centers","9139":"\u00d0\u00bb","9140":"\u0120rocket","9141":"irts","9142":"\u0120ves","9143":"\u0120transit","9144":"\u0120congressional","9145":"\u0120entitled","9146":"ultane","9147":"\u0120spokeswoman","9148":"\u0120Front","9149":"\u0120Nintendo","9150":"\u0120Alexander","9151":"\u0120rescue","9152":"\u0120Cooper","9153":"mony","9154":"\u0120assign","9155":"\u0120Bon","9156":"\u0120equality","9157":"\u0120patch","9158":"\u0120urged","9159":"\u0120bread","9160":"\u0120Olympic","9161":"\u0120documentary","9162":"\u0120veterans","9163":"\u0120clar","9164":"fol","9165":"93","9166":"ais","9167":"king","9168":"\u0120\u00e2\u0122\u013f","9169":"pton","9170":"\u0120recall","9171":"\u0120populations","9172":"94","9173":"\u0120Low","9174":"\u0120breath","9175":"Still","9176":"92","9177":"rooms","9178":"\u0120whenever","9179":"\u0120violation","9180":"\u0120tactics","9181":"\u0120wider","9182":"71","9183":"ounding","9184":"\u0120Kar","9185":"\u0120targeting","9186":"Yet","9187":"through","9188":"\u0120pursue","9189":"\u0120salt","9190":"\">","9191":"Are","9192":"izabeth","9193":"\u0120firing","9194":"don","9195":"\u0120Mill","9196":"\u0120acid","9197":"\u0120mole","9198":"inating","9199":"\u0120restaurants","9200":"\u0120compare","9201":"73","9202":"fare","9203":"Comp","9204":"orous","9205":"ennis","9206":"\u0120wedd","9207":"\u0120employed","9208":"\u0120Roberts","9209":"\u0120contrad","9210":"\u0120Bible","9211":"\u0120politically","9212":"\u0120phrase","9213":"\u0120satellite","9214":"\u0120Cro","9215":"\u0120survival","9216":"\u0120retirement","9217":"\u0120banking","9218":"\u0120Form","9219":"\u0120brilliant","9220":"isons","9221":"\u0120Girl","9222":"atar","9223":"\u0120channels","9224":"\u0120servers","9225":"\u0120Beijing","9226":"\u0120soccer","9227":"trans","9228":"aver","9229":"\u0120Mach","9230":"they","9231":"\u0120introduce","9232":"\u0120Justin","9233":"\u0120experiments","9234":"enez","9235":"\u0120prisoners","9236":"rapped","9237":"\u0120cig","9238":"\u0120WH","9239":"afe","9240":"jud","9241":"\u0120fighter","9242":"600","9243":"\u0120scientist","9244":"OK","9245":"\u0120YOU","9246":"usalem","9247":"\u0120List","9248":"\u0120submit","9249":"\u0120approached","9250":"\u0120Award","9251":"\u0120monthly","9252":"\u0120Liverpool","9253":"\u0120designs","9254":"\u0120representatives","9255":"\u0120titled","9256":"ordinary","9257":"\u0120quote","9258":"\u0120popularity","9259":"olves","9260":"\u0120abilities","9261":"oenix","9262":"\u0120cul","9263":"\u0120PD","9264":"\u0120membership","9265":"\u0120investigations","9266":"\u0120focusing","9267":"mans","9268":"\u0120hosp","9269":"\u0120bab","9270":"\u0120Bridge","9271":"Though","9272":"\u0120Maryland","9273":"\u0120saving","9274":"pa","9275":"\u0120rush","9276":"\u0120Governor","9277":"\u0120shadow","9278":"ouri","9279":"bow","9280":"\u0120Hur","9281":"\u0120Base","9282":"\u0120objective","9283":"berry","9284":"\u0120Ted","9285":"emed","9286":"erts","9287":"ederation","9288":"\u0120mit","9289":"\u0120prepar","9290":"\u0120tips","9291":"\u0120Was","9292":"\u0120pipeline","9293":"David","9294":"\u0120childhood","9295":"ika","9296":"\u0120ratings","9297":"\u0120thorough","9298":"\u0120entreprene","9299":"enter","9300":"\u0120Vill","9301":"\u0120Dutch","9302":"was","9303":"break","9304":"\u0120actively","9305":"\u0120Harvard","9306":"\u0120pig","9307":"\u0120Som","9308":"\u0120demanding","9309":"\u0120loose","9310":"asty","9311":"\u0120Bra","9312":"\u0120unexpected","9313":"CO","9314":"\u0120smoking","9315":"\u0120smell","9316":"\u0120deny","9317":"\u0120universal","9318":"\u0120forecast","9319":"\u0120argues","9320":"\u0120phenomenon","9321":"\u0120overseas","9322":"mers","9323":"olds","9324":"\u0120settled","9325":"walk","9326":"\u0120Beck","9327":"\u0120generations","9328":"\u0120weekly","9329":"\u0120chicken","9330":"\u0120preparing","9331":"\u012095","9332":"\u0120smartphone","9333":"\u0120producers","9334":"\u0120butt","9335":"\u0120PA","9336":"\u0120legislative","9337":"\u0120anxiety","9338":"\u0120disturb","9339":"\u0120Have","9340":"\u0120innocent","9341":"minute","9342":"\u0120Click","9343":"\u0120mortg","9344":"\u0120celebrate","9345":"Dem","9346":"\u0120Ur","9347":"iki","9348":"\u0120provision","9349":"\u0120DO","9350":"\u0120keys","9351":"ded","9352":"\u0120shame","9353":"\u0120arguing","9354":"\u0120Design","9355":"held","9356":"\u0120questioned","9357":"\u0120forcing","9358":"\u0120Cow","9359":"\u0120Hop","9360":"ompson","9361":"agh","9362":"\u00e2\u0136","9363":"\u0120broader","9364":"\u0120encounter","9365":"SL","9366":"\u0120flags","9367":"\u0120fool","9368":"\u0120mac","9369":"\u012053","9370":"\u0120deadly","9371":"\u0120fur","9372":"84","9373":"\u0120reverse","9374":"oz","9375":"\u0120weigh","9376":"\u0120Edward","9377":"\u0120Among","9378":"\u0120tens","9379":"\u0120~","9380":"\u0120mos","9381":"\u0120wealthy","9382":"\u0120Obamacare","9383":"\u0120unpre","9384":"\u0120maintained","9385":"\u0120surely","9386":"\u0120shield","9387":"\u0120Prop","9388":"ocolate","9389":"oret","9390":"\u0120secondary","9391":"isa","9392":"aved","9393":"Sim","9394":"\u0120savings","9395":"irlf","9396":"\u0120roof","9397":"\u0120stability","9398":"\u0120civilian","9399":"\u0120tab","9400":"elson","9401":"\u00c4\u0125","9402":"\u0120Carter","9403":"\u0120reveals","9404":"mind","9405":"\u0120mini","9406":"\u0120alarm","9407":"\u0120anniversary","9408":"\u0120sorts","9409":"ois","9410":"\u0120Ak","9411":"vernment","9412":"El","9413":"\u0120tonight","9414":"\u0120releases","9415":"\u0120Hon","9416":"\u0120rooms","9417":"irlfriend","9418":"isk","9419":"\u0120Gulf","9420":"\u0120outrage","9421":"\u0120prosecutors","9422":"\u0120Left","9423":"\u0120disorder","9424":"inals","9425":"\u0120exha","9426":"orious","9427":"\u0120shr","9428":"\u0120relax","9429":"\u0120windows","9430":"\u0120threatening","9431":"\u0120differently","9432":"\u0120harassment","9433":"\u0120quoted","9434":"\u0120healthcare","9435":"\u0120submitted","9436":"\u0120arbit","9437":"\u0120lunch","9438":"step","9439":"itter","9440":"\u0120Run","9441":"\u0120reforms","9442":"\u0120torture","9443":"rection","9444":"\u0120fate","9445":"\u0120stored","9446":"\u0120okay","9447":"\u0120Belg","9448":"\u0120propaganda","9449":"\u0120spots","9450":"\u0120instructions","9451":"\u0120Vietnam","9452":"\u0120sevent","9453":"\u0120rounds","9454":"\u0120odds","9455":"\u01201992","9456":"aa","9457":"\u0120aer","9458":"html","9459":"tenance","9460":"\u0120errors","9461":"ested","9462":"\u0120Oklahoma","9463":"\u0120hydro","9464":"icism","9465":"GA","9466":"\u0120delic","9467":"ailed","9468":"\u0120Liberal","9469":"\u0120silence","9470":"\u0120Graham","9471":"acts","9472":"\u0120Warren","9473":"\u0120graduate","9474":"\u0120Sab","9475":"\u0120affordable","9476":"\u0120circle","9477":"sect","9478":"\u0120Bloom","9479":"\u0120cooperation","9480":"\u0120picks","9481":"\u0120sear","9482":"itary","9483":"\u0120Sarah","9484":"\u0120Fall","9485":"orship","9486":"\u0120Expl","9487":"\u0120striking","9488":"\u0120puzz","9489":"\u0120persu","9490":"\u0120streaming","9491":"\u0120comprehensive","9492":"race","9493":"\u0120importantly","9494":"\u0120cow","9495":"\u0120possess","9496":"Watch","9497":"\u0120fing","9498":"\u0120execution","9499":"\u0120Ruby","9500":"lined","9501":"rows","9502":"\u0120intim","9503":"\u0120struggled","9504":"\u0120Person","9505":"\u0120assass","9506":"\u0120Silver","9507":"\u0120Leader","9508":"uten","9509":"ahu","9510":"\u0120gent","9511":"Ty","9512":"\u0120Price","9513":"Reuters","9514":"ishop","9515":"\u0120deserve","9516":"\u0120Jerusalem","9517":"\u0120landing","9518":"\u0120calm","9519":"\u0120alter","9520":"\u0120ceremony","9521":"\u0120assumed","9522":"\u0120demonstrate","9523":"\u0120difficulty","9524":"83","9525":"\u0120ages","9526":"\u0120pron","9527":"\u0120dying","9528":"\u0120hal","9529":"\u0120distingu","9530":"asury","9531":"\u0120stepped","9532":"ethe","9533":"\u0120borders","9534":"\u0120chest","9535":"\u0120Wolf","9536":"\u0120Lt","9537":"\u0120adventure","9538":"\u0120pointing","9539":"ova","9540":"\u0120waves","9541":"\u0120kilomet","9542":"essee","9543":"ierce","9544":"\u0120Netflix","9545":"atern","9546":"\u0120autonom","9547":"eals","9548":"\u0120precisely","9549":"\u0120architecture","9550":"\u0120greatly","9551":"\u0120Deb","9552":"\u0120promising","9553":"\u0120consent","9554":"bury","9555":"\u0120consideration","9556":"\u0120Ten","9557":"\u0120drives","9558":"\u0120dialogue","9559":"\u0120Main","9560":"\u0120tremend","9561":"\u0120Bud","9562":"asant","9563":"\u0120newsletter","9564":"\u0120rookie","9565":"\u0120awarded","9566":"\u0120Meanwhile","9567":"after","9568":"\u0120repeat","9569":"\u0120Story","9570":"\u0120contribution","9571":"\u0120Tele","9572":"\u0120burning","9573":"iev","9574":"party","9575":"\u0120simultane","9576":"\u0120Scottish","9577":"\u0120Vice","9578":"\u0120donations","9579":"\u0120Indust","9580":"akh","9581":"\u0120interf","9582":"itol","9583":"\u0120Magic","9584":"\u0120voices","9585":"\u0120analyst","9586":"\u0120Bruce","9587":"\u0120Tech","9588":"ceptions","9589":"\u0120gif","9590":"\u0120frequency","9591":"\u0120Common","9592":"\u0120procedure","9593":"\u0120wanting","9594":"\u0120Pres","9595":"\u0120executives","9596":"\u0120playoffs","9597":"lee","9598":"oice","9599":"\u0120staying","9600":"apolis","9601":"\u0120birds","9602":"\u0120bias","9603":"VD","9604":"\u0120Hong","9605":"\u0120Az","9606":"izer","9607":"\u0120inches","9608":"\u0120trillion","9609":"omy","9610":"holders","9611":"\u0120highlights","9612":"\u0120semi","9613":"\u0120remarkable","9614":"\u0120whereas","9615":"EX","9616":"ributes","9617":"\u0120Palestinians","9618":"\u0120knee","9619":"open","9620":"\u0120Jonathan","9621":"\u0120ans","9622":"raig","9623":"\u0120implications","9624":"scribe","9625":"\u0120formation","9626":"\u0120superior","9627":"\u0120strategies","9628":"itual","9629":"\u0120Berlin","9630":"Step","9631":"\u0120Link","9632":"stal","9633":"div","9634":"\u0120Sydney","9635":"\u0120MORE","9636":"\u0120categories","9637":"\u0120Ark","9638":"\u0120fet","9639":"\u0120followers","9640":"\u0120cream","9641":"Story","9642":"portation","9643":"FO","9644":"\u0120contacted","9645":"Ms","9646":"\u0120judgment","9647":"annon","9648":"\u0120smile","9649":"\u0120info","9650":"\u0120emerging","9651":"igious","9652":"rif","9653":"js","9654":"onder","9655":"omed","9656":"yes","9657":"bered","9658":"vision","9659":"\u0120Eff","9660":"vertisements","9661":"iffs","9662":"hatt","9663":"\u0120accessible","9664":"\u0120crimin","9665":"TP","9666":"\u0120physically","9667":"\u0120assigned","9668":"\u012054","9669":"\u0120Andre","9670":"\u0120guidelines","9671":"\u0120defeated","9672":"\u0120wounded","9673":"\u0120trials","9674":"\u0120stem","9675":"\u0120managing","9676":"\u0120spell","9677":"\u0120ministry","9678":"\u0120grade","9679":"\u0120coinc","9680":"\u0120riding","9681":"\u0120indicates","9682":"\u0120centuries","9683":"Christ","9684":"cest","9685":"\u0120Affairs","9686":"\u0120opens","9687":"aki","9688":"\u0120pharm","9689":"lla","9690":"->","9691":"\u0120meaningful","9692":"\u0120tiss","9693":"erent","9694":"\u0120Mrs","9695":"\u0120ease","9696":"child","9697":"\u0120margin","9698":"\u0120Store","9699":"\u0120clothing","9700":"\u0120\u00e2\u012a\u0134","9701":"\u0120Tes","9702":"\u0120Six","9703":"\u0120Capital","9704":"\u0120participation","9705":"cedented","9706":"Mus","9707":"\u0120revers","9708":"aria","9709":"\u0120poison","9710":"\u0120Brexit","9711":"\u0120120","9712":"\u0120Yemen","9713":"\u0120lapt","9714":"\u0120competing","9715":"\u0120memories","9716":"\u0120CS","9717":"\u0120theories","9718":"\u0120recipe","9719":"\u0120gross","9720":"umble","9721":"author","9722":"hard","9723":"91","9724":"\u0120passage","9725":"sl","9726":"\u0120aged","9727":"\u0120Credit","9728":"\u0120bin","9729":"\u0120drone","9730":"\u0120blank","9731":"\u0120dispute","9732":"\u0120damaged","9733":"\u01201993","9734":"van","9735":"\u0120Hamilton","9736":"base","9737":"\u0120substance","9738":"\u0120hosted","9739":"TER","9740":"Google","9741":"\u0120Chelsea","9742":"\u0120Lam","9743":"\u0120promoting","9744":"\u0120facilit","9745":"\u0120openly","9746":"\u0120Instagram","9747":"\u01201950","9748":"\u0120Vik","9749":"View","9750":"\u0120Children","9751":"\u0120Crime","9752":"\u0120clinical","9753":"Out","9754":"\u0120nic","9755":"eremy","9756":"\u0120Hold","9757":"bits","9758":"\u0120investments","9759":"\u0120consensus","9760":"even","9761":"igate","9762":"\u0120Leon","9763":"ses","9764":"\u0120Fal","9765":"\u0120educational","9766":"ito","9767":"const","9768":"\u0120dish","9769":"\u0120manifest","9770":"\u0120custody","9771":"week","9772":"82","9773":"\u0120eligible","9774":"\u0120Hawai","9775":"\u0120legally","9776":"\u0120missions","9777":"\u0120endorse","9778":"\u0120gate","9779":"eria","9780":"\u0120memo","9781":"\u0120GT","9782":"\u0120tables","9783":"\u0120Pict","9784":"\u0120nin","9785":"\u0120studying","9786":"Hz","9787":"\u0120?","9788":"\u0120charity","9789":"aration","9790":"adi","9791":"\u0120addresses","9792":"\u0120inspect","9793":"\u0120discount","9794":"rix","9795":"left","9796":"\u0120battles","9797":"ALL","9798":"\u0120Der","9799":"\u0120250","9800":"\u0120Assembly","9801":"\u0120athletes","9802":"Pre","9803":"\u0120Trade","9804":"\u0120fossil","9805":"\u0120enthusi","9806":"\u0120Management","9807":"iac","9808":"\u0120suspects","9809":"\u0120tired","9810":"\u0120helic","9811":"Act","9812":"\u0120counterpart","9813":"\u0120na","9814":"achel","9815":"\u0120dating","9816":"\u0120Eth","9817":"\u0120spectrum","9818":"\u0120Metro","9819":"ateral","9820":"\u0120Station","9821":"\u0120Bal","9822":"\u0120presentation","9823":"\u0120lux","9824":"gered","9825":"arts","9826":"\u0120bottle","9827":"\u0120tap","9828":"riors","9829":"\u0120vig","9830":"\u0120fundra","9831":"\u0120enhance","9832":"assy","9833":"\u0120Sean","9834":"\u0120therapy","9835":"\u0120Wales","9836":"\u0120Exper","9837":"\u0120perceived","9838":"market","9839":"\u0120Tok","9840":"\u0120dominant","9841":"Def","9842":"math","9843":"\u0120backing","9844":"\u0120Festival","9845":"\u0120underlying","9846":"\u0120defending","9847":"\u0120Through","9848":"\u0120racing","9849":"\u0120discussing","9850":"\u0120burden","9851":"\u0120expanding","9852":"\u0120muscle","9853":"\u0120stops","9854":"uz","9855":"\u0120beings","9856":"\u0120Marx","9857":"\u0120Equ","9858":"\u0120transaction","9859":"\u0120Uber","9860":"\u012099","9861":"Cal","9862":"\u0120recruit","9863":"itudes","9864":"acher","9865":"\u0120Gary","9866":"\u0120mood","9867":"\u0120picking","9868":"81","9869":"lando","9870":"ylum","9871":"player","9872":"\u0120managers","9873":"orable","9874":"\u0120gathering","9875":"\u0120hopefully","9876":"angle","9877":"\u0120Son","9878":"alysis","9879":"\u0120Video","9880":"section","9881":"\u0120crus","9882":"\u0120Libya","9883":"\u0120impression","9884":"\u0120hip","9885":"olar","9886":"\u00c3\u00a2","9887":"\u0120scrut","9888":"\u0120roy","9889":"\u0120Tai","9890":"igenous","9891":"\u0120institution","9892":"\u0120Batman","9893":"}}","9894":"\u0120stere","9895":"\u0120procedures","9896":"\u00c3\u00b1","9897":"\u0120pocket","9898":"\u0120creatures","9899":"\u0120Boe","9900":"\u0120compat","9901":"\u0120arrival","9902":"ptions","9903":"sa","9904":"watch","9905":"\u0120eager","9906":"\u0120pollution","9907":"iture","9908":"\u0120kitchen","9909":"\u0120foods","9910":"ocial","9911":"\u0120recre","9912":"\u0120surviv","9913":"roph","9914":"\u0120organic","9915":"\u0120Pentagon","9916":"\u0120Morgan","9917":"\u0120shipping","9918":"\u0120capitalism","9919":"\u0120insult","9920":"\u0120timing","9921":"sub","9922":"odox","9923":"\u0120requirement","9924":"\u0120unfair","9925":"aders","9926":"\u012056","9927":"\u0120mice","9928":"\u0120Assad","9929":"Rem","9930":"\u0120Represent","9931":"\u0120Mess","9932":"\u0120MLS","9933":"bing","9934":"atively","9935":"\u0120Elizabeth","9936":"\u0120Op","9937":"\u0120diseases","9938":"Mod","9939":"\u0120industries","9940":"\u0120Oakland","9941":"dy","9942":"\u0120bowl","9943":"oln","9944":"\u0120Murray","9945":"\u0120Creat","9946":"\u0120sed","9947":"\u0120helicop","9948":"\u0120divor","9949":"agger","9950":"\u0120beach","9951":"\u0120punishment","9952":"abet","9953":"\u0120shell","9954":"***","9955":"\u0120fled","9956":"\u0120hospitals","9957":"missions","9958":"\u0120tons","9959":"AF","9960":"\u0120Kick","9961":"\u0120seed","9962":"ogy","9963":"\u0120Comey","9964":"opyright","9965":"\u0120statist","9966":"\u0120engineers","9967":"\u0120obsc","9968":"\u0120hire","9969":"SC","9970":"\u0120module","9971":"AY","9972":"amous","9973":"\u0120coaching","9974":"oca","9975":"\u0120answered","9976":"rac","9977":"Reg","9978":"TR","9979":"\u0120graphics","9980":"\u0120regulatory","9981":"\u0120sovere","9982":"\u0120stance","9983":"alties","9984":"\u0120bow","9985":"\u0120Keep","9986":"Click","9987":"\u0120explaining","9988":"\u0120rhetoric","9989":"\u0120beating","9990":"\u0120Friend","9991":"\u0120tut","9992":"\u0120Email","9993":"rior","9994":"\u0120Yeah","9995":"emic","9996":"\u0120acknowledge","9997":"\u0120Michel","9998":"\u0120principal","9999":"\u0120Mit","10000":"\u0120pulling","10001":"erves","10002":"\u0120signature","10003":"brid","10004":"olving","10005":"\u0120convince","10006":"\u0120Roll","10007":"\u0120variable","10008":"cosystem","10009":"\u0120pill","10010":"\u0120searching","10011":"\u0120Ox","10012":"\u0120dies","10013":"\u0120overcome","10014":"\u0120preferred","10015":"duction","10016":"\u0120sixth","10017":"\u0120adviser","10018":"\u0120Tennessee","10019":"\u0120trends","10020":"\u0120!","10021":"\u0120Russell","10022":"\u0120(\"","10023":"\u0120Thompson","10024":"Ge","10025":"\u0120merch","10026":"\u0120rebels","10027":"\u0120interaction","10028":"\u0120periods","10029":"\u0120Yan","10030":"\u0120psychological","10031":"Mich","10032":"\u0120Sure","10033":"\u0120Using","10034":"\u0120economics","10035":"\u0120Charlie","10036":"\u0120Bi","10037":"\u0120outlets","10038":"\u0120Gil","10039":"\u0120Intel","10040":"\u0120signals","10041":"pg","10042":"\u0120echo","10043":"\u0120Executive","10044":"\u0120Kentucky","10045":"\u0120tempor","10046":"\u0120billions","10047":"\u0120lineup","10048":"\u0120math","10049":"2013","10050":"\u01201991","10051":"\u0120setup","10052":"\u0120rend","10053":"Finally","10054":"netic","10055":"mic","10056":"\u0120eggs","10057":"\u0120segment","10058":"\u0120arr","10059":"\u0120badly","10060":"kee","10061":"\u0120Li","10062":"ui","10063":"\u0120sentenced","10064":"\u0120everyday","10065":"\u0120Dragon","10066":"\u0120commander","10067":"\u0120Holl","10068":"\u0120AN","10069":"\u0120loves","10070":"unicipal","10071":"ds","10072":"\u0120genes","10073":"NBC","10074":"\u0120bold","10075":"\u0120requiring","10076":"\u0120bullet","10077":"\u0120invasion","10078":"will","10079":"Comm","10080":"\u0120partly","10081":"\u0120escal","10082":"\u0120instant","10083":"\u0120gig","10084":"\u0120Jean","10085":"check","10086":"\u0120arts","10087":"\u0120gene","10088":"\u0120removal","10089":"\u0120undert","10090":"\u0120upload","10091":"liest","10092":"\u0120Hart","10093":"\u0120topics","10094":"\u0120Iron","10095":"enezuel","10096":"\u0120inquiry","10097":"\u0120amendment","10098":"\u0120weakness","10099":"\u0120Rather","10100":"news","10101":"\u0120concepts","10102":"\u0120Ze","10103":"\u0120McK","10104":"has","10105":"PL","10106":"\u0120shoes","10107":"arted","10108":"\u0120Sound","10109":"\u0120fabric","10110":"izza","10111":"grade","10112":"\u0120Delhi","10113":"Earlier","10114":"tsburgh","10115":"\u0120frequent","10116":"\u0120sections","10117":"\u0120occurs","10118":"oli","10119":"\u0120migrants","10120":"\u0120compensation","10121":"\u0120engineer","10122":"eness","10123":"\u0120lad","10124":"\u0120Finally","10125":"\u0120fo","10126":"\u0120attractive","10127":"\u0120Box","10128":"\u0120unve","10129":"instein","10130":"\u0120).","10131":"\u0120citing","10132":"\u0120tweets","10133":"\u0120utility","10134":"arency","10135":"cor","10136":"\u0120posting","10137":"\u0120ridiculous","10138":"\u0120blockchain","10139":"\u0120cler","10140":"\u0120Clark","10141":"\u0120speaker","10142":"\u00e2\u0136\u0122","10143":"\u0120diam","10144":"\u00d8\u00a7","10145":"\u0120corrupt","10146":"\u0120talented","10147":"\u0120lect","10148":"\u0120collaps","10149":"\u0120mask","10150":"\u00e2\u0122\u0132","10151":"necess","10152":"screen","10153":"\u0120notable","10154":"\u0120Therefore","10155":"\u0120elder","10156":"\u0120genre","10157":"\u0120deadline","10158":"\u0120rolling","10159":"\u0120carries","10160":"\u0120BM","10161":"gus","10162":"Top","10163":"\u0120Final","10164":"via","10165":"\u0120ET","10166":"ental","10167":"\u0120approaches","10168":"\u0120eliminate","10169":"\u0120Priv","10170":"\u0120analysts","10171":"\u0120sits","10172":"\u0120cens","10173":"State","10174":"\u0120instances","10175":"\u0120Simon","10176":"\u0120publishing","10177":"\u0120unprecedented","10178":"\u0120colour","10179":"\u0120Ve","10180":"\u0120roots","10181":"\u0120Phoenix","10182":"VP","10183":"\u0120cock","10184":"\u0120bene","10185":"\u0120Psych","10186":"\u0120toxic","10187":"\u0120collaboration","10188":"\u0120arc","10189":"\u0120inequality","10190":"\u0120neighbors","10191":"\u0120insight","10192":"\u0120dramatically","10193":"\u0120Harper","10194":"\u0120homosexual","10195":"\u0120prize","10196":"\u0120towns","10197":"\u0120extraordinary","10198":"\u0120perception","10199":"\u0120Gordon","10200":"\u0120Whether","10201":"\u0120Phill","10202":"\u0120parad","10203":"arget","10204":"\u0120gest","10205":"\u0120maintenance","10206":"owski","10207":"rowing","10208":"\u0120Gro","10209":"\u0120GO","10210":"\u0120cheaper","10211":"isdom","10212":"\u0120associate","10213":"\u0120coup","10214":"Mark","10215":"\u0120Event","10216":"\u0120sheet","10217":"\u0120Bow","10218":"\u0120Below","10219":"\u0120Sav","10220":"\u0120Captain","10221":"pack","10222":"\u0120cognitive","10223":"\u0120encouraging","10224":"\u0120dreams","10225":"\u0120Pers","10226":"\u0120seized","10227":"\u0120interviewed","10228":"\u0120deployed","10229":"\u0120violations","10230":"\u0120camps","10231":"\u0120comics","10232":"\u0120constitu","10233":"\u0120Reagan","10234":"\u0120reserved","10235":"\u0120buck","10236":"\u0120employers","10237":"\u0120aims","10238":"atus","10239":"\u0120functional","10240":"\u0120mystery","10241":"\u0120displayed","10242":"Paul","10243":"iban","10244":"\u0120span","10245":"\u0120loop","10246":"\u0120delight","10247":"apore","10248":"cre","10249":"AB","10250":"\u0120traged","10251":"\u0120Economic","10252":"ixture","10253":"\u0120Sa","10254":"\u012057","10255":"ricane","10256":"\u0120glad","10257":"\u0120occasionally","10258":"\u0120vend","10259":"\u0120export","10260":"TON","10261":"\u0120birthday","10262":"\u0120heroes","10263":"\u0120fatal","10264":"estyle","10265":"oga","10266":"\u0120correctly","10267":"\u0120Stew","10268":"\u0120prompted","10269":"wa","10270":"\u0120stamp","10271":"\u0120Cole","10272":"elle","10273":"\u0120contemporary","10274":"\u0120Access","10275":"\u0120Jenn","10276":"\u0120prospects","10277":"oting","10278":"endar","10279":"\u0120irre","10280":"vi","10281":"\u0120recommendations","10282":"mir","10283":"\u0120diplomatic","10284":"throp","10285":"\u0120pa","10286":"ighth","10287":"\u0120bell","10288":"\u0120parallel","10289":"\u0120exclud","10290":"eling","10291":"\u0120constitution","10292":"onz","10293":"\u0120disappointed","10294":"\u0120manufacturers","10295":"\u0120adequ","10296":"\u0120intr","10297":"\u0120Staff","10298":"\u0120moderate","10299":"\u0120Ever","10300":"\u0120Dog","10301":"\u0120ecosystem","10302":"\u0120accompan","10303":"Time","10304":"\u0120demanded","10305":"\u012085","10306":"\u0120GDP","10307":"\u0120Photos","10308":"\u0120nose","10309":"\u0120Montreal","10310":"\u0120Dick","10311":"ailable","10312":"\u0120interpre","10313":"\u0120pleased","10314":"2017","10315":"\u0120labour","10316":"\u0120lifetime","10317":"\u0120Brooklyn","10318":"\u0120Tax","10319":"\u0120Est","10320":"\u0120Reserve","10321":"rock","10322":"\u0120communicate","10323":"\u0120fights","10324":"\u0120modified","10325":"\u0120drunk","10326":"\u0120Ocean","10327":"\u0120sessions","10328":"\u0120wedding","10329":"\u0120knock","10330":"\u0120explosion","10331":"\u0120Library","10332":"\u0120biological","10333":"\u0120landed","10334":"\u0120repair","10335":"\u0120EPA","10336":"\u012058","10337":"\u0120Authority","10338":"\u0120subsc","10339":"\u0120representation","10340":"\u0120Given","10341":"\u0120Bol","10342":"\u0120artificial","10343":"250","10344":"leans","10345":"fit","10346":"Fi","10347":"\u0120relation","10348":"\u0120owns","10349":"\u0120Khan","10350":"ixon","10351":"\u0120Antonio","10352":"\u0120Digital","10353":"\u0120lift","10354":"agen","10355":"\u0120designer","10356":"rot","10357":"\u0120recon","10358":"Thanks","10359":"\u0120emp","10360":"\u0120consciousness","10361":"\u0120kicked","10362":"\u0120Order","10363":"\u0120defender","10364":"\u0120hanging","10365":"\u0120lessons","10366":"hist","10367":"\u0120imposed","10368":"\u0120guests","10369":"\u0120adopt","10370":"\u0120anonymous","10371":"150","10372":"\u0120sli","10373":"\u0120concerning","10374":"wind","10375":"\u0120pregnant","10376":"\u0120Five","10377":"incoln","10378":"\u0120Bul","10379":"\u0120underground","10380":"acre","10381":"\u0120maintaining","10382":"\u0120asset","10383":"\u0120Alan","10384":"\u0120punch","10385":"\u0120Rome","10386":"ols","10387":"bourne","10388":"\u0120shirt","10389":"\u0120ingredients","10390":"Update","10391":"\u0120cheese","10392":"wed","10393":"\u0120intellig","10394":"isition","10395":"\u0120Channel","10396":"\u0120Convention","10397":"\u0120podcast","10398":"\u0120interior","10399":"graph","10400":"\":\"","10401":"\u0120emotions","10402":"ching","10403":"human","10404":"\u0120abstract","10405":"\u0120Argent","10406":"\u0120couples","10407":"\u0120lesson","10408":"\u0120creature","10409":"\u0120resolve","10410":"\u0120shocked","10411":"\u0120oppose","10412":"Whe","10413":"\u0120summit","10414":"\u0120performances","10415":"\u0120SU","10416":"\u0120volunteers","10417":"\u0120Burn","10418":"Dis","10419":"\u0120soldier","10420":"\u00d1\u0125","10421":"some","10422":"\u0120stimul","10423":"\u0120logo","10424":"\u00e0\u00a4","10425":"appropri","10426":"istant","10427":"\u0120terr","10428":"\u0120vocal","10429":"\u0120accum","10430":"\u0120girlfriend","10431":"\u0120Protection","10432":"ben","10433":"\u0120Dur","10434":"ulty","10435":"SE","10436":"\u0120jumped","10437":"\u0120annoy","10438":"\u0120Page","10439":"\u0120jihad","10440":"\u0120mile","10441":"\u0120nurs","10442":"\u0120Lear","10443":"user","10444":"\u0120militants","10445":"acles","10446":"\u0120guid","10447":"\u0120Fant","10448":"\u0120Missouri","10449":"\u0120professionals","10450":"Gener","10451":"(\"","10452":"\u0120Anna","10453":"ikh","10454":"Instead","10455":"\u0120butter","10456":"ials","10457":"\u0120swit","10458":"\u0120refers","10459":"\u0120desktop","10460":"dr","10461":"\u0120traveling","10462":"\u0120libr","10463":"gets","10464":"\u0120isolated","10465":"\u0120forum","10466":"\u0120advocate","10467":"\u0120existed","10468":"\u0120Lim","10469":"\u0120opposing","10470":"\u0120Coal","10471":"gate","10472":"\u0120recalled","10473":"\u00e2\u0122\u00a6.","10474":"Next","10475":"Station","10476":"\u0120Case","10477":"\u0120Han","10478":"Israel","10479":"\u0120600","10480":"\u0120integration","10481":"\u0120describing","10482":"\u0120boxes","10483":"\u0120JavaScript","10484":"\u0120Orleans","10485":"early","10486":"\u0120stro","10487":"CD","10488":"\u0120Mail","10489":"\u0120minimal","10490":"\u0120Hal","10491":"tainment","10492":"\u0120confused","10493":"\u0120Custom","10494":"\u0120SD","10495":"umph","10496":"\u0120peaceful","10497":"\u0120inherent","10498":"abe","10499":"odge","10500":"cal","10501":"\u0120surrounded","10502":"\u0120vert","10503":"owned","10504":"\u0120Capitol","10505":"hattan","10506":"\u0120Hand","10507":"commun","10508":"\u0120holes","10509":"\u0120meal","10510":"\u01201989","10511":"\u0120integrity","10512":"\u0120Know","10513":"\u0120Player","10514":"\u0120pm","10515":"\u0120Barb","10516":"\u0120inspiration","10517":"\u0120configuration","10518":"\u0120Rs","10519":"\u0120sne","10520":"\u0120Trust","10521":"\u0120Ban",
[...]
