{"0":"\u0100","1":"\u0101","2":"\u0102","3":"\u0103","4":"\u0104","5":"\u0105","6":"\u0106","7":"\u0107","8":"\u0108","9":"\u0109","10":"\u010a","11":"\u010b","12":"\u010c","13":"\u010d","14":"\u010e","15":"\u010f","16":"\u0110","17":"\u0111","18":"\u0112","19":"\u0113","20":"\u0114","21":"\u0115","22":"\u0116","23":"\u0117","24":"\u0118","25":"\u0119","26":"\u011a","27":"\u011b","28":"\u011c","29":"\u011d","30":"\u011e","31":"\u011f","32":"\u0120","33":"!","34":"\"","35":"#","36":"$","37":"%","38":"&","39":"'","40":"(","41":")","42":"*","43":"+","44":",","45":"-","46":".","47":"/","48":"0","49":"1","50":"2","51":"3","52":"4","53":"5","54":"6","55":"7","56":"8","57":"9","58":":","59":";","60":"<","61":"=","62":">","63":"?","64":"@","65":"A","66":"B","67":"C","68":"D","69":"E","70":"F","71":"G","72":"H","73":"I","74":"J","75":"K","76":"L","77":"M","78":"N","79":"O","80":"P","81":"Q","82":"R","83":"S","84":"T","85":"U","86":"V","87":"W","88":"X","89":"Y","90":"Z","91":"[","92":"\\","93":"]","94":"^","95":"_","96":"`","97":"a","98":"b","99":"c","100":"d","101":"e","102":"f","103":"g","104":"h","105":"i","106":"j","107":"k","108":"l","109":"m","110":"n","111":"o","112":"p","113":"q","114":"r","115":"s","116":"t","117":"u","118":"v","119":"w","120":"x","121":"y","122":"z","123":"{","124":"|","125":"}","126":"~","127":"\u0121","128":"\u0122","129":"\u0123","130":"\u0124","131":"\u0125","132":"\u0126","133":"\u0127","134":"\u0128","135":"\u0129","136":"\u012a","137":"\u012b","138":"\u012c","139":"\u012d","140":"\u012e","141":"\u012f","142":"\u0130","143":"\u0131","144":"\u0132","145":"\u0133","146":"\u0134","147":"\u0135","148":"\u0136","149":"\u0137","150":"\u0138","151":"\u0139","152":"\u013a","153":"\u013b","154":"\u013c","155":"\u013d","156":"\u013e","157":"\u013f","158":"\u0140","159":"\u0141","160":"\u0142","161":"\u00a1","162":"\u00a2","163":"\u00a3","164":"\u00a4","165":"\u00a5","166":"\u00a6","167":"\u00a7","168":"\u00a8","169":"\u00a9","170":"\u00aa","171":"\u00ab","172":"\u00ac","173":"\u0143","174":"\u00ae","175":"\u00af","176":"\u00b0","177":"\u00b1","178":"\u00b2","179":"\u00b3","180":"\u00b4","181":"\u00b5","182":"\u00b6","183":"\u00b7","184":"\u00b8","185":"\u00b9","186":"\u00ba","187":"\u00bb","188":"\u00bc","189":"\u00bd","190":"\u00be","191":"\u00bf","192":"\u00c0","193":"\u00c1","194":"\u00c2","195":"\u00c3","196":"\u00c4","197":"\u00c5","198":"\u00c6","199":"\u00c7","200":"\u00c8","201":"\u00c9","202":"\u00ca","203":"\u00cb","204":"\u00cc","205":"\u00cd","206":"\u00ce","207":"\u00cf","208":"\u00d0","209":"\u00d1","210":"\u00d2","211":"\u00d3","212":"\u00d4","213":"\u00d5","214":"\u00d6","215":"\u00d7","216":"\u00d8","217":"\u00d9","218":"\u00da","219":"\u00db","220":"\u00dc","221":"\u00dd","222":"\u00de","223":"\u00df","224":"\u00e0","225":"\u00e1","226":"\u00e2","227":"\u00e3","228":"\u00e4","229":"\u00e5","230":"\u00e6","231":"\u00e7","232":"\u00e8","233":"\u00e9","234":"\u00ea","235":"\u00eb","236":"\u00ec","237":"\u00ed","238":"\u00ee","239":"\u00ef","240":"\u00f0","241":"\u00f1","242":"\u00f2","243":"\u00f3","244":"\u00f4","245":"\u00f5","246":"\u00f6","247":"\u00f7","248":"\u00f8","249":"\u00f9","250":"\u00fa","251":"\u00fb","252":"\u00fc","253":"\u00fd","254":"\u00fe","255":"\u00ff","256":"<|endoftext|>","257":"\u0120t","258":"he","259":"\u0120a","260":"\u0120s","261":"\u0120w","262":"nd","263":"\u0120the","264":"ed","265":"\u0120b","266":"\u0120to","267":"\u0120and","268":"\u0120h","269":"\u0120f","270":"in","271":"\u0120T","272":"\u0120wa","273":"re","274":"it","275":"ou","276":"\u0120l","277":"\u0120d","278":"\u0120c","279":"\u0120p","280":"ay","281":"\u0120m","282":"er","283":"\u0120was","284":"om","285":"\u0120The","286":"\u0120he","287":"is","288":"ar","289":"\u0120n","290":"im","291":"on","292":"\u0120sa","293":"id","294":"ll","295":"\u0120ha","296":"\u0120g","297":"at","298":"\u0120S","299":"ing","300":"ot","301":"en","302":"an","303":"le","304":"or","305":"ir","306":"am","307":"et","308":"\u0120H","309":"\u0120it","310":"\u0120th","311":"ig","312":"\u0120They","313":"\u0120in","314":"il","315":"\u0120pl","316":"\u0120He","317":"\u0120\"","318":"ow","319":"ver","320":"ri","321":"ut","322":"\u0120be","323":"\u0120u","324":"\u0120said","325":"\u0120play","326":"ith","327":"\u0120day","328":"\u0120with","329":"pp","330":"On","331":"\u0120o","332":"\u0120y","333":"oo","334":"ked","335":"\u0120r","336":"\u0120her","337":"ce","338":"\u0120I","339":"\u0120She","340":"ld","341":"\u0120Tim","342":"\u0120his","343":"\u0120st","344":"ke","345":"\u0120e","346":"\u0120big","347":"nt","348":"ck","349":"\u0120you","350":"very","351":"st","352":"ve","353":"end","354":"\u0120on","355":"un","356":"\u0120happ","357":"riend","358":"\u0120friend","359":"all","360":"ily","361":"\u0120L","362":"\u0120they","363":"\u0120we","364":"\u0120had","365":"\u0120not","366":"\u0120li","367":"\u0120up","368":"her","369":"\u0120want","370":"\u0120of","371":"ad","372":"itt","373":"se","374":"\u0120B","375":"\u0120do","376":"\u0120happy","377":"ent","378":"\u0120very","379":"\u0120M","380":"es","381":"\u0120that","382":"\u0120saw","383":"One","384":"'s","385":"ould","386":"\u0120mom","387":"\u0120for","388":"\u0120sh","389":"ittle","390":"\u0120little","391":"\u0120so","392":"\u0120she","393":"ch","394":"ime","395":"\u0120ne","396":"\u0120nam","397":".\"","398":"\u0120time","399":"\u0120k","400":"ound","401":"\u0120there","402":"\u0120named","403":"\u0120sm","404":"\u0120bo","405":"\u0120were","406":"\u0120Lily","407":"\u0120wanted","408":"\u0120but","409":"out","410":"The","411":"\u0120friends","412":"ved","413":"!\"","414":"ht","415":"\u0120Tom","416":"ird","417":"el","418":"\u0120bird","419":"al","420":"\u0120an","421":"ake","422":"\u0120too","423":"ome","424":"\u0120It","425":"ug","426":"ide","427":"\u0120went","428":"\u0120wh","429":"\u0120hel","430":"Once","431":"\u0120is","432":"\u0120all","433":"\u0120help","434":"ue","435":"\u0120loo","436":"\u0120lo","437":"ter","438":"\u0120A","439":"\u0120upon","440":"ry","441":"ore","442":"ind","443":"\u0120fun","444":"get","445":"\u0120toy","446":"ill","447":"ame","448":"\u0120as","449":"\u0120at","450":"ra","451":"\u0120j","452":"\u0120did","453":"gether","454":"\u0120re","455":"ur","456":"\u0120se","457":"\u0120together","458":"ack","459":"\u0120cat","460":"ly","461":"\u0120tre","462":"ood","463":"ic","464":"ted","465":"\u0120dog","466":"\u0120could","467":"\u0120can","468":"\u0120their","469":"ard","470":"ec","471":"ark","472":"\u0120gir","473":"\u0120played","474":"\u0120him","475":"\u0120ball","476":"?\"","477":"\u0120girl","478":"way","479":"\u0120ro","480":"\u0120go","481":"hed","482":"my","483":"\u0120are","484":"\u0120out","485":"\u0120le","486":"\u0120fr","487":"ain","488":"\u0120kn","489":"hen","490":"\u0120them","491":"um","492":"'t","493":"ax","494":"\u0120sad","495":"ul","496":"\u0120boy","497":"\u0120tree","498":"other","499":"\u0120have","500":"\u0120man","501":"\u0120cl","502":"\u0120loved","503":"\u0120looked","504":"oug","505":"\u0120found","506":"\u0120sp","507":"\u0120star","508":"\u0120Sue","509":"one","510":"hing","511":"\u0120sc","512":"\u0120back","513":"own","514":"\u0120Max","515":"are","516":"\u0120like","517":"ful","518":"side","519":"\u0120me","520":"\u0120bec","521":"\u0120park","522":"ight","523":"ong","524":"\u0120car","525":"op","526":"elt","527":"\u0120One","528":"\u0120liked","529":"\u0120would","530":"\u0120make","531":"round","532":"\u0120la","533":"\u0120fa","534":"\u0120felt","535":"You","536":"\u0120W","537":"ell","538":"\u0120see","539":"\u0120But","540":"omet","541":"\u0120asked","542":"ag","543":"\u0120new","544":"\u0120no","545":"ice","546":"\u0120Sam","547":"ouse","548":"\u0120started","549":"ared","550":"\u0120came","551":"\u0120Ben","552":"\u0120al","553":"\u0120other","554":"ought","555":"iled","556":"\u0120somet","557":"\u0120ag","558":"\u0120good","559":"\u0120small","560":"ss","561":"\u0120br","562":"\u0120smiled","563":"\u0120say","564":"ried","565":"ade","566":"ings","567":"ob","568":"pot","569":"\u0120wor","570":"\u0120find","571":"\u0120ex","572":"ia","573":"\u0120away","574":"ty","575":"\u0120put","576":"\u0120what","577":"\u0120something","578":"\u0120co","579":"\u0120from","580":"\u0120made","581":"\u0120thought","582":"ened","583":"\u0120home","584":"\u0120playing","585":"ook","586":"\u0120every","587":"\u0120wal","588":"\u0120mu","589":"uc","590":"ach","591":"arn","592":"\u0120Spot","593":"\u0120ran","594":"ile","595":"\u0120F","596":"ie","597":"\u0120J","598":"ave","599":"\u0120again","600":"\u0120some","601":"\u0120laug","602":"dd","603":"\u0120house","604":"\u0120down","605":"\u0120fl","606":"king","607":"\u0120took","608":"\u0120scared","609":"\u0120pr","610":"ny","611":"ure","612":"\u0120toys","613":"\u0120learn","614":"\u0120You","615":"if","616":"\u0120will","617":"\u0120box","618":"ick","619":"ret","620":"ab","621":"ep","622":"\u0120my","623":"\u0120around","624":"\u0120things","625":"\u0120your","626":"oud","627":"\u0120bl","628":"uck","629":"\u0120when","630":"ish","631":"\u0120lived","632":"\u0120fe","633":"\u0120then","634":"\u0120sun","635":"as","636":"\u0120sw","637":",\"","638":"\u0120ch","639":"us","640":"pped","641":"\u0120ab","642":"\u0120Mia","643":"ank","644":"\u0120get","645":"ucy","646":"Tim","647":"ump","648":"Th","649":"\u0120lot","650":"ist","651":"oth","652":"\u0120tried","653":"ap","654":"\u0120know","655":"\u0120says","656":"\u0120got","657":"ited","658":"\u0120who","659":"\u0120kne","660":"ust","661":"\u0120many","662":"nder","663":"\u0120int","664":"\u0120about","665":"Lily","666":"\u0120pret","667":"\u0120dec","668":"\u0120any","669":"\u0120red","670":"\u0120D","671":"ive","672":"\u0120knew","673":"ace","674":"ous","675":"\u0120more","676":"ise","677":"\u0120care","678":"ally","679":"\u0120pic","680":"au","681":"qu","682":"\u0120hug","683":"\u0120Lucy","684":"\u0120learned","685":"\u0120po","686":"\u0120water","687":"fter","688":"\u0120v","689":"\u0120became","690":"\u0120best","691":"ause","692":"\u0120op","693":"\u0120gre","694":"\u0120exc","695":"urp","696":"ways","697":"\u00e2\u0122","698":"\u0120outside","699":"\u0120laughed","700":"\u0120look","701":"\u0120always","702":"\u0120decid","703":"\u0120show","704":"\u0120un","705":"ant","706":"\u0120Bob","707":"\u0120room","708":"fe","709":"\u0120decided","710":"\u0120ho","711":"\u0120because","712":"\u0120So","713":"\u0120into","714":"\u0120eat","715":"ite","716":"\u0120jump","717":"\u0120And","718":"\u0120pe","719":"\u0120both","720":"ers","721":"\u0120Mom","722":"\u0120dad","723":"They","724":"udd","725":"\u0120ke","726":"\u0120one","727":"nn","728":"\u0120this","729":"\u0120excited","730":"\u0120fast","731":"\u0120nice","732":"\u0120E","733":"\u0120feel","734":"Tom","735":"Yes","736":"\u0120run","737":"\u0120long","738":"\u0120told","739":"\u0120sk","740":"\u0120am","741":"urpr","742":"our","743":"\u0120inside","744":"ull","745":"\u0120tr","746":"\u0120surpr","747":"\u0120mo","748":"ink","749":"\u0120pretty","750":"iny","751":"\u0120sor","752":"Wh","753":"\u0120take","754":"og","755":"\u0120sl","756":"\u0120each","757":"\u0120gave","758":"\u0120much","759":"\u0120gra","760":"lew","761":"nna","762":"\u0120rock","763":"\u0120how","764":"\u0120str","765":"ara","766":"imal","767":"\u0120animal","768":"ged","769":"\u0120need","770":"\u0120than","771":"But","772":"ven","773":"etter","774":"\u0120tow","775":"\u0120or","776":"\u0120C","777":"\u0120under","778":"ess","779":"\u0120old","780":"\u0120sorry","781":"ge","782":"ised","783":"ro","784":"urt","785":"\u0120cle","786":"\u0120fish","787":"\u0120walked","788":"\u0120clo","789":"and","790":"\u0120bear","791":"ft","792":"ase","793":"ast","794":"\u0120hand","795":"urn","796":"\u0120We","797":"\u0120kind","798":"\u0120His","799":"\u0120te","800":"here","801":"\u0120happened","802":"\u0120just","803":"\u0120flow","804":"\u0120food","805":"\u0120list","806":"\u0120didn","807":"\u0120animals","808":"\u0120hig","809":"pl","810":"\u0120near","811":"\u0120wat","812":"\u0120ide","813":"\u0120try","814":"ched","815":"\u0120sky","816":"ine","817":"\u0120sn","818":"ving","819":"\u0120fi","820":"rom","821":"\u0120us","822":"\u0120idea","823":"\u0120better","824":"\u0120Amy","825":"\u0120bug","826":"\u0120heard","827":"gry","828":"\u0120its","829":"\u0120tw","830":"\u0120let","831":"pec","832":"ate","833":"able","834":"ff","835":"\u0120en","836":"\u0120careful","837":"\u0120share","838":"ex","839":"\u0120if","840":"Thank","841":"Mom","842":"\u0120fly","843":"\u0120stor","844":"ial","845":"\u0120flew","846":"more","847":"\u0120anymore","848":"\u0120Th","849":"\u0120spec","850":"\u0120special","851":"ion","852":"\u0120com","853":"\u0120lots","854":"\u0120never","855":"\u0120by","856":"lf","857":"ream","858":"\u0120dan","859":"\u0120bu","860":"\u0120fo","861":"\u0120wind","862":"\u0120don","863":"\u0120tal","864":"\u0120clean","865":"ort","866":"\u0120gr","867":"\u0120love","868":"rm","869":"ber","870":"\u0120end","871":"\u010a\u010a","872":"\u0120Then","873":"ople","874":"\u0120even","875":"\u0120mag","876":"\u0120hard","877":"\u0120shiny","878":"udden","879":"\u0120fore","880":"\u0120over","881":"\u0120cake","882":"ak","883":"\u0120book","884":"\u0120col","885":"\u0120turn","886":"\u0120fam","887":"\u0120bad","888":"\u0120safe","889":"\u0120after","890":"ady","891":"\u0120Anna","892":"uddenly","893":"\u0120people","894":"\u0120proud","895":"\u0120Every","896":"\u0120surprised","897":"pected","898":"Let","899":"\u0120high","900":"\u0120cu","901":"\u0120hurt","902":"\u0120come","903":"imb","904":"arden","905":"\u0120door","906":"\u0120garden","907":"bb","908":"\u0120ground","909":"\u0120opened","910":"\u0120picked","911":"\u0120loud","912":"\u0120climb","913":"expected","914":"\u0120unexpected","915":"\u0120gl","916":"\u0120che","917":"ild","918":"\u0120im","919":"As","920":"\u0120give","921":"\u0120way","922":"ail","923":"'m","924":"\u0120thanked","925":"\u0120color","926":"\u0120blue","927":"\u0120still","928":"\u0120ever","929":"\u0120hugged","930":"\u0120From","931":"\u0120call","932":"\u0120far","933":"ip","934":"\u0120Her","935":"\u0120Sara","936":"\u0120When","937":"No","938":"\u0120off","939":"\u0120magic","940":"iz","941":"ough","942":"age","943":"ummy","944":"\u0120K","945":"\u0120jumped","946":"\u0120should","947":"\u0120family","948":"\u0120par","949":"ool","950":"\u0120kid","951":"\u0120smile","952":"hes","953":"uff","954":"\u0120place","955":"kay","956":"\u0120walk","957":"\u0120now","958":"ct","959":"\u0120In","960":"\u0120great","961":"em","962":"ture","963":"\u0120qu","964":"les","965":"\u0120strong","966":"\u0120stay","967":"\u0120unt","968":"\u0120sto","969":"aut","970":"\u0120forest","971":"ane","972":"\u0120bra","973":"itty","974":"\u0120P","975":"\u0120frog","976":"\u0120bro","977":"\u0120until","978":"oon","979":"\u0120beaut","980":"dy","981":"\u0120squ","982":"\u0120stick","983":"xt","984":"\u0120next","985":"\u0120boat","986":"lease","987":"ning","988":"\u0120happily","989":"\u0120listen","990":"aking","991":"\u0120kids","992":"\u0120tra","993":"ies","994":"iful","995":"\u0120beautiful","996":"\u0120app","997":"th","998":"\u0120helped","999":"\u0120dra","1000":"\u0120showed","1001":"\u0120clos","1002":"be","1003":"\u0120imp","1004":"\u0120story","1005":"unny","1006":"oy","1007":"\u0120while","1008":"\u0120town","1009":"rel","1010":"pt","1011":"\u0120rain","1012":"ress","1013":"\u0120picture","1014":"\u0120being","1015":"\u0120rem","1016":"\u0120everyone","1017":"It","1018":"ary","1019":"ree","1020":"\u0120mor","1021":"\u0120hat","1022":"\u0120called","1023":"\u0120met","1024":"\u0120stopped","1025":"\u0120ad","1026":"\u0120game","1027":"Now","1028":"He","1029":"Can","1030":"\u0120angry","1031":"ger","1032":"uffy","1033":"\u0120open","1034":"\u0120wo","1035":"\u0120truck","1036":"\u0120keep","1037":"\u0120soft","1038":"When","1039":"\u0120cry","1040":"\u0120yummy","1041":"\u0120lost","1042":"\u0120bed","1043":"\u0120Let","1044":"\u0120Sally","1045":"\u0120warm","1046":"by","1047":"vent","1048":"\u0120brave","1049":"\u0120mouse","1050":"\u0120Wh","1051":"\u0120ate","1052":"\u0120Kitty","1053":"ished","1054":"\u0120de","1055":"fore","1056":"\u0120doll","1057":"so","1058":"\u0120couldn","1059":"\u0120watch","1060":"\u0120leave","1061":"\u0120also","1062":"dded","1063":"\u0120fell","1064":"\u0120green","1065":"\u0120face","1066":"\u0120two","1067":"gan","1068":"iss","1069":"\u0120flowers","1070":"bit","1071":"What","1072":"\u0120R","1073":"ble","1074":"\u0120noise","1075":"abbit","1076":"irst","1077":"owl","1078":"\u0120where","1079":"az","1080":"ock","1081":"\u0120soon","1082":"self","1083":"\u0120slide","1084":"\u0120rabbit","1085":"\u0120hole","1086":"luffy","1087":"\u0120before","1088":"irrel","1089":"\u0120pus","1090":"ired","1091":"\u0120sat","1092":"illy","1093":"\u0120hear","1094":"\u0120use","1095":"\u00e2\u0122\u013f","1096":"Hi","1097":"\u0120pa","1098":"\u0120kept","1099":"\u00e2\u0122\u013e","1100":"That","1101":"\u0120squirrel","1102":"ear","1103":"Then","1104":"ma","1105":"\u0120nodded","1106":"\u0120expl","1107":"\u0120store","1108":"\u0120cook","1109":"\u0120hands","1110":"Look","1111":"\u0120birds","1112":"\u0120pain","1113":"\u0120going","1114":"\u0120funny","1115":"\u0120having","1116":"day","1117":"\u0120sing","1118":"aybe","1119":"uch","1120":"\u0120ey","1121":"aug","1122":"\u0120catch","1123":"aught","1124":"\u0120Can","1125":"\u0120Fluffy","1126":"uit","1127":"\u0120yell","1128":"\u0120think","1129":"leep","1130":"\u0120cra","1131":"\u0120fin","1132":"Ben","1133":"\u0120bre","1134":"\u0120fix","1135":"\u0120tired","1136":"\u0120bunny","1137":"\u0120used","1138":"\u0120looking","1139":"\u0120bus","1140":"ange","1141":"air","1142":"\u0120work","1143":"\u0120wr","1144":"\u0120our","1145":"\u0120pull","1146":"We","1147":"\u0120thr","1148":"thing","1149":"\u0120Now","1150":"\u0120wait","1151":"\u0120kit","1152":"\u0120sound","1153":"ting","1154":"\u0120jo","1155":"\u0120has","1156":"\u0120G","1157":"\u0120mean","1158":"\u0120pond","1159":"ember","1160":"\u0120beh","1161":"\u0120dr","1162":"\u0120sunny","1163":"led","1164":"\u0120others","1165":"\u0120ask","1166":"ng","1167":"chen","1168":"\u0120kitchen","1169":"\u0120talk","1170":"\u0120flo","1171":"\u0120dif","1172":"rew","1173":"\u0120pie","1174":"\u0120Jo","1175":"\u0120head","1176":"\u0120real","1177":"\u0120first","1178":"\u0120tri","1179":"\u0120mommy","1180":"\u0120eyes","1181":"ello","1182":"\u0120import","1183":"Hello","1184":"\u0120fav","1185":"ath","1186":"joy","1187":"\u0120z","1188":"\u0120remember","1189":"\u0120right","1190":"\u0120flower","1191":"\u0120con","1192":"\u0120mess","1193":"\u0120party","1194":"\u0120cold","1195":"\u0120Do","1196":"\u0120vo","1197":"\u0120swe","1198":"ious","1199":"\u0120sand","1200":"\u0120\u00e2\u0122\u013e","1201":"ac","1202":"orn","1203":"\u0120race","1204":"\u0120curi","1205":"imes","1206":"\u0120important","1207":"\u0120duck","1208":"\u0120moral","1209":"\u0120shared","1210":"zy","1211":"ount","1212":"\u0120Jack","1213":"\u0120ice","1214":"\u0120okay","1215":"\u0120advent","1216":"\u0120worked","1217":"llow","1218":"At","1219":"\u0120enjoy","1220":"\u0120dress","1221":"\u0120bright","1222":"\u0120making","1223":"\u0120curious","1224":"\u0120own","1225":"\u0120tall","1226":"\u0120dir","1227":"\u0120hop","1228":"reed","1229":"\u0120hid","1230":"\u0120favor","1231":"\u0120ri","1232":"hn","1233":"\u0120sleep","1234":"\u0120dis","1235":"Wow","1236":"\u0120favorite","1237":"\u0120thing","1238":"\u0120began","1239":"\u0120mon","1240":"\u0120bag","1241":"\u0120hill","1242":"Don","1243":"\u0120cla","1244":"\u0120draw","1245":"\u0120rest","1246":"\u0120here","1247":"\u0120yard","1248":"\u0120tell","1249":"\u0120Fin","1250":"ster","1251":"\u0120watched","1252":"que","1253":"\u0120follow","1254":"\u0120move","1255":"\u0120bel","1256":"ect","1257":"\u0120cut","1258":"\u0120night","1259":"\u0120agreed","1260":"\u0120pick","1261":"co","1262":"\u0120block","1263":"\u0120hun","1264":"aper","1265":"lly","1266":"\u0120stop","1267":"\u0120behind","1268":"\u0120This","1269":"\u0120surprise","1270":"ied","1271":"\u0120sho","1272":"\u0120hot","1273":"After","1274":"\u0120table","1275":"\u0120grass","1276":"\u0120worry","1277":"\u0120dark","1278":"\u0120trees","1279":"\u0120voice","1280":"\u0120walking","1281":"fere","1282":"\u0120floor","1283":"\u0120farm","1284":"\u0120lion","1285":"\u0120top","1286":"\u0120differe","1287":"\u0120please","1288":"\u0120ru","1289":"\u0120song","1290":"\u0120butter","1291":"\u0120tail","1292":"\u0120sweet","1293":"Max","1294":"\u0120shout","1295":"\u0120colors","1296":"\u0120read","1297":"\u0120Dad","1298":"\u0120lady","1299":"\u0120forg","1300":"isy","1301":"\u0120leaves","1302":"\u0120closer","1303":"ign","1304":"\u0120cars","1305":"\u0120turned","1306":"\u0120needed","1307":"\u0120tast","1308":"Why","1309":"aring","1310":"\u0120wood","1311":"\u0120cried","1312":"\u0120different","1313":"\u0120laugh","1314":"\u0120del","1315":"\u0120piece","1316":"\u00e2\u0122\u013b","1317":"ered","1318":"\u0120Mr","1319":"\u0120roll","1320":"\u0120adventure","1321":"\u0120fire","1322":"\u0120does","1323":"ike","1324":"\u0120cr","1325":"\u0120hungry","1326":"\u0120hair","1327":"\u0120Suddenly","1328":"\u0120paper","1329":"\u0120feeling","1330":"\u0120yellow","1331":"\u0120full","1332":"bo","1333":"\u0120prin","1334":"Sue","1335":"\u0120touch","1336":"\u0120As","1337":"Anna","1338":"Sam","1339":"\u0120wet","1340":"\u0120friendly","1341":"\u0120per","1342":"oom","1343":"ken","1344":"cked","1345":"ached","1346":"\u0120swing","1347":"\u0120fruit","1348":"ient","1349":"\u0120broken","1350":"\u0120ready","1351":"bye","1352":"ppy","1353":"\u0120prom","1354":"\u0120That","1355":"\u0120another","1356":"\u0120light","1357":"\u0120pretend","1358":"\u0120dance","1359":"ater","1360":"\u0120climbed","1361":"where","1362":"\u0120listened","1363":"\u0120Bobo","1364":"\u0120danc","1365":"\u0120running","1366":"\u0120only","1367":"\u0120plan","1368":"\u0120gone","1369":"\u0120swim","1370":"bbed","1371":"Suddenly","1372":"sh","1373":"\u0120train","1374":"ila","1375":"ndma","1376":"Sara","1377":"\u0120Jane","1378":"\u0120close","1379":"av","1380":"She","1381":"\u0120smell","1382":"So","1383":"aby","1384":"\u0120amaz","1385":"\u0120hold","1386":"\u0120blocks","1387":"\u0120wonder","1388":"\u0120Timmy","1389":"\u0120repl","1390":"\u0120All","1391":"\u0120butterf","1392":"\u0120sees","1393":"\u0120reached","1394":"\u0120wall","1395":"\u0120pu","1396":"oney","1397":"red","1398":"\u0120slow","1399":"\u0120helping","1400":"\u0120dri","1401":"\u0120cream","1402":"\u0120cool","1403":"\u0120glad","1404":"af","1405":"\u0120ant","1406":"\u0120less","1407":"\u0120been","1408":"\u0120goodbye","1409":"\u0120ac","1410":"\u0120fight","1411":"ather","1412":"Mia","1413":"\u0120pushed","1414":"iced","1415":"\u0120fair","1416":"\u0120must","1417":"\u0120hide","1418":"\u0120moment","1419":"\u0120window","1420":"\u0120O","1421":"\u0120sit","1422":"\u0120balloon","1423":"\u0120snow","1424":"\u0120child","1425":"\u0120explore","1426":"\u0120Everyone","1427":"\u0120ar","1428":"\u0120wished","1429":"\u0120baby","1430":"\u0120done","1431":"\u0120wag","1432":"\u0120ste","1433":"\u0120buy","1434":"\u0120stuck","1435":"\u0120perf","1436":"\u0120thank","1437":"\u0120might","1438":"icy","1439":"\u0120name","1440":"ized","1441":"\u0120trying","1442":"\u0120bit","1443":"\u0120coming","1444":"\u0120bar","1445":"\u0120quick","1446":"\u0120fall","1447":"\u0120apple","1448":"ash","1449":"\u0120scary","1450":"\u0120looks","1451":"\u0120build","1452":"\u0120doing","1453":"\u0120win","1454":"\u0120underst","1455":"aisy","1456":"\u0120din","1457":"\u0120dream","1458":"\u0120dirty","1459":"\u0120held","1460":"ames","1461":"\u0120books","1462":"\u0120mar","1463":"In","1464":"\u0120butterfly","1465":"\u0120left","1466":"\u0120shouted","1467":"\u0120count","1468":"\u0120replied","1469":"avy","1470":"\u0120reach","1471":"\u0120tiny","1472":"\u0120through","1473":"ott","1474":"\u0120dro","1475":"\u0120why","1476":"\u0120air","1477":"\u0120bran","1478":"\u0120land","1479":"key","1480":"\u0120three","1481":"\u0120pulled","1482":"\u0120spl","1483":"\u0120grow","1484":"\u0120treat","1485":"\u0120brother","1486":"\u0120wise","1487":"\u0120woods","1488":"\u0120sure","1489":"'re","1490":"\u0120chair","1491":"ix","1492":"\u0120mat","1493":"ins","1494":"\u0120seen","1495":"\u0120pink","1496":"\u0120clapped","1497":"\u0120plant","1498":"ely","1499":"\u0120owl","1500":"\u0120cup","1501":"ield","1502":"\u0120sometimes","1503":"andy","1504":"\u0120fill","1505":"\u0120cloud","1506":"ask","1507":"\u0120swam","1508":"outh","1509":"\u0120job","1510":"\u0120colorful","1511":"\u0120remembered","1512":"\u0120bigger","1513":"\u0120nest","1514":"\u0120mouth","1515":"pe","1516":"Okay","1517":"\u0120lesson","1518":"\u0120join","1519":"\u0120cre","1520":"ph","1521":"\u0120There","1522":"oup","1523":"room","1524":"art","1525":"\u0120waved","1526":"uddy","1527":"\u0120grabbed","1528":"\u0120stayed","1529":"Oh","1530":"\u0120paint","1531":"This","1532":"\u0120clot","1533":"\u0120cont","1534":"\u0120clothes","1535":"\u0120ve","1536":"ower","1537":"\u0120After","1538":"\u0120waited","1539":"\u0120quickly","1540":"cle","1541":"\u0120word","1542":"\u0120broke","1543":"ucky","1544":"\u0120games","1545":"\u0120cast","1546":"\u0120blew","1547":"\u0120gent","1548":"\u0120Mommy","1549":"\u0120enjoyed","1550":"\u0120noticed","1551":"Jo","1552":"ries","1553":"ation","1554":"\u0120set","1555":"\u0120likes","1556":"\u0120pictures","1557":"ton","1558":"de","1559":"\u0120sea","1560":"\u0120heavy","1561":"\u0120mus","1562":"\u0120alone","1563":"\u0120gif","1564":"asure","1565":"\u0120anything","1566":"\u0120spot","1567":"\u0120miss","1568":"\u0120hopped","1569":"\u0120world","1570":"\u0120turns","1571":"orm","1572":"\u0120year","1573":"der","1574":"\u0120bott","1575":"\u0120pat","1576":"\u0120pot","1577":"\u0120pen","1578":"lc","1579":"Her","1580":"\u0120mix","1581":"\u0120arm","1582":"\u0120bike","1583":"\u0120tight","1584":"\u0120everywhere","1585":"\u0120won","1586":"Lucy","1587":"\u0120tower","1588":"\u0120threw","1589":"\u0120himself","1590":"\u0120followed","1591":"\u0120Buddy","1592":"\u0120ride","1593":"man","1594":"less","1595":"\u0120ju","1596":"\u0120je","1597":"amp","1598":"Bob","1599":"ape","1600":"\u0120comp","1601":"\u0120key","1602":"row","1603":"\".","1604":"\u0120white","1605":"ctor","1606":"\u0120wrong","1607":"\u0120Daisy","1608":"\u0120makes","1609":"\u0120What","1610":"\u0120break","1611":"\u0120black","1612":"arent","1613":"ee","1614":"ner","1615":"Spot","1616":"Do","1617":"\u0120deep","1618":"thy","1619":"\u0120music","1620":"\u0120pol","1621":"\u0120delic","1622":"cess","1623":"ued","1624":"\u0120forgot","1625":"\u0120bee","1626":"\u0120parent","1627":"\u0120castle","1628":"ves","1629":"olly","1630":"\u0120em","1631":"iet","1632":"\u0120wear","1633":"\u0120hit","1634":"ister","1635":"oun","1636":"\u0120quiet","1637":"\u0120round","1638":"ance","1639":"\u0120stu","1640":"\u0120danced","1641":"\u0120vis","1642":"ully","1643":"\u0120wants","1644":"\u0120leaf","1645":"\u0120monster","1646":"\u0120nap","1647":"\u0120John","1648":"\u0120understand","1649":"ang","1650":"\u0120bowl","1651":"os","1652":"rot","1653":"ren","1654":"\u0120bor","1655":"\u0120talked","1656":"itten","1657":"\u0120dry","1658":"\u0120faster","1659":"\u0120cookies","1660":"\u0120brought","1661":"fully","1662":"\u0120leg","1663":"ross","1664":"\u0120mum","1665":"zz","1666":"\u0120side","1667":"ts","1668":"From","1669":"\u0120sign","1670":"\u0120Inside","1671":"\u0120smart","1672":"cy","1673":"\u0120rocks","1674":"\u0120someone","1675":"His","1676":"\u0120poin","1677":"\u0120sec","1678":"\u0120sharing","1679":"\u0120fox","1680":"\u0120well","1681":"\u0120res","1682":"\u0120rel","1683":"\u0120happen","1684":"\u0120button","1685":"\u0120branch","1686":"\u0120Lila","1687":"\u0120really","1688":"\u0120finished","1689":"ence","1690":"ards","1691":"\u0120dinner","1692":"\u0120sister","1693":"\u0120flying","1694":"eddy","1695":"\u0120contin","1696":"\u0120worried","1697":"\u0120ele","1698":"\u0120To","1699":"\u0120visit","1700":"\u0120Maybe","1701":"\u0120beach","1702":"\u0120que","1703":"\u0120secret","1704":"\u0120el","1705":"\u0120Sarah","1706":"\u0120king","1707":"John","1708":"gy","1709":"\u0120today","1710":"\u0120perfect","1711":"\u0120river","1712":"\u0120everything","1713":"\u0120silly","1714":"\u0120shin","1715":"\u0120Joe","1716":"\u0120danger","1717":"ipp","1718":"\u0120children","1719":"\u0120gu","1720":"\u0120Soon","1721":"\u0120field","1722":"\u0120filled","1723":"\u0120fur","1724":"\u0120else","1725":"\u0120smiles","1726":"\u0120welc","1727":"\u0120At","1728":"\u0120wish","1729":"\u0120Em","1730":"While","1731":"\u0120sang","1732":"\u0120gi","1733":"ze","1734":"\u0120pudd","1735":"\u0120snack","1736":"\u0120eating","1737":"\u0120realized","1738":"\u0120pieces","1739":"\u0120promised","1740":"ord","1741":"\u0120spr","1742":"\u0120pig","1743":"\u0120free","1744":"\u0120continued","1745":"\u0120bite","1746":"ead","1747":"\u0120parents","1748":"\u0120carefully","1749":"ated","1750":"itting","1751":"\u0120ear","1752":"Just","1753":"\u0120jar","1754":"Maybe","1755":"\u0120cow","1756":"Amy","1757":"\u0120blank","1758":"\u0120drag","1759":"stead","1760":"\u0120orange","1761":"\u0120mud","1762":"\u0120crying","1763":"\u0120blanket","1764":"\u0120enough","1765":"\u0120rolled","1766":"cket","1767":"\u0120soup","1768":"\u0120sail","1769":"\u0120purp","1770":"imi","1771":"\u0120yes","1772":"ale","1773":"\u0120drink","1774":"\u0120snake","1775":"ses","1776":"\u0120boun","1777":"\u0120pet","1778":"\u0120crab","1779":"\u0120throw","1780":"\u0120laughing","1781":"\u0120fairy","1782":"\u0120words","1783":"\u0120amazing","1784":"\u0120bath","1785":"ich","1786":"\u0120purple","1787":"\u0120Z","1788":"\u0120without","1789":"ire","1790":"\u0120bottle","1791":"\u0120Billy","1792":"\u0120gift","1793":"\u0120grandma","1794":"Fin","1795":"used","1796":"ons","1797":"\u0120past","1798":"\u0120money","1799":"iver","1800":"fort","1801":"\u0120mail","1802":"\u0120Gra","1803":"\u0120barked","1804":"\u0120wagged","1805":"\u0120att","1806":"chool","1807":"\u0120monkey","1808":"\u0120doctor","1809":"unch","1810":"\u0120brown","1811":"\u0120moved","1812":"ises","1813":"\u0120asks","1814":"\u0120getting","1815":"\u0120closed","1816":"\u0120whe","1817":"\u0120welcome","1818":"\u0120su","1819":"\u0120candy","1820":"\u0120school","1821":"\u0120morning","1822":"\u0120owner","1823":"gg","1824":"\u0120lon","1825":"\u0120mother","1826":"\u0120higher","1827":"\u0120sitting","1828":"\u0120treasure","1829":".\u00e2\u0122\u013f","1830":"\u0120smo","1831":"!\u00e2\u0122\u013f","1832":"\u0120dangerous","1833":"\u0120lonely","1834":"\u0120Ch","1835":"\u0120living","1836":"\u0120apples","1837":"ush","1838":"\u0120shop","1839":"ased","1840":"\u0120strange","1841":"vel","1842":"\u0120shining","1843":"\u0120road","1844":"ere","1845":"\u0120Tommy","1846":"\u0120creat","1847":"una","1848":"\u0120paw","1849":"\u0120ra","1850":"ey","1851":"\u0120shoes","1852":"\u0120pre","1853":"ible","1854":"\u0120-","1855":"\u0120stre","1856":"\u0120talking","1857":"althy","1858":"\u0120caught","1859":"\u0120egg","1860":"ol","1861":"\u0120pass","1862":"me","1863":"\u0120lake","1864":"\u0120runs","1865":"\u0120buck","1866":"\u0120letter","1867":"\u0120wings","1868":"\u0120chee","1869":"fish","1870":"\u0120mad","1871":"\u0120fan","1872":"asket","1873":"\u0120basket","1874":"ass","1875":"\u0120dragon","1876":"app","1877":"Mommy","1878":"set","1879":"cks","1880":"\u0120stone","1881":"\u0120thinks","1882":"\u0120stand","1883":"\u0120delicious","1884":"\u0120nose","1885":"\u0120puddle","1886":"\u0120tom","1887":"\u0120Bl","1888":"\u0120Mimi","1889":"\u0120belie","1890":"\u0120farmer","1891":"\u0120same","1892":"\u0120years","1893":"board","1894":"\u0120teddy","1895":"\u0120bat","1896":"isk","1897":"itch","1898":"\u0120mine","1899":"\u0120sear","1900":"\u0120coat","1901":"ches","1902":"igh","1903":"\u0120days","1904":"\u0120bring","1905":"\u0120gentle","1906":"\u0120fit","1907":"\u0120start","1908":"\u0120finally","1909":"\u0120whist","1910":"\u0120cray","1911":"igg","1912":"\u0120scream","1913":"\u0120kite","1914":"\u0120pill","1915":"phant","1916":"arm","1917":"\u0120vill","1918":"\u0120cho","1919":"\u0120singing","1920":"ella","1921":"sw","1922":"ined","1923":"\u0120tasty","1924":"\u0120ph","1925":"\u0120ben","1926":"\u0120trou","1927":"\u0120shell","1928":"\u0120herself","1929":"\u0120hoped","1930":"\u0120answ","1931":"\u0120wore","1932":"\u0120swings","1933":"sy","1934":"\u0120hor","1935":"\u0120belong","1936":"Please","1937":"\u0120push","1938":"\u0120bush","1939":"iskers","1940":"\u0120carrot","1941":"\u0120arri","1942":"aughty","1943":"\u0120teach","1944":"bow","1945":"ract","1946":"\u0120naughty","1947":"\u0120elephant","1948":"\u0120dropped","1949":"\u0120shap","1950":"ier","1951":"\u0120coll","1952":"sc","1953":"\u0120teac","1954":"emy","1955":"\u0120woke","1956":"ball","1957":"\u0120pile","1958":"\u0120hiding","1959":"\u0120cour","1960":"isa","1961":"erry","1962":"\u0120touc","1963":"\u0120min","1964":"\u0120puppy","1965":"'ll","1966":"\u0120seem","1967":"llie","1968":"\u0120twins","1969":"ama","1970":"\u0120lunch","1971":"\u0120bow","1972":"\u0120sack","1973":"\u0120pers","1974":"\u0120course","1975":"\u0120cheered","1976":"\u0120shapes","1977":"\u0120Jen","1978":"\u0120grew","1979":"fused","1980":"\u0120rope","1981":"\u0120village","1982":"irth","1983":"irthday","1984":"\u0120juice","1985":"ipped","1986":"\u0120rainbow","1987":"\u0120spin","1988":"OK","1989":"\u0120shook","1990":"Jack","1991":"\u0120spoon","1992":"\u0120bench","1993":"\u0120street","1994":"\u0120fence","1995":"\u0120cute","1996":"\u0120Fred","1997":"\u0120rob","1998":"\u0120nut","1999":"\u0120cheese","2000":"\u0120prob","2001":"\u0120touched","2002":"idge","2003":"col","2004":"\u0120joy","2005":"\u0120Whiskers","2006":"\u0120arrived","2007":"\u0120seed","2008":"\u0120war","2009":"\u0120teacher","2010":"\u0120corn","2011":"Good","2012":"\u0120forever","2013":"\u0120able","2014":"\u0120bell","2015":"\u0120few","2016":"\u0120carry","2017":"\u0120most","2018":"\u0120plane","2019":"\u0120Blue","2020":"lem","2021":"\u0120eas","2022":"\u0120sounds","2023":"lla","2024":"\u0120des","2025":"\u0120spo","2026":"\u0120problem","2027":"\u0120birthday","2028":"\u0120power","2029":"\u0120inc","2030":"umb","2031":"br","2032":"\u010a\u0120","2033":"\u0120bugs","2034":"ilk","2035":"\u0120wonderful","2036":"\u0120dolls","2037":"\u0120busy","2038":"ato","2039":"irp","2040":"eb","2041":"\u0120wra","2042":"\u0120promise","2043":"\u0120Thank","2044":"\u0120feels","2045":"ian","2046":"\u0120Emma","2047":"eter","2048":"\u0120bread","2049":"\u0120neck","2050":"Finally","2051":"\u0120milk","2052":"\u0120robot","2053":"\u0120rec","2054":"\u0120shy","2055":"ountain","2056":"\u0120kiss","2057":"irt","2058":"\u0120heart","2059":"\u0120band","2060":"\u0120cave","2061":"\u0120pocket","2062":"ub","2063":"\u0120helpful","2064":"gly","2065":"\u0120slowly","2066":"\u0120believe","2067":"\u0120shake","2068":"umpy","2069":"eared","2070":"\u0120patient","2071":"\u0120pop","2072":"\u0120ob","2073":"arp","2074":"\u0120live","2075":"\u0120storm","2076":"\u0120holding","2077":"\u0120ugly","2078":"\u0120towards","2079":"\u0120upset","2080":"\u0120turt","2081":"\u0120shr","2082":"adow","2083":"\u0120cover","2084":"\u0120kitten","2085":"ost","2086":"\u0120Remy","2087":"\u0120sharp","2088":"\u0120disapp","2089":"\u0120stories","2090":"\u0120suc","2091":"\u0120honey","2092":"ove","2093":"\u0120Bella","2094":"read","2095":"\u0120noises","2096":"\u0120Le","2097":"\u0120cir","2098":"\u0120balls","2099":"\u0120spark","2100":"\u0120gray","2101":"\u0120dist","2102":"\u0120dirt","2103":"oggy","2104":"\u0120late","2105":"\u0120driver","2106":"\u0120seat","2107":"\u0120bucket","2108":"\u0120meet","2109":"\u0120young","2110":"\u0120amazed","2111":"\u0120turtle","2112":"alm","2113":"\u0120spid","2114":"\u0120treats","2115":"\u0120magical","2116":"unt","2117":"ator","2118":"\u0120glow","2119":"\u0120seek","2120":"\u0120zoom","2121":"\u0120lem","2122":"\u0120sandw","2123":"fortable","2124":"umber","2125":"\u0120trip","2126":"\u0120mist","2127":"ourn","2128":"\u0120splas","2129":"\u0120mark","2130":"\u0120journ","2131":"\u0120fold","2132":"\u0120mach","2133":"\u0120puzz","2134":"\u0120part","2135":"ling","2136":"\u0120horse","2137":"\u0120organ","2138":"\u0120wild","2139":"\u0120princess","2140":"pping","2141":"oose","2142":"\u0120cookie","2143":"Sure","2144":"ens","2145":"\u0120hugs","2146":"\u0120Mark","2147":"\u0120taking","2148":"ung","2149":"\u0120wheel","2150":"epend","2151":"\u0120cloth","2152":"\u0120Lisa","2153":"\u0120sug","2154":"\u0120instead","2155":"\u0120bubb","2156":"\u0120string","2157":"\u0120net","2158":"\u0120drove","2159":"iling","2160":"\u0120rude","2161":"\u0120huge","2162":"\u0120Jim","2163":"\u0120coin","2164":"\u0120stars","2165":"\u0120fighting","2166":"Be","2167":"\u0120spicy","2168":"\u0120lucky","2169":"Of","2170":"\u0120craw","2171":"Hey","2172":"\u0120bone","2173":"\u0120inv","2174":"\u0120Grandma","2175":"ors","2176":"not","2177":"\u0120ca","2178":"pper","2179":"\u0120forget","2180":"up","2181":"\u0120di","2182":"aur","2183":"\u0120sal","2184":"\u0120Finally","2185":"\u0120cannot","2186":"\u0120whistle","2187":"\u0120card","2188":"\u0120sick","2189":"\u0120path","2190":"\u0120cou","2191":"\u0120spider","2192":"\u0120wide","2193":"Lila","2194":"\u0120foot","2195":"\u0120snowman","2196":"\u0120songs","2197":"\u0120life","2198":"\u0120pillow","2199":"ize","2200":"ular","2201":"\u0120Just","2202":"Later","2203":"est","2204":"\u0120Ann","2205":"ert","2206":"\u0120fixed","2207":"\u0120giant","2208":"oph","2209":"rill","2210":"\u0120nod","2211":"\u0120boss","2212":"\u0120last","2213":"\u0120comes","2214":"\u0120joke","2215":"\u0120moon","2216":"\u0120taste","2217":"den","2218":"\u0120machine","2219":"\u0120grumpy","2220":"\u0120wave","2221":"\u0120thin","2222":"\u0120drive","2223":"\u0120cart","2224":"\u0120ash","2225":"\u0120ser","2226":"\u0120grab","2227":"\u0120peace","2228":"lower","2229":"\u0120daddy","2230":"\u0120On","2231":"\u0120Leo","2232":"ery","2233":"\u0120sel","2234":"\u0120shelf","2235":"\u0120hidden","2236":"erest","2237":"\u0120suddenly","2238":"\u0120wasn","2239":"\u0120write","2240":"\u0120landed","2241":"\u0120confused","2242":"\u0120ring","2243":"\u0120change","2244":"\u0120worm","2245":"\u0120interest","2246":"\u0120chased","2247":"oop","2248":"\u0120fruits","2249":"\u0120sour","2250":"ity","2251":"\u0120myster","2252":"\u0120bark","2253":"\u0120rad","2254":"\u0120smooth","2255":"\u0120Come","2256":"\u0120adventures","2257":"\u0120val","2258":"\u0120stepped","2259":"\u0120fle","2260":"ope","2261":"\u0120oven","2262":"\u0120takes","2263":"\u0120missed","2264":"\u0120selfish","2265":"kin","2266":"\u0120sheep","2267":"\u0120messy","2268":"To","2269":"\u0120across","2270":"\u0120ent","2271":"\u0120exp","2272":"to","2273":"\u0120ce","2274":"\u0120later","2275":"elly","2276":"\u0120N","2277":"ife","2278":"\u0120sticks","2279":"\u0120tie","2280":"St","2281":"ever","2282":"\u0120Luna","2283":"\u0120step","2284":"\u0120bought","2285":"\u0120drew","2286":"\u0120tea","2287":"pect","2288":"\u0120ban","2289":"irpy","2290":"box","2291":"?\u00e2\u0122\u013f","2292":"\u0120wash","2293":"\u0120lay","2294":"\u0120pour","2295":"\u0120beak","2296":"ose","2297":"\u0120jog","2298":"\u0120grate","2299":"\u0120ducks","2300":"\u0120spe","2301":"\u0120legs","2302":"ugg","2303":"\u0120fil","2304":"\u0120Bu","2305":"\u0120emp","2306":"mer","2307":"\u0120hope","2308":"\u0120empty","2309":"\u0120slid","2310":"\u0120feather","2311":"\u0120sleepy","2312":"\u0120drum","2313":"amed","2314":"ars","2315":"eth","2316":"\u0120zoo","2317":"\u0120pan","2318":"\u0120phone","2319":"\u0120grateful","2320":"\u0120fing","2321":"ions","2322":"\u0120lemon","2323":"let","2324":"\u0120Cat","2325":"\u0120clever","2326":"\u0120Molly","2327":"\u0120smelly","2328":"\u0120imag","2329":"\u0120splash","2330":"\u0120interesting","2331":"\u0120Jill","2332":"\u0120save","2333":"\u0120chick","2334":"\u0120calm","2335":"\u0120med","2336":"\u0120watching","2337":"Soon","2338":"izzy","2339":"izz","2340":"\u0120plate","2341":"\u0120ign","2342":"yard","2343":"\u0120clouds","2344":"\u0120banan","2345":"\u0120line","2346":"\u0120faces","2347":"\u0120ba","2348":"\u0120act","2349":"\u0120lift","2350":"\u0120though","2351":"\u0120wolf","2352":"\u0120backyard","2353":"wel","2354":"\u0120seemed","2355":"\u0120dogs","2356":"\u0120spray","2357":"Come","2358":"\u0120prot","2359":"\u0120whole","2360":"\u0120mot","2361":"\u0120fancy","2362":"\u0120Daddy","2363":"\u0120quest","2364":"\u0120arms","2365":"\u0120puzzle","2366":"\u0120healthy","2367":"\u0120supp","2368":"ward","2369":"\u0120finish","2370":"erly","2371":"\u0120along","2372":"llo","2373":"\u0120rocket","2374":"\u0120explain","2375":"dge","2376":"\u0120easy","2377":"\u0120jewel","2378":"ont","2379":"\u0120pract","2380":"\u0120jelly","2381":"\u0120Chirpy","2382":"\u0120tid","2383":"\u0120fake","2384":"\u0120crayons","2385":"\u0120wondered","2386":"\u0120maybe","2387":"\u0120scar","2388":"\u0120ship","2389":"\u0120nothing","2390":"onest","2391":"\u0120emb","2392":"iger","2393":"\u0120pool","2394":"\u0120longer","2395":"\u0120anyone","2396":"\u0120Be","2397":"\u0120Jerry","2398":"ually","2399":"\u0120front","2400":"\u0120working","2401":"\u0120gives","2402":"irr","2403":"\u0120pack","2404":"\u0120such","2405":"\u0120Bunny","2406":"ocked","2407":"ment","2408":"\u0120bossy","2409":"\u0120Doggy","2410":"\u0120trouble","2411":"\u0120smelled","2412":"\u0120saved","2413":"\u0120pin","2414":"rass","2415":"\u0120neigh","2416":"arrass","2417":"iting","2418":"\u0120honest","2419":"\u0120av","2420":"arge","2421":"\u0120embarrass","2422":"\u0120van","2423":"\u0120forgive","2424":"\u0120tidy","2425":"\u0120weak","2426":"urse","2427":"\u0120puts","2428":"unk","2429":"\u0120kick","2430":"\u0120shirt","2431":"\u0120With","2432":"\u0120mind","2433":"\u0120Ollie","2434":"\u0120neighb","2435":"\u0120plants","2436":"\u0120sol","2437":"\u0120Momo","2438":"\u0120gently","2439":"\u0120cozy","2440":"orrow","2441":"ming","2442":"\u0120explor","2443":"sp","2444":"\u0120mistake","2445":"\u0120yog","2446":"oc","2447":"oomy","2448":"\u0120pointed","2449":"\u0120lad","2450":"\u0120af","2451":"\u0120stood","2452":"ork","2453":"\u0120onto","2454":"\u0120waiting","2455":"\u0120jumping","2456":"\u0120prince","2457":"\u0120cross","2458":"\u0120lock","2459":"\u0120cheer","2460":"\u0120queen","2461":"\u0120Why","2462":"\u0120Mary","2463":"\u0120wing","2464":"ones","2465":"we","2466":"\u0120large","2467":"\u0120lovely","2468":"ult","2469":"\u0120sur","2470":"\u0120ret","2471":"And","2472":"\u0120deer","2473":"\u0120chew","2474":"\u0120couch","2475":"\u0120bal","2476":"aughter","2477":"\u0120stret","2478":"era","2479":"\u0120Their","2480":"\u0120places","2481":"\u0120My","2482":"\u0120ladder","2483":"oof","2484":"\u0120return","2485":"raid","2486":"\u0120ants","2487":"\u0120dish","2488":"\u0120afraid","2489":"\u0120cleaned","2490":"\u0120tomorrow","2491":"\u0120building","2492":"\u0120sandwich","2493":"\u0120person","2494":"Sally","2495":"ned","2496":"\u0120pretended","2497":"\u0120bounce","2498":"\u0120wip","2499":"gest","2500":"\u0120match","2501":"\u0120rich","2502":"uce","2503":"\u0120pizz","2504":"\u0120gather","2505":"\u0120search","2506":"\u0120boring","2507":"oman","2508":"\u0120Somet","2509":"\u0120teeth","2510":"\u0120hum","2511":"Kitty","2512":"My","2513":"aced","2514":"\u0120daughter","2515":"\u0120woman","2516":"\u0120scarf","2517":"\u0120goes","2518":"\u0120Together","2519":"\u0120law","2520":"\u0120stra","2521":"\u0120swimming","2522":"\u0120furry","2523":"\u0120splashed","2524":"\u0120pri","2525":"\u0120loves","2526":"\u0120true","2527":"\u0120screamed","2528":"\u0120lazy","2529":"\u0120gen","2530":"\u0120answer","2531":"\u0120number","2532":"\u0120eag","2533":"\u0120ashamed","2534":"\u0120pizza","2535":"aw","2536":"\u0120appeared","2537":"\u0120fear","2538":"\u0120nearby","2539":"\u0120powerful","2540":"\u0120flag","2541":"\u0120St","2542":"\u0120hang","2543":"vous","2544":"\u0120clown","2545":"ek","2546":"\u0120chase","2547":"\u0120motor","2548":"\u0120wand","2549":"\u0120TV","2550":"\u0120rub","2551":"\u0120success","2552":"\u0120chocol","2553":"\u0120If","2554":"\u0120creative","2555":"\u0120trust","2556":"\u0120wearing","2557":"\u0120noisy","2558":"\u0120matter","2559":"pa","2560":"\u0120dig","2561":"\u0120hello","2562":"\u0120ner","2563":"\u0120tool","2564":"\u0120saf","2565":"\u0120Bird","2566":"ado","2567":"\u0120nervous","2568":"elp","2569":"\u0120test","2570":"\u0120smiling","2571":"\u0120sold","2572":"icked","2573":"oppy","2574":"osaur","2575":"\u0120circle","2576":"mb","2577":"\u0120map","2578":"\u0120drank","2579":"\u0120class","2580":"\u0120tries","2581":"\u0120chocolate","2582":"\u0120Please","2583":"\u0120impress","2584":"\u0120knee","2585":"\u0120gener","2586":"\u0120dinosaur","2587":"\u0120polite","2588":"\u0120mirr","2589":"\u0120Bobby","2590":"\u0120Tiny","2591":"\u0120balloons","2592":"\u0120gold","2593":"\u0120rare","2594":"\u0120protect","2595":"\u0120cand","2596":"Stop","2597":"\u0120carried","2598":"\u0120Go","2599":"ensive","2600":"\u0120ap","2601":"\u0120shadow","2602":"\u0120mirror","2603":"\u0120Don","2604":"\u0120bald","2605":"\u0120gun","2606":"ina","2607":"\u0120expensive","2608":"\u0120reg","2609":"iff","2610":"\u0120mysterious","2611":"\u0120Sp","2612":"\u0120pump","2613":"\u0120note","2614":"\u0120hero","2615":"\u0120march","2616":"\u0120har","2617":"arl","2618":"\u0120icy","2619":"\u0120respect","2620":"\u0120weird","2621":"\u0120snee","2622":"\u0120cri","2623":"\u0120gate","2624":"\u0120soap","2625":"rag","2626":"ute","2627":"issors","2628":"\u0120these","2629":"\u0120poor","2630":"\u0120towel","2631":"\u0120whale","2632":"\u0120feet","2633":"\u0120tape","2634":"\u0120dizzy","2635":"itter","2636":"\u0120generous","2637":"ndpa","2638":"\u0120pres","2639":"\u0120Benny","2640":"nic","2641":"\u0120disco","2642":"Help","2643":"ventually","2644":"\u0120picnic","2645":"\u0120mic","2646":"\u0120lead","2647":"\u0120sque","2648":"\u0120embarrassed","2649":"\u0120journey","2650":"\u0120sugar","2651":"isp","2652":"scape","2653":"\u0120boot","2654":"\u0120tent","2655":"\u0120peaceful","2656":"\u0120fat","2657":"\u0120Bear","2658":"\u0120scissors","2659":"\u0120tasted","2660":"\u0120yelled","2661":"Tommy","2662":"\u0120tick","2663":"\u0120mel","2664":"\u0120brush","2665":"\u0120dancing","2666":"ness","2667":"\u0120glue","2668":"\u0120hur","2669":"\u0120rough","2670":"\u0120clap","2671":"\u0120bridge","2672":"ote","2673":"\u0120decor","2674":"\u0120closet","2675":"\u0120crown","2676":"\u0120stir","2677":"ual","2678":"imp","2679":"\u0120print","2680":"\u0120Sometimes","2681":"owed","2682":"airs","2683":"\u0120How","2684":"ume","2685":"\u0120cap","2686":"\u0120lamp","2687":"\u0120vase","2688":"\u0120scare","2689":"lebr","2690":"\u0120relie","2691":"lves","2692":"any","2693":"\u0120eld","2694":"\u0120tele","2695":"\u0120celebr","2696":"\u0120gigg","2697":"\u0120whisp","2698":"\u0120log","2699":"\u0120sco","2700":"\u0120blow","2701":"\u0120painted","2702":"\u0120Ducky","2703":"\u0120pay","2704":"erries","2705":"\u0120wis","2706":"\u0120berries","2707":"\u0120mixed","2708":"\u0120spread","2709":"\u0120wouldn","2710":"\u0120cage","2711":"\u0120bake","2712":"rob","2713":"getable","2714":"\u0120mountain","2715":"\u0120adm","2716":"\u0120drawing","2717":"\u0120become","2718":"\u0120famous","2719":"\u0120knocked","2720":"\u0120bean","2721":"\u0120norm","2722":"\u0120vegetable","2723":"asp","2724":"\u0120kicked","2725":"ustr","2726":"\u0120shark","2727":"ser","2728":"\u0120incred","2729":"\u0120lose","2730":"\u0120normal","2731":"\u0120wrap","2732":"ced","2733":"\u0120group","2734":"\u0120thick","2735":"\u01203","2736":"\u0120fine","2737":"\u0120glass","2738":"\u0120ignor","2739":"\u0120clock","2740":"\u0120team","2741":"\u0120elderly","2742":"\u0120clear","2743":"\u0120corner","2744":"\u0120frustr","2745":"\u0120mighty","2746":"robe","2747":"\u0120cone","2748":"\u0120incredible","2749":"\u0120Br","2750":"ighed","2751":"Dad","2752":"\u0120moms","2753":"\u0120balance","2754":"\u0120sock","2755":"\u0120space","2756":"\u0120jam","2757":"ragile","2758":"\u0120fright","2759":"\u0120organized","2760":"\u0120branches","2761":"\u0120roar","2762":"port","2763":"\u0120sword","2764":"alous","2765":"\u0120Mama","2766":"\u0120guess","2767":"\u0120fool","2768":"\u0120sell","2769":"\u0120feed","2770":"\u0120Some","2771":"\u0120which","2772":"\u0120horn","2773":"\u0120present","2774":"\u0120jealous","2775":"\u0120yarn","2776":"ony","2777":"\u0120fragile","2778":"\u0120burn","2779":"\u0120understood","2780":"\u0120mis","2781":"\u0120stubb","2782":"\u0120ter","2783":"\u0120frustrated","2784":"Where","2785":"ray","2786":"\u0120hose","2787":"cient","2788":"\u0120spent","2789":"\u0120shoe","2790":"\u0120taught","2791":"\u0120stubborn","2792":"\u0120twist","2793":"\u0120creature","2794":"\u0120chest","2795":"\u0120spoiled","2796":"\u0120relieved","2797":"\u0120ancient","2798":"ique","2799":"\u0120wake","2800":"\u0120fier","2801":"\u0120pray","2802":"\u0120fierce","2803":"\u0120eggs","2804":"\u0120cab","2805":"\u0120terri","2806":"\u0120barn","2807":"\u0120pumpkin","2808":"\u0120comfortable","2809":"\u0120ord","2810":"ym","2811":"\u0120frightened","2812":"orry","2813":"\u0120toug","2814":"\u0120unique","2815":"\u0120measure","2816":"\u0120goat","2817":"\u0120wagon","2818":"\u0120unus","2819":"\u0120breath","2820":"\u0120foolish","2821":"\u0120useful","2822":"\u0120exploring","2823":"dle","2824":"\u0120straw","2825":"\u0120unusual","2826":"\u0120dug","2827":"\u0120clay","2828":"\u0120discover","2829":"\u0120tomato","2830":"\u0120Pe","2831":"\u0120dead","2832":"\u0120finding","2833":"\u0120police","2834":"\u0120wrote","2835":"\u0120clum","2836":"\u0120exam","2837":"lace","2838":"\u0120waves","2839":"\u0120square","2840":"\u0120hears","2841":"\u0120cabin","2842":"\u0120tells","2843":"\u0120necklace","2844":"\u0120dull","2845":"\u0120clumsy","2846":"\u0120tough","2847":"\u0120bubbles","2848":"\u0120nosy","2849":"kn","2850":"\u0120searched","2851":"Together","2852":"\u0120washed","2853":"\u0120bathroom","2854":"\u0120paws","2855":"bby","2856":"ond","2857":"unn","2858":"anged","2859":"\u0120board","2860":"fic","2861":"known","2862":"\u0120asking","2863":"\u0120crazy","2864":"\u0120thankful","2865":"\u0120sunf","2866":"\u0120bitter","2867":"yal","2868":"\u0120pir","2869":"berry","2870":"alk","2871":"\u0120ind","2872":"\u0120diffic","2873":"\u0120rose","2874":"cil","2875":"\u0120swan","2876":"\u0120bloom","2877":"\u0120unknown","2878":"\u0120Ella","2879":"\u0120covered","2880":"\u0120difficult","2881":"\u0120add","2882":"\u0120pencil","2883":"\u0120finger","2884":"\u0120ham","2885":"\u0120hoop","2886":"\u0120jet","2887":"\u0120witch","2888":"\u0120drop","2889":"Me","2890":"\u0120'","2891":"\u0120chicken","2892":"\u0120gloomy","2893":"apped","2894":"\u0120loyal","2895":"als","2896":"Here","2897":"\u0120wealthy","2898":"com","2899":"light","2900":"\u0120unl","2901":"\u0120cats","2902":"\u0120ending","2903":"\u0120guit","2904":"bled","2905":"shine","2906":"\u0120dove","2907":"\u0120joined","2908":"\u0120cher","2909":"anut","2910":"\u0120mov","2911":"\u0120terrible","2912":"\u0120yours","2913":"iant","2914":"\u0120U","2915":"\u0120Rex","2916":"\u0120salad","2917":"\u0120Andy","2918":"\u0120nuts","2919":"\u0120rat","2920":"ground","2921":"\u0120tiger","2922":"\u0120potato","2923":"\u0120mask","2924":"xible","2925":"selves","2926":"\u0120value","2927":"\u0120changed","2928":"\u0120moving","2929":"\u0120exciting","2930":"ormous","2931":"\u0120Many","2932":"\u0120body","2933":"\u0120Tr","2934":"\u0120toast","2935":"\u0120record","2936":"erp","2937":"\u0120zip","2938":"\u0120disg","2939":"\u0120cheap","2940":"\u0120guitar","2941":"irsty","2942":"\u0120knowing","2943":"\u0120adventur","2944":"\u0120yourself","2945":"\u0120enormous","2946":"\u0120hairy","2947":"Every","2948":"\u0120shoot","2949":"\u0120Brown","2950":"\u0120bored","2951":"\u0120pepper","2952":"\u0120remind","2953":"ory","2954":"land","2955":"\u0120acorn","2956":"\u0120adventurous","2957":"\u0120sunshine","2958":"\u0120smaller","2959":"\u0120stuff","2960":"\u0120hats","2961":"\u0120solve","2962":"\u0120Jimmy","2963":"\u0120flexible","2964":"\u0120cost","2965":"rilliant","2966":"\u0120knife","2967":"\u0120perform","2968":"\u0120snacks","2969":"\u0120nods","2970":"\u0120shore","2971":"\u0120brilliant","2972":"\u0120thirsty","2973":"\u0120delicate","2974":"\u0120frown","2975":"\u0120disgust","2976":"\u0120collect","2977":"\u0120stri","2978":"\u0120seeds","2979":"\u0120counted","2980":"\u0120asleep","2981":"\u0120banana","2982":"reen","2983":"\u0120mailbox","2984":"iness","2985":"\u0120dough","2986":"\u0120trick","2987":"\u0120neighbor","2988":"ungle","2989":"\u0120heal","2990":"live","2991":"Who","2992":"\u0120stage","2993":"ident","2994":"\u0120market","2995":"\u0120cube","2996":"\u0120stat","2997":"\u0120jungle","2998":"\u0120squee","2999":"mbre","3000":"\u0120explained","3001":"ates","3002":"\u0120umbre","3003":"\u0120disgusting","3004":"Jim","3005":"fted","3006":"\u0120lab","3007":"\u0120jolly","3008":"\u0120flash","3009":"und","3010":"\u0120fridge","3011":"inal","3012":"pid","3013":"ilt","3014":"\u0120crane","3015":"corn","3016":"\u0120suit","3017":"\u0120rh","3018":"iddle","3019":"\u0120sunflower","3020":"\u0120times","3021":"\u0120Al","3022":"erpill","3023":"\u0120caterpill","3024":"\u0120relax","3025":"\u0120shiver","3026":"\u0120four","3027":"\u0120island","3028":"iginal","3029":"\u0120harm","3030":"ict","3031":"\u0120While","3032":"ying","3033":"\u0120stupid","3034":"\u0120medic","3035":"\u0120Instead","3036":"\u0120comb","3037":"\u0120goose","3038":"\u0120cro","3039":"edient","3040":"\u0120Will","3041":"\u0120stove","3042":"If","3043":"Are","3044":"\u0120independ","3045":"Mum","3046":"most","3047":"\u0120spring","3048":"\u0120gem","3049":"\u0120batter","3050":"\u0120sighed","3051":"\u0120vegetables","3052":"\u0120stones","3053":"pes","3054":"\u0120shine","3055":"How","3056":"\u0120medicine","3057":"\u0120depend","3058":"\u0120rug","3059":"\u0120Your","3060":"\u0120careless","3061":"\u0120original","3062":"\u0120stamp","3063":"\u0120gar","3064":"\u0120cries","3065":"Inside","3066":"gu","3067":"\u0120carrots","3068":"\u0120scr","3069":"\u0120successful","3070":"\u0120sauce","3071":"\u0120jeep","3072":"\u0120popcorn","3073":"\u0120meal","3074":"\u0120obedient","3075":"\u0120almost","3076":"\u0120middle","3077":"\u0120magn","3078":"\u0120study","3079":"\u0120independent","3080":"\u0120fearful","3081":"\u0120jack","3082":"met","3083":"inky","3084":"Sorry","3085":"\u0120Sammy","3086":"\u0120escape","3087":"\u0120caterpillar","3088":"\u0120serious","3089":"\u0120peanut","3090":"\u0120bedroom","3091":"\u0120eager","3092":"aken","3093":"\u0120gets","3094":"\u0120parrot","3095":"\u0120statue","3096":"\u0120helmet","3097":"\u0120pebb","3098":"\u0120No","3099":"\u0120fountain","3100":"\u0120raven","3101":"\u0120ang","3102":"\u0120pasta","3103":"\u0120umbrella","3104":"\u0120compet","3105":"There","3106":"\u0120jacket","3107":"\u0120belonged","3108":"\u0120dest","3109":"\u0120filthy","3110":"\u0120design","3111":"\u0120borrow","3112":"\u0120cam","3113":"erable","3114":"\u0120houses","3115":"\u0120prize","3116":"\u0120hay","3117":"\u0120brace","3118":"\u0120standing","3119":"\u0120miserable","3120":"\u0120raced","3121":"\u0120taken","3122":"ages","3123":"\u0120fork","3124":"\u0120crayon","3125":"\u0120painting","3126":"io","3127":"\u0120triang","3128":"\u0120impressive","3129":"\u0120choose","3130":"\u0120fig","3131":"\u0120tied","3132":"iable","3133":"\u0120spotted","3134":"\u0120lifted","3135":"\u0120slipped","3136":"ours","3137":"\u0120tank","3138":"\u0120thoughtful","3139":"\u0120dependable","3140":"\u0120steal","3141":"\u0120garage","3142":"enny","3143":"\u0120built","3144":"\u0120mush","3145":"\u0120er","3146":"ipe","3147":"\u0120mole","3148":"\u0120crawled","3149":"\u0120scale","3150":"\u0120boats","3151":"\u0120pian","3152":"\u0120pant","3153":"\u0120hammer","3154":"\u0120bottom","3155":"lph","3156":"\u0120cheerful","3157":"\u0120using","3158":"\u0120smoke","3159":"\u0120picks","3160":"\u0120moder","3161":"berries","3162":"\u0120shows","3163":"rn","3164":"\u0120piano","3165":"\u0120magnet","3166":"dile","3167":"codile","3168":"\u0120hurts","3169":"inary","3170":"\u0120ref","3171":"\u0120crack","3172":"\u0120eng","3173":"\u0120aunt","3174":"\u0120melon","3175":"\u0120waff","3176":"\u0120modern","3177":"\u0120dolph","3178":"unnel","3179":"cream","3180":"pack","3181":"\u0120tunnel","3182":"oin","3183":"\u0120arrow","3184":"\u0120reliable","3185":"\u0120hopping","3186":"\u0120mushroom","3187":"\u0120jug","3188":"Timmy","3189":"\u0120squash","3190":"\u0120gum","3191":"\u0120sink","3192":"\u0120movie","3193":"\u0120tax","3194":"\u0120flute","3195":"\u0120beet","3196":"\u0120lean","3197":"Their","3198":"iv","3199":"\u0120popular","3200":"opter","3201":"icopter","3202":"\u0120cryst","3203":"\u0120ones","3204":"\u0120sil","3205":"\u0120competit","3206":"\u0120helicopter","3207":"aser","3208":"\u0120needs","3209":"ipop","3210":"llipop","3211":"\u0120crocodile","3212":"\u0120liz","3213":"Molly","3214":"\u0120press","3215":"\u0120troubled","3216":"\u0120pige","3217":"\u0120locked","3218":"\u0120tricks","3219":"\u0120lollipop","3220":"\u0120playful","3221":"\u0120humble","3222":"\u0120taxi","3223":"\u0120kissed","3224":"\u0120low","3225":"appy","3226":"comfortable","3227":"amond","3228":"\u0120uncomfortable","3229":"\u0120rid","3230":"host","3231":"\u0120wander","3232":"atch","3233":"\u0120angel","3234":"edy","3235":"cles","3236":"\u0120torn","3237":"\u0120grace","3238":"\u0120anx","3239":"\u0120wrapped","3240":"\u0120muff","3241":"\u0120twig","3242":"\u0120pants","3243":"\u0120disappoin","3244":"\u0120Sn","3245":"\u0120helps","3246":"\u0120diamond","3247":"\u0120camera","3248":"atter","3249":"oto","3250":"\u0120anxious","3251":"\u0120ghost","3252":"\u0120tears","3253":"\u0120ruined","3254":"cident","3255":"\u0120Jenny","3256":"ilty","3257":"\u0120quar","3258":"aff","3259":"\u0120Even","3260":"\u0120fis","3261":"opl","3262":"\u0120belt","3263":"eropl","3264":"\u0120env","3265":"\u0120guilty","3266":"\u0120bull","3267":"\u0120aeropl","3268":"\u0120helpless","3269":"\u0120happiness","3270":"\u0120lizard","3271":"\u0120boys","3272":"cut","3273":"ext","3274":"\u0120cere","3275":"\u0120walks","3276":"cean","3277":"\u0120passed","3278":"\u0120meant","3279":"\u0120ocean","3280":"\u0120fluffy","3281":"\u0120wire","3282":"\u0120nail","3283":"\u0120bracelet","3284":"\u0120deaf","3285":"zed","3286":"\u0120stretch","3287":"\u0120candle","3288":"\u0120cact","3289":"tt","3290":"\u0120beetle","3291":"\u0120mop","3292":"\u0120harmless","3293":"umpet","3294":"\u0120ordinary","3295":"\u0120answered","3296":"\u0120collar","3297":"\u0120cop","3298":"\u0120bees","3299":"\u0120tire","3300":"\u0120shape","3301":"\u0120quarrel","3302":"\u0120radio","3303":"\u0120flashlight","3304":"\u0120crystal","3305":"\u0120harder","3306":"\u0120poured","3307":"\u0120trumpet","3308":"\u0120engine","3309":"Mama","3310":"\u0120persist","3311":"\u0120hunt","3312":"\u0120tooth","3313":"\u0120cereal","3314":"\u0120invited","3315":"\u0120comput","3316":"\u0120tag","3317":"\u0120office","3318":"\u0120melt","3319":"\u0120spill","3320":"\u0120charm","3321":"coa","3322":"\u0120lit","3323":"\u0120scoot","3324":"\u0120comet","3325":"\u0120triangle","3326":"ief","3327":"\u0120mug","3328":"\u0120rep","3329":"ube","3330":"\u0120yogurt","3331":"\u0120spend","3332":"\u0120compass","3333":"\u0120accident","3334":"\u0120shade","3335":"hett","3336":"aghett","3337":"aghetti","3338":"\u0120disappointed","3339":"\u0120licked","3340":"\u0120cactus","3341":"\u0120pale","3342":"\u0120cush","3343":"\u0120figure","3344":"\u0120regular","3345":"\u0120giving","3346":"\u0120avoc","3347":"\u0120pro","3348":"\u0120sheet","3349":"\u0120whispered","3350":"aze","3351":"uth","3352":"ellig","3353":"\u0120create","3354":"\u0120barber","3355":"\u0120intellig","3356":"\u0120pipe","3357":"\u0120rode","3358":"\u0120roof","3359":"Jane","3360":"\u0120thread","3361":"ither","3362":"\u0120vi","3363":"\u0120load","3364":"\u0120libr","3365":"\u0120gifted","3366":"ccol","3367":"\u0120practiced","3368":"\u0120delight","3369":"ccoli","3370":"\u0120harsh","3371":"asses","3372":"\u0120pow","3373":"\u0120dust","3374":"\u0120True","3375":"\u0120bicy","3376":"azz","3377":"\u0120spaghetti","3378":"\u0120compassion","3379":"\u0120sailed","3380":"urkey","3381":"ubby","3382":"\u0120forward","3383":"\u0120persistent","3384":"\u0120speed","3385":"\u0120mitten","3386":"\u0120cocoa","3387":"\u0120envel","3388":"\u0120questions","3389":"\u0120computer","3390":"\u0120coo","3391":"\u0120feathers","3392":"hip","3393":"\u0120glove","3394":"ging","3395":"Bobo","3396":"\u0120rice","3397":"\u0120shrimp","3398":"\u0120desk","3399":"\u0120stream","3400":"\u0120inse","3401":"\u0120pigeon","3402":"\u0120charming","3403":"\u0120ears","3404":"\u0120carp","3405":"lcan","3406":"\u0120raft","3407":"\u0120envious","3408":"\u0120knot","3409":"\u0120turkey","3410":"\u0120stronger","3411":"omes","3412":"\u0120coins","3413":"\u0120tap","3414":"lcano","3415":"weet","3416":"\u0120trap","3417":"umbers","3418":"\u0120aeroplane","3419":"\u0120trunk","3420":"\u0120wheat","3421":"\u0120boxes","3422":"\u0120chubby","3423":"\u0120carpet","3424":"\u0120restless","3425":"\u0120intelligent","3426":"\u0120tube","3427":"\u0120spun","3428":"\u0120dreams","3429":"\u0120friendship","3430":"ulif","3431":"olin","3432":"\u0120half","3433":"\u0120loop","3434":"\u0120crawl","3435":"\u0120broccoli","3436":"\u0120onion","3437":"\u0120deliver","3438":"anger","3439":"\u0120acce","3440":"\u0120vide","3441":"\u0120volcano","3442":"\u0120Jake","3443":"\u0120sle","3444":"\u0120track","3445":"\u0120bri","3446":"\u0120caulif","3447":"\u0120vine","3448":"ye","3449":"\u0120ticket","3450":"\u0120thief","3451":"essie","3452":"cycle","3453":"\u0120louder","3454":"\u0120insect","3455":"\u0120numbers","3456":"asing","3457":"\u0120yaw","3458":"\u0120haircut","3459":"ital","3460":"\u0120sleeping","3461":"\u0120mill","3462":"\u0120eventually","3463":"\u0120alert","3464":"\u0120excite","3465":"\u0120pebble","3466":"\u0120hosp","3467":"\u0120attract","3468":"\u0120planet","3469":"\u0120Today","3470":"\u0120univer","3471":"isted","3472":"ulu","3473":"\u0120hospital","3474":"\u0120eraser","3475":"\u0120returned","3476":"\u0120destro","3477":"\u0120graceful","3478":"\u0120happening","3479":"ache","3480":"\u0120OK","3481":"\u0120Emily","3482":"\u0120decide","3483":"\u0120learning","3484":"\u0120screen","3485":"rework","3486":"\u0120nicely","3487":"\u0120leop","3488":"\u0120cauliflower","3489":"\u0120competitive","3490":"\u0120poem","3491":"\u0120celebrate","3492":"\u0120curt","3493":"\u0120peach","3494":"\u0120soldier","3495":"\u0120saus","3496":"\u0120parade","3497":"atient","3498":"\u0120attractive","3499":"\u0120curtain","3500":"\u0120dolphin","3501":"\u0120base","3502":"\u0120violin","3503":"\u0120ways","3504":"Go","3505":"ats","3506":"\u0120travel","3507":"ten","3508":"\u0120rod","3509":"\u0120ignorant","3510":"ulb","3511":"\u0120wheels","3512":"\u0120yach","3513":"\u0120scatter","3514":"\u0120deter","3515":"\u0120compassionate","3516":"\u0120barrel","3517":"\u0120envelope","3518":"\u0120bubble","3519":"\u0120lying","3520":"\u0120firework","3521":"\u0120sort","3522":"\u0120question","3523":"zzy","3524":"\u0120Pipp","3525":"\u0120scooter","3526":"\u0120determ","3527":"\u0120rag","3528":"\u0120thu","3529":"\u0120bicycle","3530":"elery","3531":"\u0120needle","3532":"\u0120Fr","3533":"\u0120judge","3534":"\u0120bulb","3535":"\u0120leopard","3536":"\u0120tem","3537":"\u0120yacht","3538":"\u0120pony","3539":"\u0120cricket","3540":"\u0120order","3541":"\u0120homes","3542":"\u0120ador","3543":"tern","3544":"\u0120truth","3545":"\u0120hook","3546":"dom","3547":"\u0120rubbed","3548":"ete","3549":"igator","3550":"\u0120bushes","3551":"Sarah","3552":"\u0120uncle","3553":"\u0120cushion","3554":"\u0120spell","3555":"\u0120grown","3556":"\u0120cooked","3557":"\u0120adorable","3558":"\u0120chalk","3559":"\u0120soar","3560":"\u0120purse","3561":"\u0120skin","3562":"\u0120themselves","3563":"\u0120impatient","3564":"\u0120celery","3565":"\u0120tray","3566":"\u0120shells","3567":"\u0120pengu","3568":"\u0120sniff","3569":"\u0120prun","3570":"\u0120walls","3571":"\u0120seal","3572":"\u0120lively","3573":"\u0120case","3574":"\u0120alligator","3575":"\u0120distant","3576":"\u0120radish","3577":"\u0120saying","3578":"\u0120speak","3579":"\u0120motorcycle","3580":"\u0120meat","3581":"\u0120send","3582":"illa","3583":"\u0120spinning","3584":"\u0120forth","3585":"\u0120counting","3586":"\u0120enth","3587":"\u0120bounced","3588":"\u0120chain","3589":"\u0120ed","3590":"\u0120cleaning","3591":"ebra","3592":"\u0120film","3593":"\u0120slept","3594":"\u0120pit","3595":"\u0120surf","3596":"\u0120marry","3597":"usia","3598":"\u0120wallet","3599":"\u0120enthusia","3600":"\u0120metal","3601":"urb","3602":"ebook","3603":"\u0120bin","3604":"\u0120week","3605":"\u0120notebook","3606":"\u0120wiped","3607":"\u0120skip","3608":"ision","3609":"chair","3610":"\u0120biggest","3611":"\u0120impro","3612":"\u0120avocado","3613":"\u0120behave","3614":"\u0120destroy","3615":"vator","3616":"\u0120bandage","3617":"\u0120laughs","3618":"\u0120steak","3619":"\u0120pattern","3620":"\u0120Sh","3621":"\u0120post","3622":"\u0120elevator","3623":"\u0120Buzz","3624":"usie","3625":"\u0120dive","3626":"\u0120shut","3627":"\u0120skipped","3628":"\u0120unlock","3629":"\u0120diary","3630":"dest","3631":"ject","3632":"\u0120zebra","3633":"\u0120bags","3634":"ating","3635":"\u0120armchair","3636":"rage","3637":"aged","3638":"\u0120disturb","3639":"\u0120oy","3640":"\u0120pole","3641":"\u0120showing","3642":"\u0120gathered","3643":"\u0120club","3644":"\u0120nurse","3645":"bul","3646":"\u0120earth","3647":"\u0120enc","3648":"\u0120stranger","3649":"\u0120sweater","3650":"\u0120jellyfish","3651":"\u0120screw","3652":"\u0120temp","3653":"\u0120Poppy","3654":"\u0120compl","3655":"\u0120mixer","3656":"Give","3657":"\u0120skull","3658":"\u0120lime","3659":"\u0120bump","3660":"bulance","3661":"\u0120ambulance","3662":"nam","3663":"\u0120father","3664":"\u0120journal","3665":"Gra","3666":"\u0120loudly","3667":"ito","3668":"\u0120folder","3669":"\u0120shield","3670":"\u0120Bet","3671":"\u0120Lulu","3672":"\u0120library","3673":"\u0120Peter","3674":"\u0120buttons","3675":"\u0120playground","3676":"\u0120trucks","3677":"\u0120ink","3678":"\u0120lights","3679":"\u0120tummy","3680":"\u0120pointing","3681":"\u0120city","3682":"\u0120decorate","3683":"\u0120station","3684":"irit","3685":"\u0120prep","3686":"\u0120falls","3687":"quito","3688":"\u0120Polly","3689":"Billy","3690":"\u0120fu","3691":"\u0120Fo","3692":"ention","3693":"nger","3694":"\u0120Birdy","3695":"lies","3696":"\u0120herb","3697":"nament","3698":"\u0120ornament","3699":"\u0120modest","3700":"\u0120guard","3701":"\u0120mos","3702":"\u0120knows","3703":"\u0120cord","3704":"\u0120polish","3705":"\u0120marble","3706":"oby","3707":"\u0120mosquito","3708":"umbled","3709":"\u0120salt","3710":"\u0120attic","3711":"\u0120whenever","3712":"\u0120vest","3713":"ctop","3714":"\u0120resc","3715":"\u0120yet","3716":"\u0120ple","3717":"\u0120disappeared","3718":"ceed","3719":"\u0120strawberry","3720":"\u0120once","3721":"\u0120Mum","3722":"\u0120kay","3723":"\u0120brothers","3724":"\u0120itch","3725":"\u0120pirate","3726":"\u0120football","3727":"\u0120split","3728":"kele","3729":"keleton","3730":"\u0120hipp","3731":"\u0120aut","3732":"\u0120led","3733":"uring","3734":"ctopus","3735":"\u0120driving","3736":"\u0120cable","3737":"\u0120support","3738":"\u0120calling","3739":"\u0120cupboard","3740":"aky","3741":"ushed","3742":"\u0120wishes","3743":"\u0120complet","3744":"\u0120tripped","3745":"\u0120root","3746":"\u0120kayak","3747":"\u0120octopus","3748":"obile","3749":"\u0120added","3750":"\u0120edge","3751":"\u0120mild","3752":"stic","3753":"\u0120determined","3754":"\u0120succeed","3755":"?\".","3756":"\u0120reading","3757":"omobile","3758":"\u0120coal","3759":"Well","3760":"gl","3761":"utes","3762":"par","3763":"\u0120suggest","3764":"\u0120stack","3765":"\u0120thunder","3766":"\u0120kindness","3767":"\u0120automobile","3768":"\u0120complain","3769":"\u0120enthusiastic","3770":"\u0120sneeze","3771":"\u0120cartoon","3772":"\u0120yoga","3773":"\u0120Little","3774":"\u0120growl","3775":"htub","3776":"\u0120flea","3777":"la","3778":"\u0120meadow","3779":"\u0120drawer","3780":"\u0120bathtub","3781":"\u0120ribb","3782":"ophone","3783":"\u0120means","3784":"\u0120hall","3785":"\u0120golf","3786":"\u0120skeleton","3787":"\u0120math","3788":"\u0120veil","3789":"\u0120hunter","3790":"\u0120gor","3791":"\u0120flame","3792":"\u0120poke","3793":"\u0120video","3794":"\u0120chess","3795":"\u0120troph","3796":"\u0120cups","3797":"\u0120glowing","3798":"\u0120matt","3799":"\u0120oyster","3800":"work","3801":"\u0120penny","3802":"\u0120spear","3803":"\u0120itself","3804":"\u0120drawings","3805":"\u0120hippo","3806":"\u0120repair","3807":"\u0120switch","3808":"glasses","3809":"\u0120sunglasses","3810":"\u0120teleph","3811":"\u0120costume","3812":"\u0120dess","3813":"\u0120zipp","3814":",\u00e2\u0122\u013f","3815":"\u0120repe","3816":"\u0120muffin","3817":"\u0120arg","3818":"\u0120pastry","3819":"\u0120pun","3820":"\u0120rolling","3821":"\u0120minutes","3822":"\u0120packed","3823":"\u0120makeup","3824":"iron","3825":"ric","3826":"\u0120People","3827":"\u0120waffle","3828":"case","3829":"\u0120handle","3830":"\u0120pear","3831":"\u0120maze","3832":"\u0120telephone","3833":"\u0120pine","3834":"ait","3835":"\u0120gear","3836":"\u0120hedge","3837":"\u0120mattress","3838":"\u0120package","3839":"aving","3840":"\u0120Miss","3841":"\u0120shocked","3842":"ines","3843":"\u0120trophy","3844":"\u0120powder","3845":"\u0120knight","3846":"\u0120cob","3847":"\u0120missile","3848":"\u0120managed","3849":"\u0120frame","3850":"\u0120encou","3851":"\u0120wife","3852":"\u0120ok","3853":"\u0120separ","3854":"web","3855":"\u0120stairs","3856":"\u0120rot","3857":"\u0120camp","3858":"urch","3859":"rophone","3860":"\u0120magaz","3861":"\u0120strugg","3862":"\u0120colour","3863":"\u0120grapes","3864":"time","3865":"\u0120file","3866":"head","3867":"\u0120Tina","3868":"\u0120basketball","3869":"Bye","3870":"old","3871":"per","3872":"\u0120cobweb","3873":"Re","3874":"Jimmy","3875":"\u0120Tweet","3876":"See","3877":"\u0120perm","3878":"\u0120wool","3879":"\u0120Dan","3880":"\u0120microphone","3881":"esday","3882":"\u0120eye","3883":"\u0120leash","3884":"\u0120gasp","3885":"iew","3886":"keep","3887":"\u0120weep","3888":"\u0120barking","3889":"ature","3890":"\u0120safely","3891":"\u0120tear","3892":"\u0120view","3893":"ffe","3894":"\u0120slides","3895":"\u0120steps","3896":"istol","3897":"ffee","3898":"\u0120bananas","3899":"\u0120staff","3900":"\u0120spirit","3901":"\u0120task","3902":"\u0120giggled","3903":"\u0120hoc","3904":"\u0120hockey","3905":"\u0120vend","3906":"\u0120those","3907":"\u0120gorilla","3908":"Jill","3909":"\u0120cooler","3910":"\u0120Rose","3911":"was","3912":"cing","3913":"\u0120early","3914":"\u0120marched","3915":"rosc","3916":"\u0120mint","3917":"\u0120Look","3918":"washer","3919":"\u0120flour","3920":"\u0120hotel","3921":"hic","3922":"\u0120sailor","3923":"\u0120dessert","3924":"\u0120photo","3925":"roscope","3926":"\u0120vehic","3927":"ilot","3928":"\u0120often","3929":"\u0120church","3930":"\u0120Pete","3931":"\u0120cooking","3932":"\u0120remain","3933":"\u0120five","3934":"\u0120sausage","3935":"otter","3936":"\u0120ten","3937":"\u0120tools","3938":"\u0120medal","3939":"\u0120either","3940":"\u0120fireman","3941":"chor","3942":"\u0120grandpa","3943":"\u0120otter","3944":"\u0120baseball","3945":"\u0120pretending","3946":"\u0120pistol","3947":"\u0120dishwasher","3948":"\u0120rever","3949":"\u0120organize","3950":"\u0120pee","3951":"\u0120vendor","3952":"\u0120knock","3953":"\u0120sight","3954":"\u0120grill","3955":"\u0120temple","3956":"\u0120battery","3957":"\u0120thinking","3958":"\u0120opens","3959":"\u0120ow","3960":"\u0120realised","3961":"\u0120iron","3962":"\u0120laser","3963":"\u0120sne","3964":"\u0120sandbox","3965":"\u0120oil","3966":"\u0120patch","3967":"\u0120hours","3968":"\u0120rise","3969":"\u0120whip","3970":"'d","3971":"ctory","3972":"\u0120Give","3973":"\u0120anchor","3974":"\u0120trash","3975":"ense","3976":"\u0120short","3977":"ney","3978":"\u0120Betty","3979":"\u0120rhin","3980":"\u0120factory","3981":"seum","3982":"\u0120may","3983":"\u0120ward","3984":"ately","3985":"\u0120cardboard","3986":"ugged","3987":"\u0120lotion","3988":"Al","3989":"\u0120message","3990":"\u0120valu","3991":"\u0120wardrobe","3992":"\u0120cell","3993":"\u0120museum","3994":"apers","3995":"\u0120ur","3996":"ination","3997":"\u0120hanging","3998":"ucet","3999":"ailable","4000":"\u0120Sunny","4001":"\u0120Zoom","4002":"\u0120hive","4003":"eer","4004":"\u0120towers","4005":"keeper","4006":"\u0120blackboard","4007":"\u0120mem","4008":"\u0120excitement","4009":"\u0120coffee","4010":"\u0120pilot","4011":"ready","4012":"Fluffy","4013":"\u0120napkin","4014":"\u0120penguin","4015":"ron","4016":"\u0120check","4017":"\u0120reward","4018":"loo","4019":"\u0120quit","4020":"\u0120Pippin","4021":"\u0120cane","4022":"\u0120picking","4023":"place","4024":"\u0120Snow","4025":"azor","4026":"\u0120faucet","4027":"\u0120ig","4028":"\u0120passport","4029":"\u0120Rob","4030":"\u0120stumbled","4031":"\u0120dreamed","4032":"\u0120igloo","4033":"\u0120Bessie","4034":"aroo","4035":"angaroo","4036":"\u0120freez","4037":"\u0120juicy","4038":"\u0120allowed","4039":"play","4040":"\u0120holds","4041":"\u0120already","4042":"\u0120available","4043":"\u0120sett","4044":"\u0120bathe","4045":"\u0120tornado","4046":"imney","4047":"\u0120fingers","4048":"htray","4049":"\u0120hanger","4050":"\u0120newsp","4051":"\u0120size","4052":"\u0120laund","4053":"\u0120lend","4054":"\u0120chimney","4055":"\u0120laundry","4056":"\u0120oak","4057":"\u0120fisher","4058":"\u0120kangaroo","4059":"\u0120men","4060":"\u0120Everywhere","4061":"\u0120telling","4062":"Em","4063":"\u0120novel","4064":"body","4065":"\u0120mummy","4066":"\u0120pal","4067":"\u0120mule","4068":"\u0120cherries","4069":"\u0120notice","4070":"\u0120practice","4071":"\u0120spilled","4072":"\u0120reind","4073":"\u0120complete","4074":"\u0120enjoying","4075":"\u0120microscope","4076":"arian","4077":"ampoo","4078":"\u0120gain","4079":"\u0120sub","4080":"\u0120fireplace","4081":"\u0120imagine","4082":"anda","4083":"\u0120display","4084":"ocer","4085":"\u0120Zip","4086":"\u0120fastest","4087":"\u0120magazine","4088":"\u0120hurry","4089":"\u0120cabinet","4090":"\u0120shrink","4091":"\u0120ashtray","4092":"Wait","4093":"\u0120cows","4094":"\u0120Spike","4095":"Joe","4096":"gen","4097":"\u0120palace","4098":"\u0120improve","4099":"aches","4100":"\u0120rake","4101":"\u0120reindeer","4102":"\u0120falling","4103":"oceros","4104":"\u0120skirt","4105":"ured","4106":"\u0120discovered","4107":"\u0120stared","4108":"\u0120roared","4109":"aid","4110":"\u0120silver","4111":"\u0120tub","4112":"\u0120trail","4113":"Is","4114":"\u0120miner","4115":"come","4116":"\u0120bill","4117":"iction","4118":"\u0120fog","4119":"\u0120ax","4120":"stairs","4121":"ilet","4122":"\u0120hut","4123":"\u0120happier","4124":"\u0120taller","4125":"ictionary","4126":"\u0120oats","4127":"\u0120fisherman","4128":"\u0120object","4129":"\u0120por","4130":"vision","4131":"\u0120valuable","4132":"\u0120shampoo","4133":"\u0120holes","4134":"\u0120offered","4135":"\u0120boots","4136":"\u0120rhinoceros","4137":"\u0120names","4138":"\u0120toilet","4139":"\u0120climbing","4140":"\u0120blin","4141":"vice","4142":"Ow","4143":"\u0120stretched","4144":"iest","4145":"\u0120zipper","4146":"\u0120listening","4147":"\u0120sym","4148":"\u0120bathrobe","4149":"alend","4150":"\u0120jewelry","4151":"\u0120Here","4152":"\u0120jokes","4153":"\u0120television","4154":"\u0120prov","4155":"\u0120calend","4156":"\u0120stops","4157":"\u0120axe","4158":"\u0120jumps","4159":"\u0120fuel","4160":"cu","4161":"\u0120sparkly","4162":"\u0120perfume","4163":"\u0120Susie","4164":"\u0120bury","4165":"bol","4166":"Mummy","4167":"lu","4168":"\u0120pressed","4169":"\u0120Kim","4170":"reek","4171":"\u0120rece","4172":"fa","4173":"\u0120Toby","4174":"\u0120neat","4175":"\u0120creek","4176":"\u0120popped","4177":"\u0120opera","4178":"\u0120calendar","4179":"\u0120snap","4180":"\u0120gasped","4181":"\u0120attach","4182":"\u0120symbol","4183":"\u0120tuna","4184":"\u0120Mar","4185":"\u0120papers","4186":"Mr","4187":"\u0120unpack","4188":"\u0120resist","4189":"\u0120dictionary","4190":"\u0120subway","4191":"\u0120letters","4192":"\u0120freezer","4193":"\u0120chose","4194":"\u0120pinch","4195":"zag","4196":"\u0120spoke","4197":"\u0120anyway","4198":"\u0120super","4199":"\u0120porch","4200":"\u0120helper","4201":"affe","4202":"\u0120bikes","4203":"\u0120lie","4204":"arry","4205":"iches","4206":"\u0120tightly","4207":"\u0120comfort","4208":"\u0120shaking","4209":"\u0120bookcase","4210":"\u0120son","4211":"\u0120razor","4212":"aurant","4213":"\u0120sandwiches","4214":"\u0120Are","4215":"igzag","4216":"\u0120weigh","4217":"\u0120against","4218":"\u0120stickers","4219":"\u0120restaurant","4220":"\u0120newspaper","4221":"\u0120blouse","4222":"\u0120vehicle","4223":"\u0120swinging","4224":"\u0120ped","4225":"\u0120disag","4226":"\u0120nature","4227":"\u0120squirrels","4228":"ival","4229":"\u0120belongs","4230":"\u0120swamp","4231":"\u0120butterflies","4232":"\u0120gym","4233":"del","4234":"\u0120inclu","4235":"\u0120growing","4236":"\u0120buckle","4237":"omed","4238":"\u0120stirred","4239":"\u0120mustache","4240":"\u0120billboard","4241":"xy","4242":"\u0120beep","4243":"te","4244":"\u0120alarm","4245":"\u0120lightning","4246":"\u0120lip","4247":"\u0120fest","4248":"\u0120hung","4249":"utor","4250":"\u0120distance","4251":"ogn","4252":"\u0120cards","4253":"\u0120obser","4254":"\u0120agree","4255":"Little","4256":"\u0120ext","4257":"\u0120tease","4258":"\u0120recogn","4259":"\u0120rubber","4260":"ik","4261":"\u0120hate","4262":"fast","4263":"ef","4264":"Ouch","4265":"\u0120doesn","4266":"\u0120musician","4267":"\u0120advice","4268":"\u0120beef","4269":"\u0120serve","4270":"aspoon","4271":"\u0120sweetie","4272":"\u0120model","4273":"lter","4274":"\u0120crib","4275":"\u0120blueberries","4276":"\u0120sofa","4277":"\u0120circles","4278":"\u0120breakfast","4279":"\u0120tutor","4280":"asis","4281":"\u0120bookshe","4282":"\u0120giraffe","4283":"stri","4284":"\u0120festival","4285":"\u0120separate","4286":"\u0120shelter","4287":"\u0120gas","4288":"\u0120airport","4289":"\u0120olive","4290":"\u0120rail","4291":"\u0120bookshelf","4292":"\u0120frogs","4293":"\u0120teaspoon","4294":"\u0120reverse","4295":"\u0120junk","4296":"\u0120riding","4297":"\u0120pleased","4298":"\u0120drain","4299":"\u0120Mrs","4300":"\u0120wipe","4301":"\u0120oasis","4302":"\u0120soil","4303":"\u0120ahead","4304":"\u0120rescue","4305":"\u0120leaving","4306":"ummer","4307":"\u0120painter","4308":"\u0120squeeze","4309":"\u0120chance","4310":"\u0120poked","4311":"\u0120knob","4312":"\u0120Teddy","4313":"\u0120peeked","4314":"\u0120lumber","4315":"\u0120trains","4316":"\u0120extra","4317":"\u0120slipp","4318":"\u0120quiz","4319":"\u0120refused","4320":"res","4321":"rmomet","4322":"\u0120page","4323":"\u0120rules","4324":"\u0120happens","4325":"\u0120sounded","4326":"\u0120ins","4327":"\u0120point","4328":"\u0120winter","4329":"\u0120dancer","4330":"\u0120Grandpa","4331":"\u0120birdc","4332":"\u0120disappear","4333":"rmometer","4334":"\u0120Dolly","4335":"\u0120weather","4336":"\u0120waste","4337":"\u0120lic","4338":"\u0120birdcage","4339":"\u0120theater","4340":"\u0120reef","4341":"\u0120carrying","4342":"Daisy","4343":"\u0120invite","4344":"iform","4345":"\u0120goal","4346":"\u0120ostri","4347":"\u0120uniform","4348":"\u0120swung","4349":"\u0120trade","4350":"\u0120cliff","4351":"ience","4352":"\u0120lawn","4353":"ola","4354":"\u0120leaned","4355":"\u0120Pandy","4356":"angu","4357":"\u0120accept","4358":"\u0120admire","4359":"\u0120fort","4360":"\u0120accidentally","4361":"\u0120pastel","4362":"bbles","4363":"\u0120stom","4364":"\u0120langu","4365":"\u0120twir","4366":"\u0120suff","4367":"\u0120panda","4368":"riger","4369":"\u0120bet","4370":"rigerator","4371":"\u0120peek","4372":"render","4373":"\u0120blinked","4374":"\u0120starts","4375":"na","4376":"\u0120refrigerator","4377":"\u0120anywhere","4378":"!\".","4379":"\u0120imagined","4380":"\u0120dreaming","4381":"\u0120remove","4382":"night","4383":"\u0120shower","4384":"\u0120Lee","4385":"\u0120Co","4386":"\u0120classroom","4387":"\u0120ceiling","4388":"\u0120caring","4389":"ium","4390":"\u0120grand","4391":"\u0120missing","4392":"aked","4393":"\u0120license","4394":"\u0120stable","4395":"\u0120thermometer","4396":"\u0120monkeys","4397":"astic","4398":"\u0120warned","4399":"\u0120summer","4400":"\u0120Where","4401":"\u0120above","4402":"\u0120brick","4403":"ected","4404":"\u0120cudd","4405":"\u0120problems","4406":"amber","4407":"\u0120chasing","4408":"\u0120label","4409":"\u0120apron","4410":"\u0120sent","4411":"urnit","4412":"urniture","4413":"\u0120lawy","4414":"\u0120lid","4415":"uggage","4416":"med","4417":"\u0120respectful","4418":"\u0120furniture","4419":"\u0120frowned","4420":"\u0120zoomed","4421":"\u0120pages","4422":"\u0120prevent","4423":"\u0120bent","4424":"\u0120luggage","4425":"\u0120mistakes","4426":"\u0120sunset","4427":"\u0120ostrich","4428":"ison","4429":"\u0120suggested","4430":"\u0120windows","4431":"ations","4432":"\u0120jail","4433":"low","4434":"\u0120wine","4435":"\u0120ribbon","4436":"\u0120older","4437":"\u0120shouts","4438":"\u0120grape","4439":"\u0120Cl","4440":"\u0120wigg","4441":"ucture","4442":"\u0120structure","4443":"\u0120spoil","4444":"eor","4445":"\u0120fixing","4446":"\u0120chamber","4447":"\u0120lions","4448":"\u0120delay","4449":"\u0120finds","4450":"\u0120handed","4451":"\u0120searching","4452":"\u0120unite","4453":"Did","4454":"\u0120fought","4455":"\u0120lawyer","4456":"\u0120brightly","4457":"\u0120pair","4458":"\u0120meeting","4459":"\u0120choice","4460":"\u0120surprises","4461":"\u0120Ellie","4462":"\u0120art","4463":"\u0120Un","4464":"Ch","4465":"\u0120favour","4466":"eterin","4467":"eterinarian","4468":"adium","4469":"\u0120stadium","4470":"\u0120proudly","4471":"iki","4472":"\u0120veterinarian","4473":"vet","4474":"rod","4475":"\u0120chairs","4476":"\u0120slip","4477":"\u0120Spe","4478":"\u0120sadly","4479":"\u0120Bow","4480":"\u0120incre","4481":"\u0120Carl","4482":"\u0120puddles","4483":"\u0120berry","4484":"\u0120introd","4485":"\u0120ranch","4486":"veal","4487":"\u0120Boun","4488":"\u0120argue","4489":"\u0120V","4490":"\u0120admired","4491":"\u0120cur","4492":"\u0120favourite","4493":"Your","4494":"\u0120inf","4495":"\u0120excitedly","4496":"\u0120rac","4497":"\u0120grabs","4498":"mend","4499":"\u0120steam","4500":"thank","4501":"\u0120human","4502":"eorge","4503":"sity","4504":"\u0120Hel","4505":"\u0120pushing","4506":"\u0120saving","4507":"\u0120Red","4508":"\u0120reveal","4509":"ommend","4510":"alley","4511":"\u0120yield","4512":"olog","4513":"\u0120mall","4514":"\u0120reminded","4515":"\u0120recommend","4516":"\u0120leak","4517":"\u0120surrender","4518":"\u0120harb","4519":"\u0120appl","4520":"cuss","4521":"aul","4522":"\u0120weap","4523":"\u0120regret","4524":"\u0120putting","4525":"\u0120valley","4526":"\u0120mineral","4527":"\u0120evening","4528":"elcome","4529":"\u0120matches","4530":"\u0120forgave","4531":"\u0120sneezed","4532":"\u0120pup","4533":"\u0120aw","4534":"\u0120rushed","4535":"ecause","4536":"\u0120spade","4537":"\u0120apolog","4538":"\u0120plates","4539":"\u0120discuss","4540":"\u0120prepare","4541":"\u0120harbor","4542":"\u0120ignore","4543":"\u0120Big","4544":"\u0120country","4545":"\u0120language","4546":"\u0120Buzzy","4547":"\u0120pulls","4548":"\u0120plastic","4549":"\u0120supply","4550":"\u0120float","4551":"\u0120sniffed","4552":"\u0120Jazz","4553":"\u0120replace","4554":"\u0120meas","4555":"\u0120shovel","4556":"\u0120Bill","4557":"\u0120raise","4558":"\u0120Next","4559":"\u0120fre","4560":"\u0120cared","4561":"\u0120socks","4562":"\u0120strip","4563":"\u0120doors","4564":"\u0120mystery","4565":"\u0120lives","4566":"\u0120restore","4567":"\u0120sticker","4568":"\u0120sudden","4569":"ari","4570":"\u0120kinds","4571":"\u0120slippery","4572":"ero","4573":"\u0120Ow","4574":"\u0120player","4575":"\u0120panic","4576":"ricane","4577":"\u0120hoping","4578":"iday","4579":"\u0120shone","4580":"lex","4581":"hero","4582":"\u0120beg","4583":"\u0120Mike","4584":"\u0120Binky","4585":"\u0120superhero","4586":"\u0120delighted","4587":"\u0120gro","4588":"Yay","4589":"aud","4590":"chan","4591":"\u0120chickens","4592":"\u0120shoulder","4593":"\u0120rained","4594":"\u0120colourful","4595":"\u0120breat","4596":"\u0120Alice","4597":"\u0120claw","4598":"\u0120Bubbles","4599":"Yuck","4600":"\u0120softly","4601":"rise","4602":"\u0120port","4603":"Grandma","4604":"\u0120hol","4605":"icer","4606":"\u0120holiday","4607":"\u0120\u00e2\u0122","4608":"\u0120barks","4609":"ason","4610":"\u0120throwing","4611":"\u0120planes","4612":"Mary","4613":"\u0120bend","4614":"\u0120Freddy","4615":"\u0120shakes","4616":"\u0120infant","4617":"\u0120ended","4618":"\u0120shivering","4619":"\u0120kneel","4620":"\u0120sunrise","4621":"\u0120pushes","4622":"\u0120Olive","4623":"\u0120thanks","4624":"\u0120fresh","4625":"\u0120suffer","4626":"\u0120points","4627":"imed","4628":"wards","4629":"\u0120Pat","4630":"\u0120tip","4631":"\u0120Speedy","4632":"\u0120freeze","4633":"\u0120keeping","4634":"\u0120Would","4635":"\u0120giggle","4636":"\u0120copper","4637":"\u0120smells","4638":"\u0120dear","4639":"\u0120enter","4640":"\u0120provide","4641":"cast","4642":"chanic","4643":"\u0120dishes","4644":"\u0120End","4645":"cond","4646":"\u0120unh","4647":"Next","4648":"\u0120applaud","4649":"\u0120heads","4650":"\u0120hurricane","4651":"\u0120cherry","4652":"\u0120thumb","4653":"\u0120menu","4654":"\u0120meowed","4655":"\u0120mass","4656":"\u0120second","4657":"\u0120brighter","4658":"ince","4659":"\u0120sandcast","4660":"\u0120mechanic","4661":"\u0120wre","4662":"\u0120sprayed","4663":"\u0120letting","4664":"\u0120event","4665":"\u0120weapon","4666":"\u0120laught","4667":"\u0120x","4668":"\u0120laughter","4669":"\u0120clapping","4670":"\u0120feelings","4671":"Will","4672":"icky","4673":"\u0120splashing","4674":"ement","4675":"\u0120Or","4676":"acked","4677":"\u0120castles","4678":"\u0120Fl","4679":"cer","4680":"\u0120score","4681":"apping","4682":"\u0120universe","4683":"\u0120navy","4684":"\u0120dem","4685":"\u0120sticky","4686":"ophie","4687":"\u0120rooms","4688":"\u0120row","4689":"\u0120flies","4690":"igi","4691":"\u0120Dave","4692":"\u0120unhappy","4693":"\u0120greedy","4694":"\u0120dare","4695":"\u0120alive","4696":"\u0120breaks","4697":"\u0120ener","4698":"\u0120courage","4699":"\u0120invit","4700":"Ready","4701":"\u0120repeat","4702":"\u0120demand","4703":"\u0120trusted","4704":"Lisa","4705":"\u0120somewhere","4706":"arlie","4707":"\u0120prune","4708":"bles","4709":"\u0120wreck","4710":"\u0120Y","4711":"\u0120skill","4712":"\u0120examine","4713":"\u0120parts","4714":"year","4715":"\u0120eaten","4716":"oe","4717":"All","4718":"erc","4719":"enry","4720":"\u0120mention","4721":"\u0120raining","4722":"\u0120Help","4723":"Buddy","4724":"\u0120throws","4725":"\u0120jogged","4726":"quest","4727":"\u0120starting","4728":"\u0120rush","4729":"\u0120poison","4730":"\u0120pirates","4731":"heart","4732":"\u0120vac","4733":"\u0120content","4734":"Emma","4735":"\u0120Kiki","4736":"\u0120sigh","4737":"\u0120flapped","4738":"\u0120drops","4739":"\u0120chirp","4740":"\u0120sport","4741":"Qu","4742":"\u0120sparkled","4743":"\u0120Zoomy","4744":"\u0120given","4745":"\u0120streng","4746":"\u0120steel","4747":"Ann","4748":"\u0120bumped","4749":"\u0120yawned","4750":"\u0120stud","4751":"\u0120request","4752":"\u0120scold","4753":"\u0120myself","4754":"\u0120strength","4755":"\u0120shrugged","4756":"Mark","4757":"\u0120coats","4758":"\u0120punish","4759":"\u0120equ","4760":"\u0120snugg","4761":"\u0120university","4762":"\u0120paid","4763":"\u0120Johnny","4764":"\u0120pigs","4765":"\u0120scratch","4766":"\u0120toe","4767":"\u0120exerc","4768":"\u0120tracks","4769":"\u0120upstairs","4770":"\u0120prayed","4771":"\u0120crossed","4772":"\u0120squeezed","4773":"\u0120impressed","4774":"\u0120flood","4775":"\u0120bouncing","4776":"\u0120Ru","4777":"Alice","4778":"\u0120rabbits","4779":"ges","4780":"\u0120badly","4781":"..","4782":"\u0120warn","4783":"\u0120leather","4784":"\u0120expect","4785":"\u0120news","4786":"\u0120tide","4787":"\u0120Ted","4788":"\u0120minute","4789":"\u0120bears","4790":"\u0120claws","4791":"\u0120buzz","4792":"\u0120sweetheart","4793":"\u0120Sm","4794":"yth","4795":"\u0120nation","4796":"Sh","4797":"ythm","4798":"\u0120vacation","4799":"\u0120hist","4800":"\u0120heat","4801":"\u0120strawberries","4802":"\u0120observe","4803":"\u0120explored","4804":"\u0120settle","4805":"\u0120sandcastle","4806":"\u0120yawn","4807":"\u0120history","4808":"\u0120Lilly","4809":"\u0120Lola","4810":"mare","4811":"\u0120Mummy","4812":"\u0120Sque","4813":"ially","4814":"inking","4815":"\u0120believed","4816":"\u0120horses","4817":"Daddy","4818":"\u0120Hoppy","4819":"\u0120checked","4820":"\u0120Mandy","4821":"\u0120tour","4822":"\u0120network","4823":"\u0120cheek","4824":"\u0120Under","4825":"\u0120offer","4826":"\u0120easily","4827":"\u0120placed","4828":"spec","4829":"\u0120spots","4830":"\u0120snowball","4831":"ween","4832":"men","4833":"\u0120energy","4834":"\u0120Bee","4835":"\u0120imagination","4836":"\u0120blueberry","4837":"otten","4838":"\u0120between","4839":"specially","4840":"\u0120Gigi","4841":"izes","4842":"\u0120daisy","4843":"\u0120waving","4844":"reeze","4845":"reat","4846":"\u0120vroom","4847":"\u0120soak","4848":"\u0120safari","4849":"\u0120rhythm","4850":"\u0120massage","4851":"\u0120stomach","4852":"\u0120baking","4853":"quake","4854":"\u0120nightmare","4855":"\u0120insisted","4856":"\u0120blowing","4857":"\u0120entered","4858":"Before","4859":"\u0120stair","4860":"\u0120palm","4861":"\u0120beauty","4862":"\u0120twisted","4863":"\u0120bother","4864":"\u0120writing","4865":"\u0120scoop","4866":"\u0120prunes","4867":"\u0120brain","4868":"\u0120ing","4869":"ipment","4870":"\u0120poppy","4871":"\u0120hills","4872":"noon","4873":"\u0120afternoon","4874":"\u0120equipment","4875":"\u0120especially","4876":"hest","4877":"\u0120sir","4878":"\u0120pad","4879":"\u0120See","4880":"\u0120ingred","4881":"\u0120calls","4882":"\u0120ingredient","4883":"\u0120Fox","4884":"\u0120earthquake","4885":"\u0120ignored","4886":"\u0120Snowy","4887":"\u0120burned","4888":"\u0120nobody","4889":"mble","4890":"\u0120sty","4891":"apa","4892":"\u0120sew","4893":"\u0120tug","4894":"isty","4895":"xygen","4896":"\u0120hearts","4897":"\u0120lear","4898":"\u0120learnt","4899":"\u0120lemonade","4900":"\u0120increase","4901":"illie","4902":"Jenny","4903":"\u0120gaz","4904":"\u0120backpack","4905":"\u0120mailman","4906":"\u0120whistled","4907":"\u0120pedal","4908":"\u0120Sk","4909":"Fred","4910":"\u0120shopkeeper","4911":"ffic","4912":"\u0120permit","4913":"\u0120tremble","4914":"\u0120yucky","4915":"anges","4916":"\u0120moves","4917":"\u0120introduce","4918":"\u0120lemons","4919":"\u0120crash","4920":"\u0120beans","4921":"\u0120floated","4922":"edn","4923":"ednesday","4924":"ittens","4925":"Welcome","4926":"\u0120planned","4927":"\u0120strike","4928":"\u0120traffic","4929":"\u0120include","4930":"\u0120slap","4931":"\u0120racing","4932":"\u0120Lucky","4933":"resses","4934":"\u0120wisdom","4935":"\u0120pur","4936":"\u0120wags","4937":"\u0120Finny","4938":"laimed","4939":"\u0120George","4940":"\u0120luck","4941":"\u0120following","4942":"\u0120\u010a","4943":"\u0120price","4944":"ecting","4945":"\u0120mama","4946":"\u0120pitch","4947":"\u0120below","4948":"\u0120Elly","4949":"\u0120Have","4950":"Le","4951":"\u0120weight","4952":"\u0120exclaimed","4953":"house","4954":"\u0120buried","4955":"\u0120follows","4956":"\u0120comf","4957":"\u0120recognize","4958":"\u0120ingredients","4959":"\u0120furt","4960":"tain","4961":"\u0120candles","4962":"Mimi","4963":"\u0120marbles","4964":"riage","4965":"unday","4966":"emember","4967":"eration","4968":"\u0120Alex","4969":"\u0120apart","4970":"\u0120Wednesday","4971":"\u0120growled","4972":"uct","4973":"\u0120Su","4974":"ores","4975":"\u0120conf","4976":"\u0120teaching","4977":"\u0120hopes","4978":"\u0120folded","4979":"\u0120closely","4980":"\u0120Finn","4981":"\u0120Who","4982":"\u0120heel","4983":"\u0120Sunday","4984":"\u0120encourage","4985":"\u0120Paul","4986":"\u0120Owl","4987":"\u0120zigzag","4988":"\u0120pulling","4989":"\u0120digg","4990":"\u0120bouncy","4991":"\u0120further","4992":"\u0120chewed","4993":"\u0120digging","4994":"\u0120winning","4995":"Woof","4996":"With","4997":"\u0120dresses","4998":"\u0120image","4999":"rec","5000":"cery","5001":"\u0120shouting","5002":"\u0120grocery","5003":"\u0120twisty","5004":"\u0120peanuts","5005":"\u0120puzzles","5006":"bbing","5007":"\u0120Dog","5008":"look","5009":"\u0120scrat","5010":"\u0120chores","5011":"\u0120whisper","5012":"\u0120Is","5013":"\u0120spike","5014":"\u0120Froggy","5015":"\u0120cape","5016":"\u0120snail","5017":"\u0120acorns","5018":"\u0120worms","5019":"hood","5020":"\u0120deeper","5021":"\u0120urge","5022":"ifi","5023":"\u0120exper","5024":"\u0120Whenever","5025":"\u0120Tilly","5026":"\u0120Squeaky","5027":"\u0120Grace","5028":"\u0120planted","5029":"\u0120attention","5030":"ecture","5031":"\u0120exercise","5032":"\u0120Danny","5033":"\u0120cub","5034":"\u0120operation","5035":"\u0120underground","5036":"\u0120hon","5037":"\u0120agre","5038":"\u0120quite","5039":"\u0120creatures","5040":"\u0120simp","5041":"Everyone","5042":"\u0120struggle","5043":"oral","5044":"\u0120Mittens","5045":"ddy","5046":"\u0120blood","5047":"\u0120lecture","5048":"\u0120washing","5049":"\u0120hurting","5050":"\u0120vanished","5051":"\u0120gifts","5052":"\u0120dressed","5053":"\u0120invitation","5054":"\u0120solved","5055":"\u0120licks","5056":"\u0120snuggled","5057":"\u0120Sharing","5058":"ippy","5059":"\u0120ble","5060":"\u0120marriage","5061":"\u0120quietly","5062":"gie","5063":"\u0120warning","5064":"\u0120jazz","5065":"\u0120breathe","5066":"reci","5067":"\u0120elephants","5068":"\u0120sizes","5069":"\u0120dried","5070":"\u0120fallen","5071":"\u0120landscape","5072":"ories","5073":"\u0120sprink","5074":"\u0120neighbour","5075":"\u0120mice","5076":"uesday","5077":"\u0120appreci","5078":"\u0120Sophie","5079":"\u0120Joey","5080":"\u0120\u00e2\u0122\u0135","5081":"\u0120eagerly","5082":"\u0120sailing","5083":"\u0120Coco","5084":"\u0120paused","5085":"ips","5086":"\u0120counter","5087":"\u0120Good","5088":"\u0120Bounce","5089":"\u0120Penny","5090":"\u0120worth","5091":"looking","5092":"\u0120Rock","5093":"\u0120oxygen","5094":"Because","5095":"\u0120release","5096":"\u0120shined","5097":"Not","5098":"pted","5099":"\u0120reaches","5100":"\u0120balan","5101":"\u0120Zara","5102":"isses","5103":"\u0120oh","5104":"\u0120kisses","5105":"\u0120style","5106":"\u0120bricks","5107":"\u0120plays","5108":"\u0120glo","5109":"\u0120Tuesday","5110":"\u0120ideas","5111":"sed","5112":"\u0120inst","5113":"\u0120wob","5114":"\u0120fireworks","5115":"Bella","5116":"iggly","5117":"ucked","5118":"\u0120seeing","5119":"\u0120flap","5120":"ops","5121":"\u0120accepted","5122":"right","5123":"\u0120Pip","5124":"Today","5125":"\u0120blink","5126":"mm","5127":"\u0120Ros","5128":"\u0120tremb","5129":"These","5130":"\u0120muddy","5131":"\u0120memory","5132":"\u0120married","5133":"\u0120tomatoes","5134":"\u0120exit","5135":"\u0120Annie","5136":"\u0120wagging","5137":"\u0120fash","5138":"Remy","5139":"\u0120Charlie","5140":"\u0120wandered","5141":"unately","5142":"ipping","5143":"\u0120gloves","5144":"\u0120captain","5145":"\u0120pillows","5146":"\u0120receive","5147":"\u0120resp","5148":"\u0120Pinky","5149":"raged","5150":"\u0120during","5151":"\u0120Everything","5152":"etch","5153":"\u0120web","5154":"\u0120petals","5155":"\u0120watered","5156":"\u0120Eventually","5157":"\u0120si","5158":"ived","5159":"\u0120manage","5160":"\u0120pinched","5161":"\u0120brings","5162":"\u0120vanish","5163":"\u0120cakes","5164":"\u0120fashion","5165":"\u0120Bluey","5166":"\u0120printer","5167":"\u0120destroyed","5168":"\u0120treasures","5169":"nce","5170":"\u0120allow","5171":"ups","5172":"\u0120hadn","5173":"\u0120worse","5174":"\u0120Fifi","5175":"Surpr","5176":"\u0120vel","5177":"\u0120hits","5178":"\u0120bur","5179":"xu","5180":"\u0120velvet","5181":"\u0120appear","5182":"\u0120disagree","5183":"do","5184":"\u0120catching","5185":"\u0120scattered","5186":"\u0120Ro","5187":"\u0120memories","5188":"\u0120sorts","5189":"\u0120Papa","5190":"\u0120hers","5191":"\u0120scolded","5192":"\u0120signs","5193":"\u0120pears","5194":"\u0120oranges","5195":"\u0120bones","5196":"\u0120rang","5197":"\u0120snapped","5198":"\u0120sits","5199":"\u0120seats","5200":"uxu","5201":"\u0120gazed","5202":"\u0120raised","5203":"Bl","5204":"\u0120Maria","5205":"\u0120zipped","5206":"\u0120pies","5207":"\u0120prints","5208":"\u0120shot","5209":"\u0120sliding","5210":"\u0120God","5211":"\u0120fro","5212":"\u0120easier","5213":"ssible","5214":"\u0120skills","5215":"\u0120climbs","5216":"\u0120twirled","5217":"ccer","5218":"\u0120blankets","5219":"\u0120forgotten","5220":"\u0120baked","5221":"ester","5222":"Yum","5223":"esterday","5224":"\u0120difference","5225":"orted","5226":"\u0120luxu","5227":"\u0120golden","5228":"ising","5229":"\u0120kitty","5230":"\u0120Tw","5231":"\u0120cutting","5232":"\u0120season","5233":"aggie","5234":"\u0120nowhere","5235":"\u0120crow","5236":"ah","5237":"\u0120soccer","5238":"\u0120dared","5239":"\u0120bites","5240":"\u0120Henry","5241":"\u0120Harry","5242":"anny","5243":"\u0120lung","5244":"\u0120celebrated","5245":"choo","5246":"chie","5247":"\u0120straight","5248":"\u0120unlocked","5249":"sters","5250":"\u0120sorting","5251":"\u0120collected","5252":"\u0120bleed","5253":"aped","5254":"ding","5255":"\u0120welcomed","5256":"\u0120visited","5257":"\u0120spoons","5258":"\u0120ours","5259":"\u0120stitch","5260":"\u0120jogging","5261":"Surprise","5262":"medi","5263":"\u0120emer","5264":"\u0120Spark","5265":"mediately","5266":"\u0120isn","5267":"\u0120tong","5268":"\u0120trave","5269":"\u0120winner","5270":"umble","5271":"\u0120since","5272":"\u0120ruin","5273":"\u0120prett","5274":"Ok","5275":"Moral","5276":"\u0120Tony","5277":"\u0120attached","5278":"\u0120weeping","5279":"\u0120marching","5280":"\u0120luxury","5281":"\u0120simple","5282":"\u0120Each","5283":"\u0120shouldn","5284":"\u0120guessed","5285":"\u0120zero","5286":"\u0120created","5287":"\u0120stuffed","5288":"\u0120pets","5289":"ction","5290":"\u0120waist","5291":"\u0120famil","5292":"\u0120urged","5293":"\u0120bowed","5294":"\u0120selling","5295":"\u0120floating","5296":"rr","5297":"\u0120Smith","5298":"\u0120bye","5299":"\u0120King","5300":"\u0120vict","5301":"\u0120kingdom","5302":"\u0120olives","5303":"\u0120kicking","5304":"\u0120Wiggly","5305":"\u0120punished","5306":"\u0120Liz","5307":"\u0120Baby","5308":"sit","5309":"\u0120toes","5310":"\u0120grant","5311":"\u0120muscles","5312":"\u0120jewels","5313":"\u0120Rosie","5314":"\u0120beds","5315":"\u0120melted","5316":"Goodbye","5317":"\u0120slice","5318":"\u0120grin","5319":"\u0120understanding","5320":"\u0120collection","5321":"\u0120tore","5322":"\u0120measured","5323":"aker","5324":"\u0120cras","5325":"omeday","5326":"iers","5327":"\u0120trapped","5328":"\u0120lined","5329":"'ve","5330":"\u0120acted","5331":"fortunately","5332":"\u0120encouraged","5333":"va","5334":"\u0120Sandy","5335":"\u0120received","5336":"\u0120waffles","5337":"\u0120Before","5338":"\u0120Wally","5339":"\u0120west","5340":"\u0120meow","5341":"ents","5342":"\u0120patterns","5343":"rin","5344":"ino","5345":"\u0120brus","5346":"eath","5347":"\u0120mouths","5348":"kins","5349":"\u0120bang","5350":"ring","5351":"\u0120Kate","5352":"Meow","5353":"\u0120peaches","5354":"\u0120breeze","5355":"aded","5356":"une","5357":"\u0120printed","5358":"\u0120soldiers","5359":"\u0120someday","5360":"\u0120potatoes","5361":"\u0120pupil","5362":"umes","5363":"\u0120Millie","5364":"\u0120drinks","5365":"\u0120shed","5366":"\u0120experience","5367":"\u0120Tuna","5368":"\u0120presents","5369":"\u0120firef","5370":"\u0120Ruby","5371":"\u0120surround","5372":"\u0120none","5373":"osed","5374":"\u0120voices","5375":"eep","5376":"\u0120drinking","5377":"\u0120Uncle","5378":"ishing","5379":"\u0120relaxed","5380":"\u0120victory","5381":"cus","5382":"\u0120paints","5383":"\u0120breaking","5384":"eve","5385":"\u0120hurried","5386":"ission","5387":"\u0120twink","5388":"\u0120tongue","5389":"\u0120costumes","5390":"\u0120flat","5391":"\u0120mentioned","5392":"\u0120begged","5393":"\u0120teasing","5394":"\u0120whistling","5395":"\u0120fetch","5396":"\u0120permission","5397":"\u0120sip","5398":"\u0120disagreed","5399":"\u0120pearl","5400":"akes","5401":"\u0120stro","5402":"vest","5403":"\u0120These","5404":"\u0120esc","5405":"\u0120appro","5406":"\u0120skipping","5407":"\u0120fishing","5408":"\u0120May","5409":"Leo","5410":"\u0120highest","5411":"\u0120pra","5412":"\u0120watches","5413":"\u0120sorted","5414":"\u0120ringing","5415":"ship","5416":"\u0120tonight","5417":"\u0120Bo","5418":"\u0120opin","5419":"\u0120lets","5420":"icing","5421":"\u0120Qu","5422":"\u0120perfectly","5423":"\u0120shadows","5424":"\u0120immediately","5425":"\u0120herbs","5426":"\u0120warmth","5427":"\u0120spit","5428":"\u0120remained","5429":"ther","5430":"\u0120Its","5431":"walk","5432":"Bobby","5433":"irring","5434":"Jen","5435":"\u0120sneak","5436":"\u0120six","5437":"\u0120lips","5438":"\u0120kneeled","5439":"Blue","5440":"\u0120contest","5441":"\u0120Che","5442":"utter","5443":"\u0120cartoons","5444":"\u0120sidewalk","5445":"\u0120colours","5446":"\u0120stamps","5447":"\u0120ago","5448":"Ha","5449":"\u0120Toto","5450":"\u0120Boo","5451":"\u0120Follow","5452":"\u0120east","5453":"\u0120headed","5454":"oved","5455":"\",","5456":"\u0120strang","5457":"\u0120ladyb","5458":"\u0120fed","5459":"\u0120supposed","5460":"\u0120roots","5461":"\u0120lick","5462":"\u0120crunch","5463":"\u0120mixing","5464":"\u0120works","5465":"\u0120decorations","5466":"\u0120melting","5467":"\u0120known","5468":"\u0120emergen","5469":"Mandy","5470":"\u0120rested","5471":"\u0120Ab","5472":"\u0120lines","5473":"\u0120Suzy","5474":"\u0120lily","5475":"\u0120Jul","5476":"\u0120instr","5477":"\u0120laid","5478":"\u0120Gr","5479":"\u0120succeeded","5480":"\u0120cones","5481":"\u0120wiggle","5482":"ety","5483":"sing","5484":"\u0120shock","5485":"\u0120setting","5486":"\u0120Slow","5487":"\u0120studied","5488":"\u0120strangers","5489":"\u0120Rocky","5490":"Really","5491":"\u0120twigs","5492":"\u0120brid","5493":"\u0120theirs","5494":"\u0120Dr","5495":"\u0120girls","5496":"boo","5497":"!\",","5498":"\u0120screams","5499":"\u0120lands","5500":"\u0120ordered","5501":"\u0120stirring","5502":"\u0120moments","5503":"\u0120fields","5504":"\u0120alright","5505":"\u0120stealing","5506":"ded","5507":"Andy","5508":"\u0120rul","5509":"\u0120bravely","5510":"avid","5511":"\u0120Both","5512":"\u0120mister","5513":"!'","5514":"\u0120invest","5515":"\u0120scratched","5516":"\u0120playtime","5517":"\u0120ripped","5518":"\u0120investig","5519":"\u0120tucked","5520":"\u0120resting","5521":"\u0120burning","5522":"ishes","5523":"\u0120Clara","5524":"\u0120Chicky","5525":"\u0120bridges","5526":"\u0120officer","5527":"please","5528":"Sammy","5529":"Bird","5530":"abies","5531":"\u0120settled","5532":"\u0120matched","5533":"\u0120achie","5534":"\u0120tex","5535":"\u0120texture","5536":"Happy","5537":"\u0120waits","5538":"\u0120turning","5539":"\u0120Sky","5540":"Peter","5541":"ored","5542":"\u0120trembling","5543":"isten","5544":"\u0120nails","5545":"atie","5546":"\u0120muffins","5547":"\u0120Someone","5548":"ids","5549":"\u0120escaped","5550":"\u0120James","5551":"\u0120piles","5552":"\u0120investigate","5553":"osity","5554":"\u0120broom","5555":"\u0120ladybug","5556":"\u0120sore","5557":"\u0120Pepper","5558":"\u0120appreciate","5559":"\u0120admir","5560":"\u0120threat","5561":"\u0120babies","5562":"\u0120silence","5563":"\u0120sisters","5564":"\u0120emergency","5565":"\u0120area","5566":"ides","5567":"\u0120dads","5568":"\u0120answers","5569":"\u0120pupp","5570":"\u0120keys","5571":"\u0120chewing","5572":"\u0120slapped","5573":"\u0120wiz","5574":"\u0120importance","5575":"Boo","5576":"\u0120served","5577":"\u0120Hop","5578":"\u0120safety","5579":"izing","5580":"Bu","5581":"Would","5582":"\u0120sparkle","5583":"\u0120touching","5584":"\u0120Later","5585":"\u0120soared","5586":"igail","5587":"\u0120sings","5588":"\u0120hen","5589":"allen","5590":"Ella","5591":"bers","5592":"antly","5593":"Momo","5594":"\u0120Dino","5595":"\u0120keeps","5596":"\u0120amazement","5597":"\u0120challen","5598":"\u0120twin","5599":"\u0120hesit","5600":"\u0120revealed","5601":"anna","5602":"achel","5603":"\u0120item","5604":"\u0120dire","5605":"\u0120soaked","5606":"zing","5607":"\u0120writ","5608":"\u0120foods","5609":"\u0120rides","5610":"\u0120dinosaurs","5611":"\u0120recorded","5612":"\u0120tickle","5613":"\u0120inch","5614":"\u0120Zigzag","5615":"\u0120Me","5616":"\u0120wizard","5617":"\u0120vet","5618":"\u0120trips","5619":"\u0120glowed","5620":"\u0120An","5621":"\u0120Frog","5622":"Mmm","5623":"\u0120hi","5624":"\u0120beamed","5625":"\u0120quack","5626":"\u0120curled","5627":"\u0120hated","5628":"\u0120wink","5629":"\u0120shopping","5630":"\u0120eats","5631":"Eventually","5632":"\u0120Bug","5633":"\u0120praised","5634":"\u0120wooden","5635":"\u0120bringing","5636":"\u0120mittens","5637":"\u0120studying","5638":"\u0120guy","5639":"\u0120brushes","5640":"\u0120spaceship","5641":"\u0120gust","5642":"\u0120crawling","5643":"\u0120Something","5644":"Cat","5645":"\u0120ruler","5646":"\u0120flav","5647":"\u0120downstairs","5648":"\u0120shooting","5649":"\u0120tastes","5650":"\u0120napping","5651":"\u0120sprinkles","5652":"\u0120marks","5653":"\u0120cuddled","5654":"\u0120dot","5655":"hello","5656":"plash","5657":"\u0120fut","5658":"ales","5659":"aved","5660":"\u0120future","5661":"\u0120monsters","5662":"\u0120collecting","5663":"\u0120measuring","5664":"\u0120Happy","5665":"'.","5666":"\u0120families","5667":"\u0120Out","5668":"\u0120First","5669":"\u0120Mo","5670":"\u0120thrill","5671":"\u0120oat","5672":"irts","5673":"\u0120result","5674":"Jake","5675":"\u0120approached","5676":"\u0120Rabbit","5677":"\u0120crunchy","5678":"act","5679":"Un","5680":"\u0120remem","5681":"\u0120bleeding","5682":"\u0120remembers","5683":"\u0120nicer","5684":"\u0120beat","5685":"\u0120sneaky","5686":"\u0120disturbed","5687":"\u0120leader","5688":"\u0120scaring","5689":"Or","5690":"hind","5691":"\u0120peel","5692":"\u0120Hope","5693":"\u0120firemen","5694":"\u0120neighborhood","5695":"\u0120Star","5696":"\u0120grey","5697":"\u0120Not","5698":"\u0120motion","5699":"\u0120noon","5700":"\u0120possible","5701":"Emily","5702":"Somet","5703":"\u0120apologized","5704":"\u0120weighed","5705":"ues","5706":"\u0120Did","5707":"\u0120tickets","5708":"Cl","5709":"\u0120naps","5710":"\u0120loose","5711":"\u0120pride","5712":"\u0120youth","5713":"\u0120swims","5714":"ped","5715":"\u0120strings","5716":"\u0120recognized","5717":"\u0120siren","5718":"\u0120poking","5719":"fied","5720":"\u0120Ho","5721":"cious","5722":"ha","5723":"elvet","5724":"\u0120tricked","5725":"\u0120wonders","5726":"\u0120gained","5727":"\u0120wanting","5728":"\u0120crashed","5729":"\u0120obe","5730":"\u0120seesaw","5731":"\u0120worker","5732":"unnies","5733":"ls","5734":"oming","5735":"\u0120draws","5736":"\u0120scooped","5737":".'","5738":"\u0120zooming","5739":"\u0120opinion","5740":"\u0120yelling","5741":"\u0120prepared","5742":"\u0120grinned","5743":"\u0120Slowly","5744":"\u0120awe","5745":"\u0120poems","5746":"\u0120doggy","5747":"\u0120acting","5748":"\u0120Beep","5749":"\u0120happiest","5750":"\u0120chef","5751":"\u0120sneaked","5752":"\u0120respons","5753":"\u0120eff","5754":"\u0120Always","5755":"\u0120Lizzy","5756":"\u0120owned","5757":"\u0120bunnies","5758":"\u0120anytime","5759":"\u0120struck","5760":"\u0120pedals","5761":"oys","5762":"\u0120knelt","5763":"ena","5764":"Ollie","5765":"\u0120secrets","5766":"\u0120pause","5767":"\u0120decorated","5768":"\u0120horns","5769":"\u0120agreement","5770":"\u0120Squ","5771":"ided","5772":"\u0120frost","5773":"\u0120tallest","5774":"\u0120obey","5775":"Remember","5776":"riends","5777":"ogo","5778":"\u0120Stop","5779":"Have","5780":"\u0120decides","5781":"\u0120Once","5782":"\u0120behaved","5783":"\u0120tugged","5784":"\u0120sides","5785":"\u0120woof","5786":"\u0120slim","5787":"zen","5788":"\u0120goodnight","5789":"\u0120keeper","5790":"\u0120sparkling","5791":"\u0120chirped","5792":"\u0120precious","5793":"mother","5794":"lier","5795":"ien","5796":"Tr","5797":"\u0120repeated","5798":"\u0120claps","5799":"indy","5800":"affes","5801":"\u0120snowballs","5802":"\u0120contain","5803":"ud","5804":"rs","5805":"\u0120Ray","5806":"\u0120ourselves","5807":"allow","5808":"\u0120giraffes","5809":"\u0120balancing","5810":"\u0120kindly","5811":"\u0120spending","5812":"\u0120writes","5813":"ays","5814":"ppers","5815":"\u0120Like","5816":"omas","5817":"\u0120prop","5818":"\u0120hissed","5819":"First","5820":"\u0120frozen","5821":"\u0120frosting","5822":"\u0120effort","5823":"\u0120buzzing","5824":"\u0120struggled","5825":"oh","5826":"\u0120Steve","5827":"\u0120admiring","5828":"\u0120rele","5829":"iggy","5830":"\u0120sweeties","5831":"\u0120Velvet","5832":"\u0120slimy","5833":"\u0120brushed","5834":"\u0120bloomed","5835":"Susie","5836":"\u0120Am","5837":"\u0120polished","5838":"\u0120Zoe","5839":"arth","5840":"anted","5841":"\u0120comfy","5842":"\u0120boo","5843":"\u0120staying","5844":"\u0120rubbing","5845":"Ducky","5846":"\u0120rocking","5847":"\u0120pockets","5848":"\u0120thrilled","5849":"\u0120beside","5850":"\u0120comple","5851":"\u0120Aunt","5852":"\u0120Maggie","5853":"Ah","5854":"\u0120eight","5855":"urry","5856":"isdom","5857":"\u0120machines","5858":"\u0120earlier","5859":"\u0120yesterday","5860":"\u0120seems","5861":"\u0120rust","5862":"\u0120Keep","5863":"Sp","5864":"\u0120traveled","5865":"\u0120folding","5866":"\u0120boom","5867":"\u0120cracked","5868":"ities","5869":"\u0120hugging","5870":"\u0120radishes","5871":"\u0120Stitch","5872":"\u0120opening","5873":"\u0120loving","5874":"\u0120circus","5875":"\u0120surrounded","5876":"\u0120curiosity","5877":"\u0120Rachel","5878":"\u0120spraying","5879":"\u0120demanded","5880":"\u0120paintings","5881":"amie","5882":"\u0120Green","5883":"\u0120removed","5884":"\u0120gaze","5885":"\u0120honk","5886":"\u0120pebbles","5887":"\u0120zookeeper","5888":"\u0120hardly","5889":"\u0120catches","5890":"edding","5891":"\u0120sting","5892":"\u0120stripes","5893":"\u0120powers","5894":"\u0120loaded","5895":"\u0120Pippa","5896":"Sometimes","5897":"\u0120splashes","5898":"\u0120pots","5899":"\u0120petted","5900":"\u0120matching","5901":"\u0120David","5902":"Thanks","5903":"\u0120toss","5904":"\u0120stare","5905":"\u0120belly","5906":"Yummy","5907":"ibb","5908":"\u0120whatever","5909":"\u0120apologize","5910":"\u0120rocked","5911":"\u0120comforted","5912":"\u0120Bree","5913":"\u0120decision","5914":"\u0120ribbons","5915":"\u0120Joy","5916":"\u0120Birdie","5917":"ern","5918":"\u0120struggling","5919":"\u0120expected","5920":"\u0120deser","5921":"\u0120steep","5922":"wh","5923":"\u0120protected","5924":"\u0120neighbors","5925":"\u0120smiley","5926":"\u0120chases","5927":"During","5928":"\u0120granted","5929":"\u0120crumb","5930":"\u0120Mat","5931":"\u0120purred","5932":"\u0120diving","5933":"\u0120sadness","5934":"Whiskers","5935":"\u0120organizing","5936":"lowers","5937":"\u0120eagle","5938":"\u0120heroes","5939":"\u0120dipped","5940":"\u0120sunlight","5941":"\u0120lied","5942":"\u0120pastels","5943":"\u0120Frank","5944":"Ex","5945":"\u0120safer","5946":"\u0120roads","5947":"\u0120scru","5948":"\u0120argued","5949":"\u0120Milly","5950":"\u0120goals","5951":"\u0120Water","5952":"\u0120discovery","5953":"\u0120Abigail","5954":"\u0120villag","5955":"\u0120peered","5956":"Ro","5957":"\u0120Bouncy","5958":"use","5959":"ana","5960":"loe","5961":"\u0120tim","5962":"\u0120dragons","5963":"\u0120buildings","5964":"\u0120buckets","5965":"\u0120parties","5966":"\u0120beard","5967":"\u0120wedding","5968":"Rex","5969":"\u0120flutter","5970":"\u0120planets","5971":"\u0120ann","5972":"\u0120Robby","5973":"\u0120polishing","5974":"\u0120fasc","5975":"ira","5976":"\u0120released","5977":"\u0120Chr","5978":"\u0120crabs","5979":"\u0120Gogo","5980":"\u0120tails","5981":"\u0120Watch","5982":"\u0120sausages","5983":"\u0120Ju","5984":"\u0120argu","5985":"\u0120contro","5986":"\u0120bottles","5987":"\u0120wiggled","5988":"\u0120teased","5989":"uke","5990":"\u0120arguing","5991":"\u0120sled","5992":"\u0120dragged","5993":"\u0120padd","5994":"\u0120Car","5995":"\u0120roaring","5996":"\u0120clearing","5997":"\u0120shirts","5998":"\u0120movies","5999":"\u0120gathering","6000":"\u0120airpl","6001":"\u0120wid","6002":"joyed","6003":"\u0120teaches","6004":"\u0120spiders","6005":"\u0120limes","6006":"\u0120Remember","6007":"\u0120Dare","6008":"\u0120overjoyed","6009":"\u0120actually","6010":"\u0120sighs","6011":"\u0120continue","6012":"\u0120cuddle","6013":"\u0120soaring","6014":"\u0120smallest","6015":"\u0120Jess","6016":"\u0120drives","6017":"\u0120sparkles","6018":"\u0120rip","6019":"\u0120situ","6020":"\u0120cubes","6021":"\u0120refres","6022":"\u0120talent","6023":"\u0120challenge","6024":"\u0120Olly","6025":"\u0120grandmother","6026":"\u0120Splash","6027":"\u0120pouring","6028":"umm","6029":"\u0120pretends","6030":"\u0120fascin","6031":"\u0120cuts","6032":"\u0120quarreling","6033":"\u0120peppers","6034":"\u0120bank","6035":"\u0120shivered","6036":"\u0120mane","6037":"\u0120dusty","6038":"ley","6039":"\u0120wondering","6040":"\u0120villagers","6041":"\u0120stretching","6042":"njoy","6043":"ib","6044":"\u0120weeks","6045":"\u0120wherever","6046":"\u0120darker","6047":"jam","6048":"Tiny","6049":"sses","6050":"\u0120X","6051":"\u0120rings","6052":"\u0120onwards","6053":"\u0120Katie","6054":"\u0120united","6055":"Achoo","6056":"\u0120bead","6057":"\u0120Everyday","6058":"\u0120Being","6059":"\u0120prettiest","6060":"Johnny","6061":"\u0120caut","6062":"\u0120realize","6063":"\u0120company","6064":"\u0120penguins","6065":"annah","6066":"Luna","6067":"Fr","6068":"\u0120Spring","6069":"\u0120bedtime","6070":"\u0120completed","6071":"\u0120Wisdom","6072":"\u0120Leave","6073":"\u00e2\u0122\u013f.","6074":"\u0120knights","6075":"\u0120flags","6076":"\u0120Je","6077":"\u0120Because","6078":"\u0120playroom","6079":"\u0120Prin","6080":"\u0120actions","6081":"\u0120Zero","6082":"\u0120learns","6083":"\u0120gotten","6084":"\u0120patience","6085":"inda","6086":"dam","6087":"\u0120shrug","6088":"\u0120kites","6089":"\u0120responsible","6090":"\u0120fears","6091":"\u0120destination","6092":"\u0120wires","6093":"\u0120reply","6094":"\u0120wrist","6095":"\u0120dam","6096":"aws","6097":"\u0120packing","6098":"\u0120mountains","6099":"\u0120fault","6100":"\u0120applauded","6101":"\u0120scrubbed","6102":"\u0120ma","6103":"\u0120crept","6104":"\u0120Ava","6105":"Uh","6106":"\u0120Earth","6107":"\u0120satis","6108":"\u0120third","6109":"\u0120phot","6110":"\u0120pencils","6111":"\u0120wins","6112":"\u0120sticking","6113":"\u0120baker","6114":"\u0120visiting","6115":"\u0120wound","6116":"\u0120uses","6117":"\u0120peas","6118":"\u0120reminder","6119":"\u0120control","6120":"ashed","6121":"Grandpa","6122":"\u0120joking","6123":"\u0120awake","6124":"\u0120instruct","6125":"\u0120staring","6126":"\u0120healed","6127":"\u0120Put","6128":"\u0120hitting","6129":"\u0120Fish","6130":"\u0120screaming","6131":"\u0120begin","6132":"Rob","6133":"uckily","6134":"\u0120Friends","6135":"\u0120Moo","6136":"icorn","6137":"\u0120helmets","6138":"enty","6139":"\u0120unicorn","6140":"ler","6141":"seek","6142":"\u0120towels","6143":"Silly","6144":"\u0120Lou","6145":"\u0120chips","6146":"ica","6147":"\u0120creation","6148":"\u0120wasted","6149":"bie","6150":"Mar","6151":"\u0120Behind","6152":"laire","6153":"\u0120masks","6154":"\u0120items","6155":"\u0120forgi","6156":"\u0120firefight","6157":"\u0120outdo","6158":"\u0120lollipops","6159":"Watch","6160":"\u0120heav","6161":"\u0120guns","6162":"\u0120died","6163":"\u0120Hippy","6164":"\u0120seas","6165":"\u0120glitter","6166":"uddles","6167":"\u0120arrive","6168":"\u0120weren","6169":"\u0120stole","6170":"\u0120scales","6171":"\u0120perched","6172":"\u0120accom","6173":"\u0120logs","6174":"\u0120achieve","6175":"die","6176":"\u0120practicing","6177":"ining","6178":"\u0120whose","6179":"Stay","6180":"\u0120pumpkins","6181":"\u0120instructions","6182":"\u0120swoop","6183":"\u0120batteries","6184":"\u0120candies","6185":"\u0120agrees","6186":"\u0120project","6187":"\u0120snakes","6188":"\u0120chirping","6189":"Benny","6190":"\u0120shelves","6191":"\u0120protecting","6192":"\u0120parked","6193":"\u0120exact","6194":"\u0120Cra","6195":"\u0120patiently","6196":"\u0120activ","6197":"\u0120videos","6198":"\u0120shoulders","6199":"\u0120blows","6200":"hee","6201":"Fo","6202":"\u0120promises","6203":"go","6204":"\u0120dent","6205":"usan","6206":"uest","6207":"ners","6208":"jamas","6209":"\u0120examined","6210":"\u0120airplane","6211":"Doggy","6212":"\u0120roses","6213":"\u0120accompl","6214":"\u0120tasks","6215":"Dave","6216":"\u0120Hoot","6217":"Poppy","6218":"\u0120Bop","6219":"Bunny","6220":"\u0120beads","6221":"\u0120bowls","6222":"\u0120crumbs","6223":"zes","6224":"\u0120listens","6225":"\u0120Love","6226":"\u0120Catty","6227":"\u0120Brownie","6228":"Pete","6229":"\u0120Ol","6230":"\u0120dolphins","6231":"\u0120cough","6232":"\u0120bunch","6233":"\u0120guest","6234":"cakes","6235":"\u0120requested","6236":"\u0120remote","6237":"\u0120improved","6238":"anta","6239":"\u0120reaching","6240":"\u0120brand","6241":"\u0120Jan","6242":"ayla","6243":"\u0120alien","6244":"\u0120Bye","6245":"irm","6246":"\u0120copy","6247":"\u0120Sun","6248":"\u0120cheering","6249":"\u0120photos","6250":"\u0120Julie","6251":"\u0120Chew","6252":"Bad","6253":"\u0120Blink","6254":"Time","6255":"\u0120cans","6256":"\u0120Cuddles","6257":"\u0120timer","6258":"\u0120By","6259":"\u0120replaced","6260":"athy","6261":"\u0120workers","6262":"\u0120stern","6263":"\u0120Enjoy","6264":"aster","6265":"\u0120neither","6266":"Mike","6267":"\u0120passing","6268":"\u0120misses","6269":"\u0120curtains","6270":"\u0120confl","6271":"Chirpy","6272":"\u0120rainbows","6273":"\u0120rubs","6274":"George","6275":"uctantly","6276":"\u0120rolls","6277":"\u0120patted","6278":"ilo","6279":"\u0120pajamas","6280":"\u0120outdoors","6281":"esome","6282":"dies","6283":"\u0120complaining","6284":"\u0120Squirrel","6285":"Lola","6286":"Run","6287":"\u0120puppet","6288":"\u0120Princess","6289":"\u0120closes","6290":"\u0120beneath","6291":"\u0120lap","6292":"\u0120drums","6293":"\u0120tune","6294":"\u0120Beth","6295":"\u0120Mouse","6296":"\u0120filling","6297":"Miss","6298":"angled","6299":"\u0120refuse","6300":"\u0120Sorry","6301":"\u0120sweat","6302":"\u0120faced","6303":"...","6304":"\u0120seven","6305":"\u0120balanced","6306":"\u0120rescued","6307":"neath","6308":"bl","6309":"\u0120quacked","6310":"\u0120Abby","6311":"Paul","6312":"istle","6313":"\u0120awesome","6314":"\u01201","6315":"\u0120mission","6316":"\u0120However","6317":"\u0120guys","6318":"\u0120conflict","6319":"\u0120cautious","6320":"\u0120vent","6321":"\u0120observed","6322":"\u0120cause","6323":"\u0120introduc","6324":"\u0120Thomas","6325":"\u0120pastries","6326":"nie","6327":"\u0120\u0120","6328":"\u0120Our","6329":"\u0120exactly","6330":"\u0120doctors","6331":"\u0120rule","6332":"\u0120becoming","6333":"\u0120policeman","6334":"\u0120mes","6335":"uly","6336":"\u0120rockets","6337":"you","6338":"\u0120Yes","6339":"\u0120Dot","6340":"\u0120fairies","6341":"lay","6342":"\u0120pout","6343":"An","6344":"\u0120insist","6345":"\u0120blooming","6346":"\u0120tractor","6347":"\u0120farther","6348":"\u0120Sad","6349":"avi","6350":"Oops","6351":"Great","6352":"\u0120remembering","6353":"\u0120included","6354":"\u0120curly","6355":"Zoom","6356":"Fine","6357":"\u0120teamwork","6358":"zie","6359":"\u0120fascinated","6360":"\u0120wobbled","6361":"\u0120slam","6362":"\u0120truly","6363":"\u0120helpers","6364":"\u0120sights","6365":"\u0120paddle","6366":"\u0120stumble","6367":"\u0120firm","6368":"Henry","6369":"\u0120Jilly","6370":"acob","6371":"\u0120caused","6372":"\u0120prayer","6373":"\u0120spong","6374":"\u0120recording","6375":"kelly","6376":"ais","6377":"\u0120traded","6378":"\u0120starfish","6379":"\u0120supplies","6380":"\u0120thro","6381":"\u0120pointy","6382":"\u0120situation","6383":"\u0120inviting","6384":"eah","6385":"gers","6386":"\u0120neighbourhood","6387":"\u0120everyday","6388":"\u0120ornaments","6389":"\u0120Ally","6390":"inkle","6391":"\u0120valued","6392":"\u0120adding","6393":"Some","6394":"\u0120reluctantly","6395":"\u0120dots","6396":"\u0120stays","6397":"\u0120tables","6398":"\u0120prettier","6399":"\u0120bare","6400":"\u0120desert","6401":"\u0120snowmen","6402":"\u0120steady","6403":"\u0120minerals","6404":"araway","6405":"\u0120thorn","6406":"ody","6407":"\u0120ast","6408":"\u0120glasses","6409":"\u0120faraway","6410":"\u0120Get","6411":"\u0120Foxy","6412":"\u0120swooped","6413":"\u0120Welcome","6414":"\u0120Two","6415":"\u0120Sure","6416":"\u0120unf","6417":"\u0120forks","6418":"\u0120usually","6419":"\u0120usual","6420":"Polly","6421":"\u0120dar","6422":"\u0120Jamie","6423":"\u0120winked","6424":"\u0120sneezing","6425":"\u0120solut","6426":"\u0120loading","6427":"\u0120sponge","6428":"\u0120Quick","6429":"\u0120insects","6430":"\u0120pans","6431":"Dog","6432":"\u0120sobbed","6433":"\u0120Santa","6434":"James","6435":"\u0120growling","6436":"sm","6437":"arter","6438":"\u0120throat","6439":"\u0120Chloe","6440":"\u0120noses","6441":"\u0120Josh","6442":"\u0120Dizzy","6443":"\u0120scarves","6444":"\u0120confident","6445":"\u0120yourselves","6446":"\u0120Want","6447":"agull","6448":"\u0120homework","6449":"\u0120superheroes","6450":"\u0120Stay","6451":"Joey","6452":"\u0120smarter","6453":"\u0120windy","6454":"\u0120librarian","6455":"Tina","6456":"\u0120Kids","6457":"\u0120gems","6458":"Days","6459":"ora","6460":"\u0120underneath","6461":"\u0120kicks","6462":"\u0120knowled","6463":"\u0120itchy","6464":"\u0120knowledge","6465":"\u0120jackets","6466":"\u0120Skelly","6467":"\u0120For","6468":"\u0120surface","6469":"\u0120untie","6470":"\u0120comm","6471":"\u0120Duck","6472":"\u0120princesses","6473":"...\"","6474":"Those","6475":"ido","6476":"eed","6477":"Hold","6478":"Yeah","6479":"coon","6480":"\u0120squares","6481":"\u0120Henny","6482":"\u0120warnings","6483":"\u0120giggling","6484":"iar","6485":"\u0120reads","6486":"vin","6487":"Our","6488":"\u0120choo","6489":"son","6490":"\u0120younger","6491":"\u0120clowns","6492":"\u0120Mix","6493":"Toby","6494":"\u0120ropes","6495":"\u0120biting","6496":"\u0120crowd","6497":"\u0120Unfortunately","6498":"pite","6499":"Danny","6500":"True","6501":"\u0120seagull","6502":"\u0120paddled","6503":"\u0120wears","6504":"\u0120delivered","6505":"\u0120Mon","6506":"\u0120twirl","6507":"\u0120onions","6508":"\u0120buzzed","6509":"\u0120complained","6510":"\u0120bumpy","6511":"\u0120stem","6512":"Ew","6513":"\u0120piggy","6514":"Mrs","6515":"\u0120Anne","6516":"\u0120direction","6517":"ouch","6518":"\u0120dived","6519":"Roar","6520":"\u0120tangled","6521":"\u0120startled","6522":"ults","6523":"\u0120leaning","6524":"bbie","6525":"\u0120Ant","6526":"\u0120Jones","6527":"\u0120badge","6528":"\u0120Po","6529":"Grace","6530":"\u0120unp","6531":"\u0120deal","6532":"though","6533":"Annie","6534":"\u0120vowed","6535":"\u0120napkins","6536":"anes","6537":"\u0120tickled","6538":"\u0120risk","6539":"\u0120covers","6540":"\u0120pec","6541":"Shh","6542":"\u0120yells","6543":"\u0120satisfied","6544":"int","6545":"\u0120knocks","6546":"\u0120refreshed","6547":"tuce","6548":"\u0120Sc","6549":"cuse","6550":"\u0120cous","6551":"\u0120arrows","6552":"Maggie","6553":"\u0120Whistle","6554":"Pe","6555":"\u0120wipes","6556":"\u0120speaking","6557":"\u0120lettuce","6558":"\u0120guessing","6559":"Unfortunately","6560":"\u0120Quack","6561":"\u0120ripe","6562":"\u0120Susan","6563":"\u0120hides","6564":"\u0120choices","6565":"\u0120Dodo","6566":"\u0120Rover","6567":"Buzz","6568":"\u0120signed","6569":"\u0120slower","6570":"\u0120seeker","6571":"\u0120introduced","6572":"\u0120singer","6573":"\u0120creating","6574":"\u0120Matt","6575":"\u0120froze","6576":"\u0120cent","6577":"uggles","6578":"\u0120joked","6579":"\u0120squeal","6580":"\u0120toaster","6581":"\u0120explorers","6582":"fit","6583":"\u0120avo","6584":"anging","6585":"Sophie","6586":"\u0120praying","6587":"\u0120written","6588":"\u0120discovering","6589":"\u0120provided","6590":"\u0120Dara","6591":"\u0120refle","6592":"\u0120Lion","6593":"Excuse","6594":"\u0120mushrooms","6595":"\u0120Jeff","6596":"\u0120Paws","6597":"\u0120paying","6598":"\u0120knees","6599":"ences","6600":"\u0120hider","6601":"\u0120wandering","6602":"\u0120Ash","6603":"\u0120images","6604":"Charlie","6605":"\u0120stung","6606":"\u0120Wink","6607":"\u0120magnets","6608":"\u0120barely","6609":"\u0120behaving","6610":"\u0120tipto","6611":"?\",","6612":"\u0120marked","6613":"brush","6614":"rrr","6615":"\u0120restored","6616":"\u0120Dee","6617":"\u0120leading","6618":"lled","6619":"\u0120chuck","6620":"ados","6621":"\u0120nine","6622":"\u0120greet","6623":"Teddy","6624":"\u0120gears","6625":"\u0120bravery","6626":"\u0120Snuggles","6627":"ky","6628":"\u0120competition","6629":"eal","6630":"\u0120outfit","6631":"oline","6632":"\u0120wishing","6633":"\u0120properly","6634":"\u0120ventured","6635":"tle","6636":"aa","6637":"\u0120muscle","6638":"\u0120dances","6639":"\u0120chat","6640":"\u0120salty","6641":"\u0120pens","6642":"amb","6643":"\u0120Betsy","6644":"\u0120ranger","6645":"\u0120Ziggy","6646":"\u0120deserve","6647":"\u0120however","6648":"sequ","6649":"\u0120matters","6650":"\u0120darkness","6651":"\u0120burst","6652":"\u0120Fu","6653":"\u0120rainy","6654":"\u0120cobwebs","6655":"\u0120ruining","6656":"\u0120chefs","6657":"\u0120consequ","6658":"\u0120blocking","6659":"\u0120bak","6660":"usted","6661":"itely","6662":"sty","6663":"\u0120scur","6664":"\u0120vines","6665":"\u0120fab","6666":"abel","6667":"\u0120fabric","6668":"\u0120entire","6669":"\u0120basement","6670":"\u0120performed","6671":"\u0120least","6672":"\u0120Buggy","6673":"Sn","6674":"\u0120scratches","6675":"\u0120heavier","6676":"\u0120Claire","6677":"\u0120mints","6678":"\u0120twirling","6679":"\u0120avocados","6680":"However","6681":"\u0120Linda","6682":"rink","6683":"fl","6684":"\u0120scurried","6685":"\u0120losing","6686":"\u0120sunflowers","6687":"\u0120Jenna","6688":"\u0120rainco","6689":"\u0120swords","6690":"Tweet","6691":"\u0120click","6692":"agic","6693":"\u0120Laser","6694":"\u0120silent","6695":"\u0120jobs","6696":"\u0120necklaces","6697":"\u0120flames","6698":"\u0120Luke","6699":"\u0120relief","6700":"\u0120Grumpy","6701":"\u0120snat","6702":"\u0120sewed","6703":"\u0120rotting","6704":"len","6705":"Listen","6706":"Follow","6707":"\u0120tricky","6708":"Jerry","6709":"\u0120lighter","6710":"ophia","6711":"\u0120bows","6712":"\u0120Skip","6713":"\u0120exha","6714":"\u0120solution","6715":"\u0120consequences","6716":"Alex","6717":"\u0120Lena","6718":"\u0120tires","6719":"\u0120stain","6720":"Beep","6721":"\u0120unpacked","6722":"Ab","6723":"\u0120partic","6724":"rance","6725":"\u0120races","6726":"\u0120pins","6727":"\u0120bumps","6728":"\u0120wraps","6729":"aisies","6730":"\u0120wow","6731":"\u0120decorating","6732":"\u0120backed","6733":"cher","6734":"\u0120dentist","6735":"\u0120purr","6736":"\u0120needles","6737":"\u0120cautiously","6738":"\u0120lifting","6739":"izzie","6740":"\u0120Pr","6741":"\u0120accomplish","6742":"\u0120triangles","6743":"\u0120daisies","6744":"ept","6745":"\u0120hesitated","6746":"\u0120annoy","6747":"\u0120Those","6748":"\u0120growls","6749":"\u0120crackers","6750":"oke","6751":"\u0120stomped","6752":"\u0120grabbing","6753":"\u0120cott","6754":"\u0120figured","6755":"\u0120bodies","6756":"\u0120mater","6757":"\u0120buying","6758":"\u0120Tree","6759":"\u0120material","6760":"\u0120Rolly","6761":"\u0120Fido","6762":"\u0120Adam","6763":"\u0120swans","6764":"\u0120ties","6765":"\u0120gri","6766":"vers","6767":"\u0120grows","6768":"\u0120\u010a\u0120","6769":"\u0120sweets","6770":"\u0120Goodbye","6771":"\u0120owners","6772":"\u0120flavor","6773":"\u0120cheeks","6774":"\u0120Cathy","6775":"Big","6776":"\u0120suffering","6777":"\u0120Jessie","6778":"\u0120El","6779":"vroom","6780":"\u0120fact","6781":"\u0120groups","6782":"bly","6783":"\u0120forehead","6784":"\u0120lungs","6785":"Harry","6786":"\u0120repa","6787":"\u0120interested","6788":"\u0120bakery","6789":"\u0120Milo","6790":"\u0120freed","6791":"Lilly","6792":"itches","6793":"\u0120Nothing","6794":"\u0120chuckled","6795":"For","6796":"\u0120swept","6797":"\u0120conn","6798":"?'","6799":"\u0120thud","6800":"\u0120exhausted","6801":"Tw","6802":"\u0120twinkling","6803":"\u0120tapped","6804":"Ru","6805":"\u0120nect","6806":"rosty","6807":"\u0120nectar","6808":"elle","6809":"\u0120feast","6810":"\u0120darling","6811":"indr","6812":"\u0120Mad","6813":"\u0120worries","6814":"\u0120uns","6815":"\u0120tunnels","6816":"\u0120fuzzy","6817":"\u0120repaired","6818":"\u0120reason","6819":"\u0120Trust","6820":"\u0120Copper","6821":"\u0120Ball","6822":"\u0120activities","6823":"lets","6824":"\u0120pecked","6825":"\u0120Hannah","6826":"\u0120entrance","6827":"\u0120Try","6828":"\u0120raindr","6829":"\u0120meals","6830":"\u0120Listen","6831":"\u0120particular","6832":"\u0120completely","6833":"\u0120mailed","6834":"ctions","6835":"\u0120nests","6836":"\u0120waiter","6837":"\u0120cuddly","6838":"\u0120sense","6839":"\u0120Nana","6840":"\u0120colored","6841":"arky","6842":"\u0120leap","6843":"step","6844":"band","6845":"\u0120plenty","6846":"\u0120peeking","6847":"\u0120slammed","6848":"\u0120Cara","6849":"no","6850":"\u0120players","6851":"\u0120month","6852":"\u0120budge","6853":"\u0120Birthday","6854":"\u0120Q","6855":"\u0120scra","6856":"\u0120forgets","6857":"\u0120den","6858":"\u0120handful","6859":"\u0120Oliver","6860":"\u0120mer","6861":"ossible","6862":"\u0120genie","6863":"\u0120Christ","6864":"\u0120stool","6865":"iggie","6866":"\u0120talks","6867":"\u0120Pup","6868":"\u0120Suzie","6869":"\u0120passports","6870":"\u0120feeding","6871":"\u0120films","6872":"\u0120baths","6873":"\u0120impossible","6874":"\u0120determination","6875":"May","6876":"\u0120printing","6877":"boat","6878":"\u0120designed","6879":"\u0120buses","6880":"\u0120opp","6881":"ueen","6882":"lephant","6883":"\u0120suitcase","6884":"\u0120bars","6885":"\u0120counts","6886":"\u0120stolen","6887":"\u0120spreading","6888":"\u0120spikes","6889":"\u0120Snap","6890":"\u0120wiping","6891":"\u0120steer","6892":"\u0120lamb","6893":"\u0120Rain","6894":"\u0120honked","6895":"etty","6896":"nies","6897":"Whee","6898":"\u0120cowb","6899":"\u0120separated","6900":"blings","6901":"\u0120siblings","6902":"\u0120hops","6903":"\u0120chop","6904":"\u0120sewing","6905":"\u0120fires","6906":"\u0120Twinkle","6907":"\u0120fever","6908":"\u0120twinkle","6909":"\u0120ty","6910":"\u0120camping","6911":"\u0120Mira","6912":"\u0120lower","6913":"\u0120changing","6914":"yes","6915":"retch","6916":"\u0120behavi","6917":"\u0120Bloom","6918":"mas","6919":"\u0120liqu","6920":"\u0120celebration","6921":"but","6922":"\u0120squealed","6923":"\u0120dollhouse","6924":"Sunny","6925":"\u0120backward","6926":"\u0120age","6927":"\u0120snatched","6928":"\u0120cash","6929":"ho","6930":"\u0120twice","6931":"lee","6932":"\u0120sway","6933":"itched","6934":"\u0120celebrating","6935":"\u0120Peanut","6936":"\u0120shrinking","6937":"\u0120ache","6938":"weed","6939":"\u0120kings","6940":"rious","6941":"\u0120shops","6942":"\u0120kittens","6943":"cope","6944":"Rose","6945":"\u0120Jessica","6946":"\u0120Jacob","6947":"\u0120Gina","6948":"aura","6949":"\u0120hus","6950":"\u0120touches","6951":"airy","6952":"\u0120pancakes","6953":"\u0120avoid","6954":"\u0120spat","6955":"\u0120Frosty","6956":"rig","6957":"hog","6958":"\u0120Nina","6959":"\u0120paths","6960":"ives","6961":"cky","6962":"\u0120Hold","6963":"\u0120rotten","6964":"\u0120calmed","6965":"Sandy","6966":"\u0120seaweed","6967":"\u0120dropping","6968":"\u0120Jon","6969":"\u0120Mel","6970":"iles","6971":"Pipp","6972":"\u0120twisting","6973":"\u0120stroked","6974":"\u0120untied","6975":"llen","6976":"\u0120playhouse","6977":"ne","6978":"Millie","6979":"\u0120students","6980":"\u0120puppies","6981":"cl","6982":"\u0120Sof","6983":"hi","6984":"\u0120screws","6985":"\u0120astron","6986":"\u0120Re","6987":"\u0120somebody","6988":"igning","6989":"\u0120liquid","6990":"ammy","6991":"\u0120wakes","6992":"\u0120squish","6993":"\u0120Woof","6994":"\u0120bracelets","6995":"\u0120astronaut","6996":"immer","6997":"aren","6998":"\u0120thrown","6999":"\u0120loops","7000":"\u0120Other","7001":"Luckily","7002":"\u0120wrapping","7003":"\u0120plain","7004":"\u0120tramp","7005":"\u0120planning","7006":"\u0120skunk","7007":"\u0120aimed","7008":"\u0120pennies","7009":"\u0120shoo","7010":"\u0120lifts","7011":"\u0120dancers","7012":"\u0120sparks","7013":"\u0120firefly","7014":"pen","7015":"Dan","7016":"\u0120poster","7017":"yan","7018":"endy","7019":"\u0120cust","7020":"\u0120Christmas","7021":"\u0120rewarded","7022":"\u0120objects","7023":"\u0120directions","7024":"using","7025":"ingo","7026":"\u0120reflection","7027":"\u0120husband","7028":"\u00e2\u0122\u0136","7029":"Take","7030":"river","7031":"\u0120clues","7032":"uppy","7033":"\u0120leads","7034":"\u0120increased","7035":"\u0120blocked","7036":"\u0120rising","7037":"\u0120dod","7038":"\u0120cousin","7039":"\u0120Yesterday","7040":"\u0120Without","7041":"\u0120forgetting","7042":"rigued","7043":"\u0120custom","7044":"Kate","7045":"ude","7046":"\u0120trampoline","7047":"\u0120beginning","7048":"\u0120storekeeper","7049":"\u0120pouted","7050":"\u0120zebras","7051":"\u0120hedgehog","7052":"\u0120aff","7053":"\u0120\u00e2\u0122\u013a","7054":"\u0120borrowed","7055":"\u0120Rollie","7056":"\u0120snowfl","7057":"\u0120countryside","7058":"Jump","7059":"\u0120mesmer","7060":"\u0120Jay","7061":"\u0120vehicles","7062":"\u0120instrum","7063":"\u0120Mic","7064":"\u0120Kayla","7065":"\u0120Up","7066":"\u0120frowning","7067":"ivity","7068":"Pat","7069":"Under","7070":"\u0120marker","7071":"yond","7072":"\u0120presses","7073":"\u0120beyond","7074":"\u0120Queen","7075":"\u0120damage","7076":"\u0120Only","7077":"iece","7078":"ivery","7079":"\u0120fart","7080":"\u0120Tara","7081":"\u0120Biggie","7082":"jo","7083":"\u0120health","7084":"\u0120whispers","7085":"\u0120swimsuit","7086":"\u0120slips","7087":"\u0120nibb","7088":"\u0120Julia","7089":"armer","7090":"\u0120warmer","7091":"\u0120flapping","7092":"\u0120tiptoed","7093":"\u0120regretted","7094":"itted","7095":"Zip","7096":"\u0120laying","7097":"\u0120Robo","7098":"ades","7099":"\u0120yelp","7100":"\u0120Fire","7101":"\u0120rains","7102":"\u0120glued","7103":"\u0120everybody","7104":"\u0120creations","7105":"\u0120hearing","7106":"\u0120swir","7107":"\u0120colder","7108":"iversity","7109":"ael","7110":"\u0120shaped","7111":"\u0120Elephant","7112":"\u0120streets","7113":"\u0120fins","7114":"\u0120rusty","7115":"\u0120cushions","7116":"Out","7117":"\u0120san","7118":"\u0120farthest","7119":"\u0120creativity","7120":"\u0120Mikey","7121":"ans","7122":"\u0120sale","7123":"Always","7124":"Co","7125":"\u0120strongest","7126":"ibbit","7127":"\u0120fits","7128":"\u0120Sparky","7129":"\u0120bells","7130":"\u0120dollars","7131":"\u0120Larry","7132":"\u0120earn","7133":"iam","7134":"angle","7135":"\u0120lending","7136":"\u0120Moon","7137":"\u0120Chirp","7138":"eese","7139":"\u0120cashier","7140":"Milly","7141":"\u0120including","7142":"\u0120sniffs","7143":"\u0120sank","7144":"\u0120raincoat","7145":"\u0120Rich","7146":"\u0120trembled","7147":"\u0120stopping","7148":"\u0120source","7149":"iti","7150":"imon","7151":"\u0120Missy","7152":"\u0120wobbly","7153":"\u0120indeed","7154":"ters","7155":"\u0120guests","7156":"\u0120single","7157":"\u0120recommended","7158":"\u0120wee","7159":"\u0120spells","7160":"\u0120accomplishment","7161":"\u0120belts","7162":"\u0120surprising","7163":"\u0120ends","7164":"\u0120hopeful","7165":"\u0120seasons","7166":"\u0120Take","7167":"\u0120Snowman","7168":"\u0120Els","7169":"Bear","7170":"\u0120plans","7171":"ichael","7172":"\u0120encourag","7173":"\u0120supported","7174":"stick","7175":"illed","7176":"\u0120suffered","7177":"\u0120artist","7178":"\u0120performance","7179":"eet","7180":"Nina","7181":"\u0120slowed","7182":"\u0120gross","7183":"\u0120flavors","7184":"iding","7185":"ertain","7186":"\u0120spins","7187":"cho","7188":"Quack","7189":"\u0120labels","7190":"\u0120raindrops","7191":"\u0120delivery","7192":"uing","7193":"arac","7194":"\u0120raccoon","7195":"\u0120forgiving","7196":"obody","7197":"\u0120Woo","7198":"\u0120pours","7199":"the","7200":"ility","7201":"\u0120vanilla","7202":"\u0120turtles","7203":"\u0120stands","7204":"Bill","7205":"uess","7206":"\u0120recipe","7207":"\u0120beam","7208":"\u0120tying","7209":"\u0120Sw","7210":"\u0120geese","7211":"\u0120willing","7212":"\u0120robber","7213":"\u0120drawn","7214":"Vroom","7215":"\u0120wept","7216":"\u0120Bones","7217":"\u0120charac","7218":"\u0120pops","7219":"\u0120corners","7220":"\u0120Sophia","7221":"elia","7222":"\u0120queens","7223":"\u0120sailboat","7224":"\u0120grip","7225":"\u0120die","7226":"\u0120drivers","7227":"itude","7228":"\u0120moo","7229":"\u0120hallway","7230":"\u0120imagining","7231":"\u0120seconds","7232":"\u0120Fuzzy","7233":"Mine","7234":"\u0120preparing","7235":"\u0120widened","7236":"\u0120adult","7237":"\u0120Spirit","7238":"\u0120grocer","7239":"\u0120coop","7240":"\u0120talented","7241":"\u0120Pam","7242":"\u0120Beaky","7243":"\u0120Izzy","7244":"ummies","7245":"\u0120sailors","7246":"lling","7247":"\u0120softer","7248":"\u0120aside","7249":"\u0120watering","7250":"\u0120sending","7251":"\u0120knots","7252":"\u0120unsure","7253":"\u0120tipped","7254":"Lulu","7255":"\u0120treehouse","7256":"\u0120horiz","7257":"\u0120Lizzie","7258":"\u0120notes","7259":"\u0120echo","7260":"igers","7261":"\u0120achieved","7262":"\u0120horizon","7263":"\u0120squeak","7264":"\u0120delivering","7265":"\u0120pleasure","7266":"\u0120hotter","7267":"\u0120Stella","7268":"Clara","7269":"\u0120pupils","7270":"\u0120burrow","7271":"\u0120angels","7272":"\u0120curiously","7273":"Ellie","7274":"\u0120yum","7275":"\u0120blinking","7276":"\u0120June","7277":"\u0120tweet","7278":"\u0120symbols","7279":"\u0120det","7280":"\u0120Stretch","7281":"wk","7282":"\u0120passen","7283":"\u0120Rudy","7284":"\u0120Cindy","7285":"\u0120tummies","7286":"\u0120tiss","7287":"\u0120pigeons","7288":"\u0120figures","7289":"umbling","7290":"oey","7291":"\u0120bandages","7292":"\u0120Robert","7293":"\u0120coup","7294":"\u0120Doctor","7295":"\u0120robots","7296":"alph","7297":"\u0120tossed","7298":"\u0120hour","7299":"\u0120backwards","7300":"\u0120roars","7301":"Baby","7302":"\u0120merma","7303":"uzz","7304":"\u0120rather","7305":"atur","7306":"Maria","7307":"cited","7308":"\u0120Play","7309":"\u0120Crab","7310":"Moo","7311":"ighting","7312":"Dolly","7313":"\u0120groceries","7314":"\u0120zipping","7315":"Put","7316":"Very","7317":"\u0120unw","7318":"prin","7319":"\u0120among","7320":"\u0120blown","7321":"\u0120icing","7322":"!\u00e2\u0122\u013f.","7323":"\u0120rumble","7324":"\u0120afterwards","7325":"ipper","7326":"\u0120screwd","7327":"ushing","7328":"\u0120sped","7329":"\u0120prove","7330":"\u0120glee","7331":"\u0120Titi","7332":"\u0120Tia","7333":"\u0120dip","7334":"\u0120overcome","7335":"Ruby","7336":"Quick","7337":"\u0120surfboard","7338":"\u0120shovels","7339":"\u0120slices","7340":"\u0120Toot","7341":"\u0120merry","7342":"\u0120wobble","7343":"\u0120mate","7344":"\u0120Turt","7345":"\u0120Abbie","7346":"\u0120heading","7347":"\u0120disturbing","7348":"\u0120swall","7349":"\u0120reversed","7350":"\u0120firefighters","7351":"Jul","7352":"\u0120swallowed","7353":"\u0120chip","7354":"eds","7355":"\u0120scored","7356":"\u0120flipped","7357":"\u0120Jump","7358":"\u0120squeezing","7359":"usty","7360":"Frank","7361":"aty","7362":"Su","7363":"\u0120waking","7364":"\u0120intrigued","7365":"Sad","7366":"Like","7367":"\u0120maker","7368":"\u0120Barky","7369":"awn","7370":"Betty","7371":"\u0120puff","7372":"\u0120hawk","7373":"\u0120encouraging","7374":"\u0120aud","7375":"\u0120Ex","7376":"osen","7377":"onies","7378":"\u0120chosen","7379":"\u0120Ron","7380":"hew","7381":"\u0120Farmer","7382":"\u0120Ang","7383":"\u0120couple","7384":"\u0120designs","7385":"\u0120slipping","7386":"\u0120screwdriver","7387":"\u0120squishy","7388":"\u0120Emmy","7389":"\u0120gardener","7390":"\u0120center","7391":"\u0120rivers","7392":"\u0120respond","7393":"\u0120markers","7394":"iley","7395":"\u0120tigers","7396":"\u0120jars","7397":"pecting","7398":"\u0120frowns","7399":"bird","7400":"\u0120fluttered","7401":"\u0120Sadly","7402":"\u0120Kit","7403":"Ribbit","7404":"\u0120firefighter","7405":"\u0120Sl","7406":"\u0120Ryan","7407":"\u0120suits","7408":"\u0120secure","7409":"\u0120sprinkled","7410":"\u0120creamy","7411":"ashes","7412":"\u0120sharks","7413":"\u0120ignoring","7414":"\u0120bru","7415":"\u0120giggles","7416":"\u0120tissue","7417":"\u0120tighter","7418":"\u0120firmly","7419":"ounce","7420":"\u0120Laura","7421":"fly","7422":"\u0120shown","7423":"\u0120familiar","7424":"\u0120thorns","7425":"Spike","7426":"\u0120Wo","7427":"\u0120drawers","7428":"child","7429":"\u0120Zee","7430":"\u0120express","7431":"Car","7432":"ments","7433":"\u0120def","7434":"\u0120daring","7435":"\u0120crossing","7436":"\u0120audience","7437":"\u0120performing","7438":"\u0120coloured","7439":"\u0120cloudy","7440":"\u0120cor","7441":"\u0120ais","7442":"\u0120Nick","7443":"ae","7444":"rat","7445":"\u0120pedaled","7446":"Get","7447":"\u0120mixture","7448":"\u0120til","7449":"\u0120gracefully","7450":"ggy","7451":"\u0120haircuts","7452":"\u0120yielded","7453":"\u0120ponies","7454":"\u0120disob","7455":"\u0120crowns","7456":"\u0120bits","7457":"\u0120todd","7458":"\u0120Sleep","7459":"\u0120nervously","7460":"\u0120hangers","7461":"bbled","7462":"\u0120Patch","7463":"Zoomy","7464":"\u0120pays","7465":"\u01202","7466":"\u0120peck","7467":"\u0120stroke","7468":"\u0120ev","7469":"fall","7470":"Bang","7471":"een","7472":"\u0120respected","7473":"\u0120napped","7474":"aven","7475":"\u0120minded","7476":"ddie","7477":"Bessie","7478":"ably","7479":"Boys","7480":"\u0120tested","7481":"ading","7482":"parent","7483":"\u0120Chris","7484":"Kim","7485":"\u0120University","7486":"\u0120Near","7487":"\u0120beeh","7488":"\u0120Turtle","7489":"\u0120surfing","7490":"\u0120neighbours","7491":"arrow","7492":"vered","7493":"\u0120shady","7494":"iona","7495":"arlings","7496":"\u0120magician","7497":"\u0120enthusiasm","7498":"\u0120darlings","7499":"\u0120wisely","7500":"\u0120stitches","7501":"\u0120sails","7502":"kend","7503":"Dear","7504":"\u0120weekend","7505":"\u0120thoughts","7506":"Freddy","7507":"\u0120Tweetie","7508":"\u0120reminds","7509":"\u0120temper","7510":"oring","7511":"tha","7512":"antha","7513":"\u0120surroundings","7514":"\u0120spits","7515":"\u0120fleas","7516":"\u0120teams","7517":"\u0120lessons","7518":"\u0120fills","7519":"\u0120flip","7520":"\u0120Along","7521":"\u0120paintbrush","7522":"\u0120melons","7523":"\u0120mermaid","7524":"oni","7525":"Katie","7526":"\u0120grandchild","7527":"\u0120hoops","7528":"\u0120explo","7529":"\u0120elbow","7530":"\u0120sports","7531":"Guess","7532":"\u0120lies","7533":"\u0120Fighting","7534":"rac","7535":"\u0120panicked","7536":"\u0120cleaner","7537":"\u0120amount","7538":"cused","7539":"\u0120longest","7540":"\u0120scooters","7541":"\u0120lent","7542":"ita","7543":"immering","7544":"\u0120sill","7545":"\u0120beloved","7546":"Pippin","7547":"\u0120beehive","7548":"Alright","7549":"ongrat","7550":"oga","7551":"lle","7552":"ongratul","7553":"\u0120oysters","7554":"\u0120grandparent","7555":"\u0120forgiven","7556":"\u0120magazines","7557":"\u0120arr","7558":"\u0120Wise","7559":"\u0120elf","7560":"\u0120repeating","7561":"\u0120discussed","7562":"\u0120sweetest","7563":"\u0120Thanks","7564":"Keep","7565":"\u0120wadd","7566":"\u0120Maya","7567":"\u0120reass","7568":"\u0120lace","7569":"\u0120Granny","7570":"\u0120nightmares","7571":"\u0120tubes","7572":"\u0120Willy","7573":"\u0120understands","7574":"\u0120spoonful","7575":"\u0120nood","7576":"\u0120bathing","7577":"\u0120Zoey","7578":"asty","7579":"Am","7580":"\u0120sweep","7581":"\u0120manners","7582":"crow","7583":"Uncle","7584":"\u0120wrink","7585":"\u0120sprang","7586":"\u0120nur","7587":"\u0120bully","7588":"\u0120Holly","7589":"\u0120guide","7590":"\u0120Yet","7591":"onna","7592":"ancy","7593":"\u0120crew","7594":"romise","7595":"Jazz","7596":"\u0120breathed","7597":"while","7598":"steps","7599":"ilda","7600":"ently","7601":"\u0120Bally","7602":"\u0120bulbs","7603":"\u0120neare","7604":"\u0120grassy","7605":"\u0120wiggly","7606":"\u0120testing","7607":"\u0120spies","7608":"\u0120coug","7609":"\u0120solving","7610":"\u0120sheets","7611":"\u0120Roo","7612":"\u0120footsteps","7613":"ntil","7614":"Afterwards","7615":"\u0120speeding","7616":"\u0120focused","7617":"ounced","7618":"cept","7619":"?!\"","7620":"\u0120mesmerized","7621":"\u0120camel","7622":"\u0120braver","7623":"\u0120hesitant","7624":"\u0120Sparkle","7625":"\u0120licking","7626":"\u0120rushing","7627":"\u0120Well","7628":"\u0120joining","7629":"\u0120Puppy","7630":"\u0120polar","7631":"\u0120greeted","7632":"\u0120Martha","7633":"espite","7634":"--","7635":"\u0120Bubb","7636":"Which","7637":"Kiki","7638":"\u0120worn","7639":"\u0120materials","7640":"\u0120changes","7641":"\u0120Nobody","7642":"undred","7643":"\u0120stored","7644":"\u0120bicycles","7645":"\u0120mast","7646":"\u0120anger","7647":"Leave","7648":"\u0120peacefully","7649":"\u0120ships","7650":"\u0120spice","7651":"\u0120terrified","7652":"\u0120nuzz","7653":"\u0120gonna","7654":"\u0120Show","7655":"\u0120politely","7656":"Snow","7657":"\u0120spills","7658":"\u0120scarecrow","7659":"\u0120knives","7660":"\u0120evil","7661":"\u0120Mixy","7662":"ppies","7663":"\u0120burying","7664":"ca","7665":"\u0120healing","7666":"\u0120aren","7667":"\u0120donkey","7668":"\u0120aeroplanes","7669":"freeze","7670":"Even","7671":"\u0120seals","7672":"\u0120scattering","7673":"\u0120miles","7674":"\u0120Chewy","7675":"amboo","7676":"\u0120dump","7677":"\u0120worrying","7678":"Bee","7679":"zoom","7680":"beep","7681":"David","7682":"\u0120Lenny","7683":"\u0120puzzled","7684":"\u0120stacked","7685":"\u0120Kip","7686":"Penny","7687":"\u0120Nice","7688":"\u0120loses","7689":"dding","7690":"\u0120travelled","7691":"\u0120baskets","7692":"\u0120Win","7693":"\u0120Okay","7694":"\u0120gazing","7695":"\u0120blast","7696":"ipes","7697":"\u0120Tess","7698":"Hurry","7699":"\u0120temperature","7700":"\u0120und","7701":"\u0120tasting","7702":"\u0120dripping","7703":"\u0120clue","7704":"\u0120believing","7705":"\u0120pinching","7706":"erm","7707":"\u0120soaking","7708":"\u0120rats","7709":"\u012010","7710":"isc","7711":"\u0120sandy","7712":"rect","7713":"\u0120Isn","7714":"\u0120Simon","7715":"rey","7716":"anwhile","7717":"\u0120Abi","7718":"Binky","7719":"\u0120punishment","7720":"\u0120banged","7721":"\u0120humans","7722":"\u0120crashing","7723":"\u0120force","7724":"\u0120Ana","7725":"\u0120hundred","7726":"\u0120gest","7727":"\u0120Lia","7728":"\u0120swimmer","7729":"\u0120Chess","7730":"\u0120snowflakes","7731":"\u0120relaxing","7732":"\u0120resisted","7733":"\u0120beeped","7734":"\u0120Fairy","7735":"\u0120quarreled","7736":"form","7737":"elie","7738":"\u0120ramp","7739":"\u0120Wendy","7740":"\u0120joins","7741":"abby","7742":"\u0120backpacks","7743":"\u0120Ph","7744":"years","7745":"\u0120dressing","7746":"\u0120delayed","7747":"\u0120toddler","7748":"\u0120Luckily","7749":"\u0120flight","7750":"\u0120covering","7751":"\u0120Te","7752":"orter","7753":"Two","7754":"Open","7755":"By","7756":"\u0120encouragement","7757":"\u0120benches","7758":"\u0120toward","7759":"\u0120scraped","7760":"\u0120purpose","7761":"\u0120focus","7762":"\u0120Judy","7763":"Bow","7764":"\u0120correct","7765":"'.\"","7766":"\u0120lipstick","7767":"\u0120bamboo","7768":"Spe","7769":"\u0120twinkled","7770":"\u0120potion","7771":"\u0120permitted","7772":"\u0120months","7773":"\u0120Cow","7774":"\u0120languages","7775":"\u0120orders","7776":"\u0120freedom","7777":"Tony","7778":"\u0120risks","7779":"\u0120poppies","7780":"\u0120master","7781":"shm","7782":"\u0120noodles","7783":"\u0120faded","7784":"\u0120wounds","7785":"shmallow","7786":"rier","7787":"Kids","7788":"isions","7789":"\u0120Jojo","7790":"\u0120creams","7791":"\u0120birdhouse","7792":"\u0120cells","7793":"\u0120annoyed","7794":"\u0120Herb","7795":"opes","7796":"\u0120sniffing","7797":"\u0120cheers","7798":"\u0120adults","7799":"Birdy","7800":"\u0120unwra","7801":"ecca","7802":"Buzzy","7803":"\u0120puck","7804":"\u0120opinions","7805":"\u0120floats","7806":"andas","7807":"Instead","7808":"\u0120flown","7809":"\u0120sneezes","7810":"\u0120scen","7811":"\u0120handsome","7812":"\u0120nodding","7813":"\u0120Mint","7814":"\u0120smelling","7815":"\u0120burnt","7816":"\u01205","7817":"\u0120drifted","7818":"ider","7819":"bage","7820":"\u0120within","7821":"\u0120scient","7822":"\u0120height","7823":"\u0120damaged","7824":"\u0120bothering","7825":"\u0120tearing","7826":"\u0120slither","7827":"\u0120pleaded","7828":"\u0120instruments","7829":"\u0120ease","7830":"\u0120Ali","7831":"da","7832":"Back","7833":"\u0120scientist","7834":"\u0120Marie","7835":"Mira","7836":"Goodnight","7837":"\u0120pound","7838":"\u0120seller","7839":"\u0120handing","7840":"\u0120germ","7841":"\u0120Say","7842":"\u0120wasting","7843":"\u0120files","7844":"\u0120results","7845":"\u0120dreamt","7846":"\u0120Mabel","7847":"bell","7848":"\u0120explains","7849":"\u0120destroying","7850":"\u0120brushing","7851":"ousy","7852":"\u0120hiss","7853":"\u0120characters","7854":"\u0120Razor","7855":"\u0120Cr","7856":"Carl","7857":"\u0120certain","7858":"\u0120Ste","7859":"Pandy","7860":"Behind","7861":"\u0120sweaty","7862":"\u0120Hug","7863":"unched","7864":"\u0120business","7865":"\u0120Robbie","7866":"\u0120talents","7867":"\u0120onward","7868":"Try","7869":"\u0120engines","7870":"\u0120bravest","7871":"ition","7872":"\u0120sternly","7873":"\u0120Pen","7874":"\u0120Janie","7875":"prints","7876":"\u0120postman","7877":"\u0120mosquitoes","7878":"\u0120minds","7879":"under","7880":"cake","7881":"\u0120tuck","7882":"\u0120scares","7883":"urious","7884":"\u0120stomp","7885":"\u0120apologised","7886":"uel","7887":"\u0120manag","7888":"\u0120snuck","7889":"\u0120bitten","7890":"attered","7891":"\u0120tilted","7892":"\u0120switched","7893":"\u0120reminding","7894":"\u0120decisions","7895":"\u0120singers","7896":"\u0120desper","7897":"\u0120behavior","7898":"\u0120Poor","7899":"ashing","7900":"\u0120Judge","7901":"bbers","7902":"inny","7903":"\u0120squeaked","7904":"\u0120peeled","7905":"\u0120Everybody","7906":"\u0120yumm","7907":"\u0120purrs","7908":"\u0120Bra","7909":"\u0120treated","7910":"\u0120smashed","7911":"\u0120rustling","7912":"\u0120displayed","7913":"\u0120Until","7914":"\u0120neatly","7915":"\u0120matey","7916":"\u0120planting","7917":"\u0120Bess","7918":"\u0120marshmallow","7919":"\u0120insp","7920":"\u0120yelped","7921":"\u0120sy","7922":"\u0120grandparents","7923":"\u0120cracks","7924":"\u0120bellies","7925":"aver","7926":"\u0120shines","7927":"\u0120scamp","7928":"\u0120Navy","7929":"\u0120hoo","7930":"\u0120failed","7931":"\u0120coloring","7932":"\u0120Yoga","7933":"line","7934":"\u0120zooms","7935":"\u0120Make","7936":"rup","7937":"\u0120nasty","7938":"\u0120breathing","7939":"\u0120combed","7940":"\u0120pandas","7941":"\u0120despite","7942":"\u0120address","7943":"ighing","7944":"\u0120waterfall","7945":"uffin","7946":"omp","7947":"cc","7948":"\u0120Loop","7949":"\u0120Angel","7950":"Tilly","7951":"\u0120wider","7952":"\u0120robbers","7953":"\u0120antic","7954":"Play","7955":"Abigail","7956":"\u0120sweaters","7957":"\u0120echoed","7958":"\u0120doorway","7959":"\u0120Todd","7960":"evin","7961":"\u0120edges","7962":"\u0120inj","7963":"\u0120Shadow","7964":"Aunt","7965":"\u0120gap","7966":"\u0120disobey","7967":"\u0120Blinky","7968":"wise","7969":"Liz","7970":"\u0120Michael","7971":"\u0120tar","7972":"\u0120Flick","7973":"oscope","7974":"orking","7975":"Wake","7976":"\u0120taped","7977":"\u0120magnif","7978":"ulp","7979":"father","7980":"\u0120scolds","7981":"\u0120flaps","7982":"\u0120action","7983":"\u0120crawls","7984":"\u0120Mindy","7985":"Ros","7986":"\u0120swap","7987":"\u0120gobbled","7988":"\u0120backs","7989":"\u0120Gary","7990":"\u0120warri","7991":"\u0120Fishy","7992":"\u0120Eddie","7993":"Slow","7994":"\u0120steth","7995":"\u0120sever","7996":"\u0120shinier","7997":"\u0120probably","7998":"\u0120newspapers","7999":"\u0120several","8000":"\u0120occ","8001":"Rock","8002":"Lena","8003":"\u0120encount","8004":"\u0120Meg","8005":"\u0120serving","8006":"\u0120quieter","8007":"\u0120plucked","8008":"\u0120connected","8009":"tock","8010":"\u0120Share","8011":"\u0120ouch","8012":"igger","8013":"Ted","8014":"Adam","8015":"\u0120gesture","8016":"Too","8017":"Fl","8018":"\u0120student","8019":"\u0120plot","8020":"\u0120doorbell","8021":"\u0120squaw","8022":"\u0120cares","8023":"fire","8024":"\u0120rescuing","8025":"\u0120grandson","8026":"\u0120Se","8027":"\u0120spy","8028":"\u0120simply","8029":"\u0120rows","8030":"\u0120goo","8031":"iel","8032":"\u0120whistles","8033":"mies","8034":"vant","8035":"Shrink","8036":"Magic","8037":"\u0120snaps","8038":"\u0120shorter","8039":"\u0120astronauts","8040":"ssss","8041":"\u0120unpacking","8042":"\u0120cottage","8043":"\u0120Time","8044":"\u0120swo","8045":"\u0120accidents","8046":"ibi","8047":"\u0120swollen","8048":"\u0120mood","8049":"\u0120Nut","8050":"Steve","8051":"abelle","8052":"\u0120Zippy","8053":"\u0120Mousy","8054":"anie","8055":"Zara","8056":"\u0120bothered","8057":"Hannah","8058":"\u0120stethoscope","8059":"found","8060":"\u0120trusting","8061":"\u0120causing","8062":"Mat","8063":"Mad","8064":"\u0120leapt","8065":"\u0120dresser","8066":"aint","8067":"\u0120sou","8068":"\u0120proper","8069":"\u0120pills","8070":"retty","8071":"\u0120throughout","8072":"Olive","8073":"\u0120runner","8074":"\u0120prayers","8075":"\u0120Dina","8076":"\u0120joyful","8077":"Thomas","8078":"mates","8079":"\u0120locks","8080":"\u0120Prince","8081":"Jamie","8082":"\u0120goats","8083":"what","8084":"\u0120target","8085":"rest","8086":"\u0120Wait","8087":"\u0120Karen","8088":"\u0120dears","8089":"\u0120Bang","8090":"artled","8091":"Red","8092":"\u0120waddled","8093":"\u0120munch","8094":"\u0120flips","8095":"\u0120Cro","8096":"\u0120lowered","8097":"\u0120stepping","8098":"\u0120cons","8099":"\u0120Jackie","8100":"\u0120teachers","8101":"\u0120cowboy","8102":"\u0120Toys","8103":"\u0120inches","8104":"\u0120envelopes","8105":"ears","8106":"\u0120char","8107":"\u0120Vroom","8108":"\u0120explorer","8109":"\u0120anticip","8110":"\u0120playd","8111":"\u0120Ready","8112":"\u0120Ruff","8113":"\u0120Ralph","8114":"unity","8115":"Nice","8116":"Finn","8117":"\u0120Bad","8118":"ening","8119":"\u0120knocking","8120":"\u0120floors","8121":"\u0120efforts","8122":"\u0120Pl","8123":"\u0120uniforms","8124":"lied","8125":"\u0120Tri","8126":"\u0120aware","8127":"\u0120footprints","8128":"Someone","8129":"\u0120nearly","8130":"\u0120Fiona","8131":"llas","8132":"\u0120disc","8133":"\u0120Ria","8134":"ivi","8135":"\u0120whimp","8136":"\u0120trot","8137":"\u0120sens","8138":"\u0120glitt","8139":"\u0120appreciation","8140":"oosh","8141":"\u0120necks","8142":"\u0120collap","8143":"\u0120checks","8144":"\u0120lapt","8145":"\u0120except","8146":"\u0120plug","8147":"\u0120charge","8148":"\u0120Jacky","8149":"\u0120fluttering","8150":"\u0120umbrellas","8151":"\u0120stamped","8152":"acy","8153":"\u0120sandcastles","8154":"\u0120Davey","8155":"\u0120statues","8156":"\u0120Honey","8157":"omb","8158":"iscuit","8159":"ails","8160":"Hoppy","8161":"\u0120shrank","8162":"\u0120Amelia","8163":"rily","8164":"\u0120prick","8165":"\u0120finishing","8166":"\u0120adds","8167":"rons","8168":"\u0120stroll","8169":"\u0120hunters","8170":"\u0120dodged","8171":"\u0120chocolates","8172":"\u0120passengers","8173":"\u0120germs","8174":"oger","8175":"\u0120wrigg","8176":"\u0120aprons","8177":"\u0120aisle","8178":"\u0120sets","8179":".'\"","8180":"\u0120Gerry","8181":"\u0120weeds","8182":"\u0120novels","8183":"order","8184":"\u0120demanding","8185":"\u0120Taking","8186":"\u0120scratching","8187":"\u0120meows","8188":"issa","8189":"Dr","8190":"\u0120nurses","8191":"Lucky","8192":"\u0120minding","8193":"\u0120discussing","8194":"urrender","8195":"\u0120killed","8196":"\u0120driveway","8197":"\u0120Cari","8198":"\u0120becomes","8199":"\u0120toolbox","8200":"\u0120laptop","8201":"\u0120haird","8202":"\u0120Eliz","8203":"\u0120posit","8204":"\u0120attack","8205":"\u0120Sadie","8206":"\u0120Despite","8207":"Speedy","8208":"\u0120Gl","8209":"sol","8210":"\u0120scampered","8211":"\u0120bounces","8212":"\u0120supplied","8213":"\u0120sprays","8214":"\u0120deed","8215":"\u0120tempt","8216":"\u0120suggestion","8217":"\u0120friendships","8218":"\u0120burns","8219":"Coco","8220":"\u0120slapping","8221":"\u0120closing","8222":"Arrr","8223":"\u0120invites","8224":"\u0120belongings","8225":"\u0120anticipation","8226":"\u0120springing","8227":"\u0120form","8228":"\u0120erase","8229":"\u0120cotton","8230":"\u0120Stan","8231":"\u0120twists","8232":"\u0120rays","8233":"\u0120snuggle","8234":"\u0120forgives","8235":"\u0120models","8236":"\u0120shall","8237":"\u0120massages","8238":"\u0120humming","8239":"onnie","8240":"\u0120responded","8241":"\u0120newfound","8242":"\u0120ghosts","8243":"\u0120expecting","8244":"\u0120Shelly","8245":"\u0120cheated","8246":"Does","8247":"\u0120Wooly","8248":"Gigi","8249":"otte","8250":"\u0120traveling","8251":"\u0120Ne","8252":"\u0120cond","8253":"\u0120battle","8254":"\u0120although","8255":"alloween","8256":"\u0120mommies","8257":"\u0120invitations","8258":"\u0120carries","8259":"\u0120aim","8260":"\u0120refreshing","8261":"\u0120presented","8262":"\u0120conc","8263":"hel","8264":"\u0120twenty","8265":"\u0120rowed","8266":"\u0120Bumpy","8267":"ots","8268":"\u0120squir","8269":"rie","8270":"arlotte","8271":"\u0120foxes","8272":"\u0120cooper","8273":"\u0120final","8274":"\u0120duckling","8275":"\u0120cafe","8276":"\u0120Bibi","8277":"Pip","8278":"\u0120marshmallows","8279":"\u0120clicked","8280":"\u0120Zipper","8281":"oor","8282":"\u0120jets","8283":"\u0120designing","8284":"\u0120beaver","8285":"five","8286":"\u0120Muffin","8287":"\u0120Halloween","8288":"\u0120mugs","8289":"\u0120Whoever","8290":"\u0120drown","8291":"\u0120Although","8292":"\u0120tricycle","8293":"\u0120picnics","8294":"\u0120oppos","8295":"\u0120convin","8296":"\u0120Ruth","8297":"\u0120Excited","8298":"iens","8299":"\u0120Cle","8300":"po","8301":"\u0120scoops","8302":"\u0120congratul","8303":"\u0120Pop","8304":"\u0120Maddie","8305":"Sadly","8306":"\u0120\u00e2\u0122\u0136","8307":"\u0120travels","8308":"\u0120aliens","8309":"\u0120tests","8310":"\u0120questioned","8311":"\u0120Speed","8312":"inted","8313":"\u0120strips","8314":"\u0120craft","8315":"Near","8316":"atty","8317":"Mouse","8318":"covered","8319":"\u0120defe","8320":"\u0120Flutter","8321":"\u0120Bubba","8322":"iri","8323":"Br","8324":"\u0120fights","8325":"roken","8326":"Ball","8327":"\u0120opposite","8328":"\u0120Biggy","8329":"Hmm","8330":"Find","8331":"Elly","8332":"Chloe","8333":"\u0120Im","8334":"\u0120rout","8335":"\u0120grandfather","8336":"\u0120encountered","8337":"\u0120afford","8338":"\u0120Never","8339":"\u0120decl","8340":"inch","8341":"\u0120raising","8342":"iment","8343":"\u0120upside","8344":"\u0120Vivi","8345":"Meanwhile","8346":"Jess","8347":"\u0120flashed","8348":"\u0120calmly","8349":"\u0120Rita","8350":"\u0120yawning","8351":"\u0120sincere","8352":"\u0120realizes","8353":"aturday","8354":"Trust","8355":"Choo","8356":"\u0120crystals","8357":"\u0120buddy","8358":"\u0120Samantha","8359":"\u0120cupcakes","8360":"\u0120buckled","8361":"byes","8362":"Both","8363":"\u0120winners","8364":"\u0120defin","8365":"verse","8366":"ris","8367":"',","8368":"\u0120weapons","8369":"\u0120caw","8370":"shadow","8371":"Josh","8372":"\u0120packages","8373":"\u0120cheat","8374":"\u0120Saturday","8375":"\u0120sacks","8376":"\u0120messes","8377":"\u0120goodbyes","8378":"\u0120coach","8379":"\u0120attem","8380":"quet","8381":"\u0120convers","8382":"\u0120Truck","8383":"\u0120Flo","8384":"val","8385":"\u0120drift","8386":"\u0120caps","8387":"\u0120Mina","8388":"\u0120Eva","8389":"emies","8390":"\u0120enemies","8391":"asha","8392":"\u0120yummiest","8393":"\u0120scrub","8394":"\u0120swallow","8395":"\u0120returning","8396":"rian","8397":"\u0120admiration","8398":"\u0120Softy","8399":"\u0120Megan","8400":"Since","8401":"\u0120sprout","8402":"\u0120Louise","8403":"\u0120unable","8404":"\u0120Playing","8405":"\u0120Another","8406":"ugging","8407":"ooks","8408":"\u0120sadder","8409":"\u0120freezing","8410":"\u0120brightest","8411":"\u0120bless","8412":"\u0120Yawn","8413":"\u0120respon","8414":"\u0120Man","8415":"reverse","8416":"\u0120response","8417":"\u0120cosy","8418":"\u0120Oh","8419":"\u0120diamonds","8420":"\u0120bride","8421":"stalk","8422":"\u0120reapp","8423":"\u0120opport","8424":"\u0120honking","8425":"\u0120garbage","8426":"\u0120whispering","8427":"\u0120stretches","8428":"\u0120prevented","8429":"erk","8430":"antastic","8431":"\u0120whoever","8432":"\u0120odd","8433":"\u0120awful","8434":"\u0120Gray","8435":"alth","8436":"\u0120weighs","8437":"\u0120journeys","8438":"\u0120awoke","8439":"Brrr","8440":"\u0120traps","8441":"\u0120spices","8442":"\u0120dragonfly","8443":"off","8444":"\u0120born","8445":"\u0120reassured","8446":"\u0120clip","8447":"ivia","8448":"\u0120stall","8449":"\u0120beanstalk","8450":"\u0120argum","8451":"\u0120examining","8452":"\u0120definitely","8453":"\u0120beetles","8454":"\u0120automobiles","8455":"\u0120Maisy","8456":"mine","8457":"ici","8458":"Hop","8459":"\u0120visitors","8460":"\u0120stuffing","8461":"\u0120playdate","8462":"\u0120washes","8463":"cie","8464":"broken","8465":"\u0120wiser","8466":"\u0120customer","8467":"uper","8468":"emma","8469":"Rachel","8470":"\u0120travelling","8471":"\u0120Sofia","8472":"\u0120Jolly","8473":"\u0120Flop","8474":"ouquet","8475":"\u0120hairdress","8476":"\u0120bouquet","8477":"\u0120Nurse","8478":"orse","8479":"bble","8480":",'","8481":"\u0120tumbled","8482":"\u0120decoration","8483":"\u0120campfire","8484":"\u0120Elle","8485":"\u0120honesty","8486":"\u0120bud","8487":"vy","8488":"ebecca","8489":"Only","8490":"\u0120bomb","8491":"\u0120welcoming","8492":"\u0120offering","8493":"\u0120wealth","8494":"\u0120troubles","8495":"\u0120occas","8496":"\u0120increasing","8497":"\u0120Ot","8498":"\u0120Jax","8499":"\u0120Hello","8500":"\u0120loudest","8501":"\u0120inspired","8502":"\u0120type","8503":"\u0120parted","8504":"\u0120groan","8505":"\u0120Chick","8506":"\u0120Nutty","8507":"irac","8508":"\u0120whales","8509":"\u0120Thunder","8510":"\u0120Ricky","8511":"yl","8512":"\u0120declared","8513":"\u0120correctly","8514":"yler","8515":"ooky","8516":"fus","8517":"\u0120beaks","8518":"\u0120Quacky","8519":"athan","8520":"\u0120cleared","8521":"\u0120cowboys","8522":"\u0120nuzzled","8523":"\u0120Dotty","8524":"\u0120prizes","8525":"\u0120exch","8526":"Finny","8527":"\u0120warmly","8528":"\u0120Missile","8529":"\u0120rewards","8530":"\u0120obeyed","8531":"\u0120customers","8532":"Should","8533":"\u0120sirens","8534":"\u0120comforting","8535":"\u0120Fel","8536":"shaped","8537":"\u0120connect","8538":"\u0120Flappy","8539":"match","8540":"\u0120towns","8541":"\u0120Magic","8542":"\u0120Bingo","8543":"elieve","8544":"\u0120rely","8545":"\u0120Vicky","8546":"Honey","8547":"\u0120trigger","8548":"\u0120owns","8549":"\u0120insisting","8550":"\u0120fantastic","8551":"\u0120bends","8552":"\u0120Fe","8553":"\u0120spoiling","8554":"\u0120hairdresser","8555":"\u0120surrendered","8556":"\u0120supporting","8557":"\u0120shares","8558":"\u0120poses","8559":"\u0120pipes","8560":"\u0120cleans","8561":"rench","8562":"Sun","8563":"Outside","8564":"Julie","8565":"\u0120wrinkled","8566":"\u0120Cook","8567":"\u0120chopped","8568":"\u0120recorder","8569":"\u0120moons","8570":"\u0120beaming","8571":"unes","8572":"ellow","8573":"Beth","8574":"\u0120thanking","8575":"\u0120snowy","8576":"\u0120Wolf","8577":"\u0120scurry","8578":"\u0120experien","8579":"\u0120enjoyable","8580":"\u0120active","8581":"\u0120coral","8582":"\u0120Piggy","8583":"\u0120environ","8584":"\u0120dollar","8585":"\u0120Kevin","8586":"worm","8587":"elope","8588":"\u0120loc","8589":"Je","8590":"\u0120streamers","8591":"\u0120Bub","8592":"udged","8593":"\u0120Patty","8594":"\u0120Mother","8595":"\u0120Zack","8596":"inger","8597":"Suzy","8598":"\u0120examp","8599":"\u0120shorts","8600":"\u0120shooed","8601":"\u0120environment","8602":"Tree","8603":"\u0120ill","8604":"\u0120scent","8605":"\u0120bruises","8606":"uster","8607":"\u0120grat","8608":"\u0120Luc","8609":"Bo","8610":"\u0120hisses","8611":"\u0120steering","8612":"\u0120self","8613":"\u0120plugged","8614":"\u0120Elsa","8615":"\u0120warrior","8616":"\u0120visits","8617":"\u0120exercises","8618":"screen","8619":"irl","8620":"aptain","8621":"\u0120dangers","8622":"\u0120cuddles","8623":"\u0120Rel","8624":"\u0120Min","8625":"\u0120Ar","8626":"\u0120unfortunately","8627":"\u0120squished","8628":"\u0120signing","8629":"\u0120Light","8630":"bee","8631":"Ray","8632":"\u0120pilots","8633":"\u0120disappoint","8634":"munk","8635":"\u0120gratitude","8636":"\u0120applauding","8637":"\u0120providing","8638":"\u0120Moppy","8639":"alf","8640":"\u0120tickles","8641":"\u0120ting","8642":"\u0120Rub","8643":"Grow","8644":"\u0120storms","8645":"\u0120nights","8646":"\u0120jud","8647":"\u0120convinced","8648":"\u0120badger","8649":"\u0120Elsie","8650":"\u0120youn","8651":"\u0120responsib","8652":"\u0120choosing","8653":"\u0120Kelly","8654":"Joy","8655":"\u0120youngest","8656":"\u0120nearest","8657":"\u0120brains","8658":"\u0120activity","8659":"Abby","8660":"\u0120exploded","8661":"\u0120coughed","8662":"\u0120arranged","8663":"Claire","8664":"\u0120rewarding","8665":"\u0120Tre","8666":"\u0120Fly","8667":"pr","8668":"good","8669":"erpiece","8670":"\u0120sunscreen","8671":"\u0120peep","8672":"\u0120bond","8673":"\u0120Floppy","8674":"asers","8675":"Mon","8676":"\u0120Tweety","8677":"\u0120Sweet","8678":"\u0120Katy","8679":"\u0120Joan","8680":"\u0120Sal","8681":"ilities","8682":"\u0120annoying","8683":"sn","8684":"\u0120soapy","8685":"meow","8686":"Splash","8687":"\u0120rails","8688":"\u0120laces","8689":"\u0120threads","8690":"\u0120tapping","8691":"\u0120offic","8692":"\u0120appreciated","8693":"\u0120Pine","8694":"\u0120Phil","8695":"boards","8696":"\u0120weighing","8697":"\u0120heartbroken","8698":"\u0120emerged","8699":"\u0120congratulated","8700":"\u0120Pick","8701":"Danger","8702":"\u0120tin","8703":"\u0120Sil","8704":"\u0120crocodiles","8705":"\u0120clerk","8706":"\u0120scram","8707":"\u0120attempt","8708":"\u0120Nancy","8709":"water","8710":"Ahoy","8711":"\u0120snug","8712":"\u0120messed","8713":"\u0120example","8714":"\u0120dial","8715":"\u0120Kay","8716":"\u0120Any","8717":"Momma","8718":"\u0120hooks","8719":"\u0120Jonny","8720":"\u0120tops","8721":"\u0120chipmunk","8722":"\u0120soot","8723":"\u0120guarding","8724":"\u0120bathed","8725":"\u0120manager","8726":"\u0120Tippy","8727":"ortunately","8728":"\u0120Microscope","8729":"Friends","8730":"\u0120De","8731":"etah","8732":"Snowy","8733":"\u0120masterpiece","8734":"\u0120Baa","8735":"\u0120erasers","8736":"\u0120tips","8737":"\u0120finishes","8738":"\u0120fet","8739":"\u0120common","8740":"\u0120Tomorrow","8741":"mbers","8742":"\u0120trotted","8743":"\u0120nibbled","8744":"\u0120members","8745":"\u0120digs","8746":"People","8747":"\u0120kinder","8748":"\u0120cheetah","8749":"\u0120particularly","8750":"\u0120chews","8751":"\u0120blond","8752":"ircle","8753":"\u0120rips","8754":"\u0120beast","8755":"Lizzy","8756":"\u0120argument","8757":"ative","8758":"\u0120faith","8759":"\u0120Helping","8760":"\u0120earned","8761":"Anne","8762":"\u0120observing","8763":"\u0120forgiveness","8764":"\u0120Joke","8765":"\u0120Cici","8766":"chievous","8767":"\u0120instantly","8768":"\u0120fishes","8769":"\u0120experienced","8770":"\u0120curl","8771":"\u0120cheaper","8772":"\u0120Jumpy","8773":"Rosie","8774":"\u0120mischievous","8775":"\u0120generosity","8776":"\u0120cages","8777":"\u0120Twist","8778":"Gr","8779":"Baa","8780":"\u0120meowing","8781":"\u0120foam","8782":"mered","8783":"Cindy","8784":"\u0120stores","8785":"\u0120grandd","8786":"\u0120Ag","8787":"etchup","8788":"\u0120mattered","8789":"\u0120teles","8790":"\u0120passes","8791":"\u0120limp","8792":"Sque","8793":"\u0120sleeps","8794":"iolet","8795":"\u0120breaths","8796":"ordinary","8797":"ettle","8798":"ending","8799":"\u0120trans","8800":"\u0120rin","8801":"\u0120gasps","8802":"\u0120Freddie","8803":"Got","8804":"\u0120rumbling","8805":"\u0120hatch","8806":"\u0120Momma","8807":"over","8808":"abra","8809":"\u0120grassho","8810":"\u0120accomplished","8811":"\u0120Hopper","8812":"acing","8813":"\u0120thump","8814":"\u0120telescope","8815":"\u0120strum","8816":"\u0120smartest","8817":"\u0120mats","8818":"\u0120whined","8819":"\u0120moat","8820":"Gina","8821":"\u0120scrambled","8822":"\u0120jugg","8823":"\u0120farmers","8824":"\u0120Ice","8825":"\u0120drip","8826":"Robbie","8827":"\u0120syrup","8828":"\u0120gardens","8829":"\u0120collapsed","8830":"\u0120angrily","8831":"\u0120More","8832":"ouraged","8833":"idey","8834":"\u0120vegg","8835":"\u0120styles","8836":"\u0120forests","8837":"\u0120experiences","8838":"\u0120discoveries","8839":"hole","8840":"\u0120tor","8841":"\u0120medals","8842":"\u0120types","8843":"\u0120otters","8844":"\u0120meaning","8845":"\u0120faint","8846":"\u0120conqu","8847":"\u0120Does","8848":"pit","8849":"adabra","8850":"acock","8851":"\u0120snapping","8852":"\u0120hardest","8853":"\u0120fif","8854":"ering","8855":"\u0120movements","8856":"\u0120expression","8857":"\u0120surv","8858":"\u0120chilly","8859":"\u0120bubbly","8860":"\u0120affect","8861":"Pinky","8862":"\u0120vests","8863":"\u0120unfair","8864":"\u0120court","8865":"Whenever","8866":"\u0120toothbrush","8867":"\u0120scores","8868":"\u0120extraordinary","8869":"Never","8870":"\u0120attitude","8871":"\u0120vibr","8872":"\u0120horri","8873":"\u0120bluebird","8874":"\u0120Monkey","8875":"mel","8876":"lls","8877":"Mo","8878":"\u0120spears","8879":"\u0120ketchup","8880":"\u0120Berry","8881":"Mother","8882":"\u0120sooner","8883":"\u0120grasshopper","8884":"\u0120behaviour","8885":"\u0120patches","8886":"\u0120habit","8887":"yd","8888":"erts","8889":"Karen","8890":"\u0120pokes","8891":"\u0120momma","8892":"\u0120afar","8893":"\u0120Ashley","8894":"lo","8895":"ieves","8896":"Jacob","8897":"\u0120thicker","8898":"\u0120scri","8899":"\u0120Friend","8900":"Jon","8901":"\u0120squeezes","8902":"\u0120slithered","8903":"\u0120shrunk","8904":"\u0120classmates","8905":"\u0120Terry","8906":"\u0120Fle","8907":"\u0120icky","8908":"\u0120prickly","8909":"\u0120glittering","8910":"\u0120expert","8911":"\u0120topp","8912":"\u0120kneeling","8913":"\u0120announced","8914":"\u0120Super","8915":"\u0120Riri","8916":"elling","8917":"\u0120peacock","8918":"\u0120marking","8919":"ctric","8920":"\u0120costs","8921":"\u0120Cally","8922":"\u0120Achoo","8923":"\u0120zigzags","8924":"\u0120watermel","8925":"\u0120thieves","8926":"\u0120skirts","8927":"\u0120jumper","8928":"\u0120hood","8929":"\u0120acts","8930":"\u0120Zog","8931":"\u0120App","8932":"\u0120wolves","8933":"\u0120Swim","8934":"\u0120Cloud","8935":"Papa","8936":"\u0120thumbs","8937":"\u0120squeaky","8938":"\u0120concer","8939":"\u0120cocoon","8940":"\u0120woodcut","8941":"\u0120boards","8942":"\u0120Eliza","8943":"\u0120Becky","8944":"\u0120servant","8945":"idence","8946":"affle","8947":"\u0120cheating","8948":"\u0120Jason","8949":"bu","8950":"\u0120trading","8951":"\u0120raking","8952":"cat","8953":"Jessie","8954":"\u0120explaining","8955":"\u0120Eric","8956":"rick","8957":"\u0120tidied","8958":"\u0120biscuit","8959":"\u0120lunchtime","8960":"\u0120luckily","8961":"\u0120Ac","8962":"anced","8963":"Frog","8964":"\u0120Puffy","8965":"\u0120spilling","8966":"\u0120Day","8967":"Fire","8968":"\u0120transform","8969":"\u0120desserts","8970":"\u0120Use","8971":"\u0120Maddy","8972":"\u0120Daniel","8973":"\u0120Animal","8974":"\u00e2\u0122\u00a6","8975":"ror","8976":"\u0120Pig","8977":"\u0120Mine","8978":"\u0120Still","8979":"\u0120Gill","8980":"rough","8981":"amma","8982":"\u0120messages","8983":"\u0120mirac","8984":"\u0120Captain","8985":"idy","8986":"\u0120windowsill","8987":"\u0120chill","8988":"\u0120beating","8989":"\u0120Tammy","8990":"\u0120Lung","8991":"\u0120Gilly","8992":"oot","8993":"\u0120seeking","8994":"\u0120actor","8995":"\u0120Rainbow","8996":"\u0120Lina","8997":"\u0120William","8998":"sess","8999":"its","9000":"\u0120Math","9001":"pril","9002":"Any","9003":"\u0120foreshadow","9004":"war","9005":"acles","9006":"Bluey","9007":"\u0120leans","9008":"\u0120Step","9009":"\u0120Pinch","9010":"\u0120Hi","9011":"racadabra","9012":"Freeze","9013":"Bounce","9014":"\u0120watermelon","9015":"\u0120hissing","9016":"\u0120flashing","9017":"\u0120dev","9018":"\u0120cloths","9019":"\u0120Tiger","9020":"\u0120Monster","9021":"\u0120Frankie","9022":"\u0120winding","9023":"\u0120positive","9024":"\u0120funn","9025":"\u0120discouraged","9026":"\u0120Wil","9027":"pop","9028":"\u0120woodcutter","9029":"\u0120forts","9030":"\u0120dripped","9031":"\u0120compete","9032":"\u0120teapot","9033":"\u0120pressing","9034":"\u0120disagreeing","9035":"icking","9036":"\u0120glimmering","9037":"\u0120veggies","9038":"\u0120trusts","9039":"\u0120tidying","9040":"\u0120kangaroos","9041":"\u0120Peep","9042":"\u0120tempted","9043":"\u0120landing","9044":"\u0120Flora","9045":"\u0120dock","9046":"\u0120shallow","9047":"\u0120overw","9048":"\u0120formed","9049":"lers","9050":"\u0120rack","9051":"\u0120fade","9052":"\u0120Tooth","9053":"flowers","9054":"\u0120worst","9055":"\u0120electric","9056":"\u0120cops","9057":"eling","9058":"Nothing","9059":"\u0120apology","9060":"iving","9061":"creams","9062":"ai","9063":"\u0120sleds","9064":"\u0120Silver","9065":"\u0120Life","9066":"upid","9067":"\u0120comets","9068":"\u0120ass","9069":"Owl","9070":"\u0120sav","9071":"\u0120Shark","9072":"\u0120Mag","9073":"\u0120Jelly","9074":"Bug","9075":"\u0120situations","9076":"\u0120papa","9077":"\u0120officers","9078":"\u0120conversation","9079":"\u01204","9080":"Rain","9081":"\u0120Roger","9082":"\u0120Charlotte","9083":"storm","9084":"aye","9085":"\u0120suns","9086":"\u0120ding","9087":"\u00e2\u0122\u013f,","9088":"\u0120zips","9089":"\u0120structures","9090":"\u0120scurrying","9091":"\u0120pizzas","9092":"\u0120overwhel","9093":"\u0120miller","9094":"\u0120Butter","9095":"\u0120granddaughter","9096":"\u0120foggy","9097":"\u0120Olivia","9098":"\u0120Hurry","9099":"\u0120Amber","9100":"Zoe","9101":"\u0120Janey","9102":"\u0120webs","9103":"\u0120deserved","9104":"Rabbit","9105":"\u0120opportunity","9106":"\u0120cubs","9107":"\u0120Yummy","9108":"\u0120Spidey","9109":"\u0120Sasha","9110":"\u0120Mixie","9111":"\u0120Buster","9112":"\u0120snorted","9113":"\u0120rhino","9114":"\u0120differences","9115":"\u0120Gold","9116":"\u0120quacking","9117":"\u0120Tell","9118":"ifully","9119":"ended","9120":"Fifi","9121":"\u0120heaven","9122":"\u0120Birds","9123":"\u0120unlo","9124":"\u0120levers","9125":"\u0120inchworm","9126":"\u0120inter","9127":"\u0120approach","9128":"\u0120Tyler","9129":"ssess","9130":"\u0120seagulls","9131":"\u0120possess","9132":"\u0120cooperate","9133":"\u0120Rufus","9134":"\u0120Felix","9135":"\u0120Boom","9136":"welcome","9137":"sers","9138":"ragon","9139":"of","9140":"?\u00e2\u0122\u013f.","9141":"andra","9142":"\u0120pose","9143":"\u0120disappointment","9144":"\u0120Smoke","9145":"ocular","9146":"\u0120speaks","9147":"\u0120sneaks","9148":"snap","9149":"\u0120binocular","9150":"\u0120artwork","9151":"\u0120surfed","9152":"\u0120scowl","9153":"\u0120answering","9154":"\u0120Snake","9155":"\u0120shortcut","9156":"\u0120Grand","9157":"\u0120sipped","9158":"\u0120robin","9159":"\u0120dep","9160":"Climb","9161":"\u0120arrest","9162":"\u0120Inky","9163":"ssy","9164":"\u0120unwrapped","9165":"\u0120ribbit","9166":"\u0120reun","9167":"\u0120amused","9168":"\u0120Amanda","9169":"ugar","9170":"\u0120repeats","9171":"\u0120pepperoni","9172":"\u0120applause","9173":"\u0120keyhole","9174":"\u0120checkout","9175":"\u0120Mae","9176":"\u0120Cars","9177":"Lia","9178":"Deal","9179":"\u0120visitor","9180":"\u0120striking","9181":"\u0120puppets","9182":"\u0120paddling","9183":"Eat","9184":"\u0120unz","9185":"\u0120croaked","9186":"\u0120attacked","9187":"\u0120Circle","9188":"\u0120Brian","9189":"orsie","9190":"\u0120spooky","9191":"\u0120Otto","9192":"\u0120Gus","9193":"Each","9194":"\u0120groaned","9195":"\u0120beautifully","9196":"\u0120Jean","9197":"gar","9198":"cidents","9199":"\u0120swimsuits","9200":"\u0120consider","9201":"\u0120checking","9202":"uses","9203":"\u0120Yellow","9204":"jest","9205":"\u0120waters","9206":"\u0120groom","9207":"\u0120Squeak","9208":"\u0120Slinky","9209":"yle","9210":"\u0120invent","9211":"Luke","9212":"\u0120nets","9213":"\u0120exams","9214":"otion","9215":"ets","9216":"\u0120drying","9217":"\u0120Rebecca","9218":"udy","9219":"artin","9220":"agine","9221":"\u0120shrugs","9222":"\u0120lump","9223":"\u0120Auntie","9224":"sie","9225":"lest","9226":"\u0120sobbing","9227":"\u0120shyly","9228":"\u0120shoots","9229":"\u0120honks","9230":"\u0120heels","9231":"\u0120cheerfully","9232":"\u0120Since","9233":"ili","9234":"hny","9235":"esses","9236":"\u0120shh","9237":"\u0120chin","9238":"anish","9239":"\u0120whimpered","9240":"\u0120healthier","9241":"\u0120hangs","9242":"icious","9243":"Milo","9244":"\u0120Mus","9245":"\u0120caterpillars","9246":"izzes","9247":"Slowly","9248":"\u0120squinted","9249":"\u0120magnifying","9250":"\u0120fries","9251":"\u0120Ratty","9252":"\u0120fascinating","9253":"\u0120blamed","9254":"\u0120Find","9255":"ulpture","9256":"ching","9257":"\u0120sculpture","9258":"\u0120frustration","9259":"\u0120Tip","9260":"ouched","9261":"\u0120shimmering","9262":"\u0120Penelope","9263":"\u0120poss","9264":"\u0120Peace","9265":"edic","9266":"Sharing","9267":"\u0120suck","9268":"\u0120pleas","9269":"\u0120numbered","9270":"\u0120nibble","9271":"\u0120Waffle","9272":"othy","9273":"ibbles","9274":"ellie","9275":"amil","9276":"\u0120flowing","9277":"\u0120baa","9278":"hings","9279":"Pepper","9280":"\u0120raked","9281":"\u0120grumbled","9282":"\u0120Off","9283":"that","9284":"Bubbles","9285":"\u0120builder","9286":"racted","9287":"eat","9288":"\u0120swaying","9289":"\u0120petting","9290":"\u0120guards","9291":"\u0120facing","9292":"\u0120Woolly","9293":"\u0120sprinkle","9294":"\u0120mysteries","9295":"\u0120details","9296":"\u0120Har","9297":"sey","9298":"\u0120snort","9299":"\u0120flock","9300":"\u0120enemy","9301":"\u0120Boat","9302":"\u0120textures","9303":"\u0120tablet","9304":"\u0120goodies","9305":"\u0120Curious","9306":"\u0120Barry","9307":"Yesterday","9308":"\u0120wig","9309":"\u0120popping","9310":"\u0120wildflowers","9311":"\u0120stacks","9312":"\u0120marve","9313":"\u0120fans","9314":"\u0120crops","9315":"\u0120countries","9316":"\u0120Jenn","9317":"\u0120Gracie","9318":"how","9319":"\u0120knobs","9320":"\u0120Tessa","9321":"\u0120Seeing","9322":"\u0120local","9323":"\u0120bushy","9324":"\u0120stew","9325":"\u0120peeped","9326":"\u0120hunting","9327":"\u0120drowned","9328":"\u0120bowing","9329":"\u0120binoculars","9330":"\u0120angrier","9331":"\u0120Bubu","9332":"\u0120maps","9333":"\u0120Match","9334":"\u0120quizzes","9335":"\u0120niece","9336":"\u0120moonlight","9337":"\u0120Glow","9338":"\u0120outfits","9339":"\u0120Johnson","9340":"\u0120Deal","9341":"OO","9342":"\u0120whoosh","9343":"\u0120weaker","9344":"\u0120wrench","9345":"\u0120mindful","9346":"\u0120crowded","9347":"cycles","9348":"Squ","9349":"\u0120endings","9350":"\u0120Beef","9351":"oll","9352":"Im","9353":"\u0120property","9354":"\u0120hesitation","9355":"\u0120flashes","9356":"amiliar","9357":"\u0120unless","9358":"\u0120imaginations","9359":"\u0120fond","9360":"\u0120carts","9361":"\u0120boil","9362":"\u0120ability","9363":"\u0120Oxy","9364":"\u0120Andrew","9365":"getic","9366":"\u0120glared","9367":"\u0120Right","9368":"\u0120Accidents","9369":"stand","9370":"\u0120unfamiliar","9371":"\u0120spaces","9372":"\u0120microw","9373":"\u0120knit","9374":"\u0120haven","9375":"\u0120folds","9376":"ths","9377":"saw","9378":"Tuna","9379":"\u0120responsibility","9380":"\u0120dirtier","9381":"\u0120Pet","9382":"bank","9383":"\u0120pouch","9384":"\u0120microwave","9385":"\u0120desks","9386":"ibly","9387":"Bless","9388":"\u0120cracker","9389":"rnie","9390":"\u0120swapped","9391":"\u0120member","9392":"\u0120date","9393":"\u0120aston","9394":"\u0120Oxygen","9395":"\u0120Ring","9396":"\u0120Ravi","9397":"lt","9398":"free","9399":"Want","9400":"Cra","9401":"\u0120whine","9402":"\u0120softened","9403":"\u0120rebu","9404":"\u0120doorstep","9405":"\u0120disappearing","9406":"\u0120Peggy","9407":"\u0120Helen","9408":"\u0120Bun","9409":"\u0120quacks","9410":"\u0120natur","9411":"\u0120Chip","9412":"scar","9413":"\u0120writer","9414":"\u0120listener","9415":"\u0120Too","9416":"\u0120Fix","9417":"\u0120priv","9418":"\u0120blushed","9419":"\u0120Spicy","9420":"venir","9421":"\u0120palms","9422":"\u0120noticing","9423":"upt","9424":"repe","9425":"poison","9426":"\u0120souvenir","9427":"\u0120Past","9428":"repeat","9429":"entr","9430":"\u0120laws","9431":"\u0120disaster","9432":"\u0120Tra","9433":"\u0120Res","9434":"\u0120Gabby","9435":"str","9436":"reg","9437":"endant","9438":"Robby","9439":"\u0120phones","9440":"ala","9441":"Ava","9442":"\u0120confidence","9443":"\u0120Li","9444":"\u0120Coal","9445":"\u0120Cut","9446":"\u0120Bert","9447":"\u0120timid","9448":"\u0120stirs","9449":"\u0120overwhelmed","9450":"ingly","9451":"Being","9452":"\u0120mayor","9453":"\u0120flick","9454":"guess","9455":"asmine","9456":"Che","9457":"\u0120tugging","9458":"\u0120Pretty","9459":"\u0120Mole","9460":"lor","9461":"\u0120untangle","9462":"\u0120satisfa","9463":"\u0120owls","9464":"\u0120mailing","9465":"\u0120injured","9466":"Whose","9467":"\u0120satisfaction","9468":"\u0120concentr","9469":"\u0120White","9470":"\u0120Immediately","9471":"\u0120Books","9472":"Fly","9473":"\u0120March","9474":"\u0120Animals","9475":"mers","9476":"Sc","9477":"Mittens","9478":"\u0120lim","9479":"\u0120Eat","9480":"this","9481":"Mabel","9482":"\u0120prank","9483":"\u0120Wonder","9484":"\u0120Nora","9485":"\u0120Bonnie","9486":"Wiggly","9487":"\u0120hooves","9488":"\u0120Triangle","9489":"\u0120Run","9490":"\u0120Pot","9491":"\u0120Melissa","9492":"\u0120Kn","9493":"well","9494":"Jeff","9495":"\u0120fixer","9496":"\u0120Startled","9497":"\u0120Sir","9498":"\u0120Clean","9499":"\u0120Close","9500":"icate","9501":"\u0120snar","9502":"\u0120clut","9503":"lish","9504":"bling","9505":"Excited","9506":"\u0120skies","9507":"\u0120instrument","9508":"\u0120Trucky","9509":"\u0120capt","9510":"\u0120Matilda","9511":"\u0120Horsie","9512":"\u0120Faye","9513":"adually","9514":"\u0120disagre","9515":"iky","9516":"\u0120wriggled","9517":"\u0120stains","9518":"\u0120rinse","9519":"\u0120pecks","9520":"\u0120creak","9521":"\u0120Sleepy","9522":"Susan","9523":"\u0120shave","9524":"\u0120bumping","9525":"\u0120Sing","9526":"\u0120Icy","9527":"\u0120Heli","9528":"\u0120Crabby","9529":"ulf","9530":"\u0120swirl","9531":"\u0120ruff","9532":"\u0120bending","9533":"cessary","9534":"Playing","9535":"Close","9536":"\u0120sandpit","9537":"\u0120exploration","9538":"\u0120chatted","9539":"\u0120Scissors","9540":"Make","9541":"\u0120rods","9542":"\u0120lever","9543":"\u0120facts","9544":"Sm","9545":"\u0120attaching","9546":"\u0120Candy","9547":"\u0120fooled","9548":"\u0120burger","9549":"\u0120Bro","9550":"\u0120glows","9551":"\u0120concerned","9552":"\u0120clearly","9553":"Maya","9554":"\u0120salon","9555":"\u0120reversing","9556":"\u0120lava","9557":"\u0120compan","9558":"\u0120certainly","9559":"els","9560":"Wally","9561":"\u0120smelt","9562":"\u0120motorcycles","9563":"\u0120fetched","9564":"\u0120circ","9565":"\u0120troll","9566":"\u0120tunes","9567":"\u0120sometime","9568":"\u0120prod","9569":"\u0120oldest","9570":"\u0120fireflies","9571":"Ring","9572":"\u0120kissing","9573":"\u0120challenges","9574":"\u0120blonde","9575":"Kayla","9576":"\u0120warmed","9577":"\u0120Bobbie","9578":"\u0120unlocking","9579":"\u0120natural","9580":"\u0120differently","9581":"\u0120bound","9582":"\u0120Lots","9583":"urple","9584":"sa","9585":"erg","9586":"Tara","9587":"Dino","9588":"Abracadabra","9589":"\u0120rubb","9590":"\u0120riverbank","9591":"\u0120detect","9592":"\u0120cutter","9593":"\u0120cupcake","9594":"\u0120conquered","9595":"\u0120hates","9596":"\u0120alley","9597":"\u0120Flap","9598":"sorry","9599":"\u0120swirls","9600":"\u0120sends","9601":"\u0120realise","9602":"\u0120Open","9603":"\u0120Flopsy","9604":"Julia","9605":"Isn","9606":"\u0120wiggling","9607":"\u0120sensation","9608":"\u0120munched","9609":"\u0120banging","9610":"\u0120Cammy","9611":"\u0120toppings","9612":"\u0120hippos","9613":"\u0120fist","9614":"\u0120clips","9615":"\u0120Reliable","9616":"Doctor","9617":"\u0120swayed","9618":"\u0120stings","9619":"\u0120robe","9620":"\u0120miracle","9621":"\u0120halves","9622":"\u0120brakes","9623":"\u0120Greeny","9624":"Hope","9625":"Fish","9626":"\u0120survive","9627":"\u0120ostriches","9628":"\u0120Pink","9629":"\u0120Climb","9630":"ula","9631":"keepers","9632":"bert","9633":"Michael","9634":"\u0120torto","9635":"\u0120otherwise","9636":"\u0120embra","9637":"\u0120crushed","9638":"\u0120bubbling","9639":"\u0120tents","9640":"\u0120Looking","9641":"ani","9642":"\u0120repairing","9643":"\u0120Of","9644":"\u0120vinegar","9645":"\u0120stretchy","9646":"\u0120rubbish","9647":"\u0120lizards","9648":"\u0120Working","9649":"\u0120Flicker","9650":"\u0120passenger","9651":"\u0120Ed","9652":"aste","9653":"Many","9654":"\u0120vibrant","9655":"\u0120tortoise","9656":"\u0120pounced","9657":"\u0120Which","9658":"Suzie","9659":"\u0120scene","9660":"\u0120Rh","9661":"\u0120Grump","9662":"gr","9663":"\u0120mooed","9664":"\u0120glided","9665":"\u0120desperately","9666":"\u0120bas","9667":"\u0120snip","9668":"\u0120poop","9669":"\u0120majest","9670":"\u0120intently","9671":"\u0120copied","9672":"\u0120calmer","9673":"\u0120Sundays","9674":"\u0120Lightning","9675":"rap","9676":"net","9677":"\u0120woken","9678":"\u0120twel","9679":"\u0120rags","9680":"\u0120judges","9681":"\u0120joyfully","9682":"\u0120jing","9683":"\u0120coolest","9684":"\u0120Per","9685":"smelling","9686":"\u0120lectures","9687":"\u0120glob","9688":"\u0120Jody","9689":"lyn","9690":"isible","9691":"\u0120hips","9692":"\u0120cousins","9693":"\u0120astonished","9694":"\u0120capes","9695":"\u0120Outside","9696":"\u0120Lu","9697":"uno","9698":"Eww","9699":"\u0120successfully","9700":"\u0120speaker","9701":"\u0120reunited","9702":"\u0120invisible","9703":"\u0120guesses","9704":"\u0120gooey","9705":"\u0120arrives","9706":"why","9707":"\u0120twelve","9708":"\u0120bats","9709":"urity","9710":"Mikey","9711":"\u0120goodness","9712":"\u0120computers","9713":"\u0120chatting","9714":"\u0120Carla","9715":"nded","9716":"mie","9717":"\u0120stacking","9718":"\u0120snowflake","9719":"istory","9720":"\u0120reappeared","9721":"\u0120racer","9722":"\u0120pounds","9723":"\u0120parks","9724":"\u0120desperate","9725":"\u0120companion","9726":"\u0120commun","9727":"bed","9728":"Zigzag","9729":"Ol","9730":"\u0120luckiest","9731":"\u0120level","9732":"\u0120dou","9733":"\u0120ank","9734":"\u0120tale","9735":"\u0120stomachs","9736":"\u0120sells","9737":"\u0120gall","9738":"\u0120dumb","9739":"\u0120crickets","9740":"\u0120Sugar","9741":"iggles","9742":"Nick","9743":"\u0120winds","9744":"\u0120sus","9745":"\u0120gates","9746":"\u0120disobeyed","9747":"\u0120disagreement","9748":"\u0120Steven","9749":"hile","9750":"More","9751":"\u0120pearls","9752":"\u0120hoses","9753":"\u0120crisp","9754":"\u0120awhile","9755":"\u0120Whee","9756":"ites","9757":"Lou","9758":"\u0120soda","9759":"\u0120popsic","9760":"\u0120loyalty","9761":"\u0120Orange","9762":"Linda","9763":"\u0120tongues","9764":"\u0120Rosa","9765":"usion","9766":"rent","9767":"\u0120rider","9768":"\u0120CD","9769":"Ooh","9770":"\u0120Black","9771":"pan","9772":"\u0120surely","9773":"\u0120abo","9774":"\u0120Law","9775":"\u0120Annabelle","9776":"des","9777":"colored","9778":"\u0120occasion","9779":"\u0120bund","9780":"rum","9781":"izza","9782":"dog","9783":"!\u00e2\u0122\u013b","9784":"\u0120stun","9785":"\u0120guitars","9786":"\u0120chicks","9787":"chief","9788":"\u0120separating","9789":"\u0120seashe","9790":"\u0120rebuild","9791":"\u0120intelligence","9792":"\u0120alligators","9793":"\u0120aboard","9794":"\u0120Raven","9795":"\u0120Iron","9796":"\u0120April","9797":"Found","9798":"\u0120croak","9799":"\u0120creep","9800":"\u0120Winky","9801":"\u0120Violet","9802":"aids","9803":"Something","9804":"Catch","9805":"\u0120learner","9806":"\u0120caution","9807":"\u0120cuc","9808":"\u0120Old","9809":"\u0120Care","9810":"solut","9811":"\u0120whines","9812":"\u0120spiky","9813":"\u0120revealing","9814":"\u0120rins","9815":"\u0120Uni","9816":"working","9817":"\u0120tickling","9818":"\u0120escap","9819":"\u0120Settle","9820":"\u0120underwater","9821":"\u0120globe","9822":"\u0120crouched","9823":"\u0120Roar","9824":"\u0120Coby","9825":"\u0120Ba","9826":"udge","9827":"everse","9828":"!'.","9829":"\u0120prog","9830":"\u0120blooms","9831":"\u0120appearance","9832":"\u0120''","9833":"urricane","9834":"stop","9835":"seph","9836":"ifer","9837":"fived","9838":"Jan","9839":"\u0120strokes","9840":"\u0120leaking","9841":"\u0120hatched","9842":"\u0120guardian","9843":"\u0120Socky","9844":"ealing","9845":"arning","9846":"\u0120zookeepers","9847":"\u0120tant","9848":"\u0120routine","9849":"\u0120persistence","9850":"\u0120doves","9851":"Snap","9852":"Sleep","9853":"Chicky","9854":"\u0120taps","9855":"\u0120squashes","9856":"\u0120quilt","9857":"\u0120painful","9858":"\u0120lighting","9859":"\u0120blame","9860":"\u0120admit","9861":"Toys","9862":"Ahh","9863":"\u0120tempting","9864":"\u0120shattered","9865":"\u0120ripp","9866":"\u0120mold","9867":"\u0120deeply","9868":"\u0120Puff","9869":"ggles","9870":"Three","9871":"Ralph","9872":"Matt","9873":"\u0120throne","9874":"\u0120squirted","9875":"\u0120security","9876":"\u0120peeks","9877":"\u0120electricity","9878":"\u0120centre","9879":"\u0120burgers","9880":"\u0120Spin","9881":"emon","9882":"con","9883":"\u0120realizing","9884":"\u0120cooks","9885":"\u0120allowing","9886":"\u0120Liam","9887":"ushes","9888":"orth","9889":"oss","9890":"cker","9891":"Jessica","9892":"\u0120lar","9893":"\u0120exchange","9894":"\u0120chopping","9895":"Share","9896":"Sophia","9897":"\u0120sweetly","9898":"\u0120Race","9899":"\u0120Quickly","9900":"\u0120Alf","9901":"vering","9902":"\u0120sweeter","9903":"\u0120rinsed","9904":"\u0120glittered","9905":"isapp","9906":"Zero","9907":"Sw","9908":"\u0120melts","9909":"\u0120melody","9910":"\u0120goggles","9911":"\u0120furious","9912":"\u0120energetic","9913":"\u0120defeated","9914":"\u0120builders","9915":"\u0120Inch","9916":"asy","9917":"\u0120waded","9918":"\u0120tantrum","9919":"\u0120sniffled","9920":"\u0120chooses","9921":"\u0120Otherwise","9922":"\u0120Cats","9923":"\u0120Comet","9924":"\u0120container","9925":"\u0120competing","9926":"\u0120Giant","9927":"eremy","9928":"bang","9929":"\u0120Sharp","9930":"\u0120Mila","9931":"arted","9932":"\u0120undone","9933":"\u0120seriously","9934":"\u0120protection","9935":"\u0120larger","9936":"\u0120lull","9937":"\u0120hudd","9938":"\u0120attempts","9939":"\u0120Rara","9940":"\u0120Park","9941":"\u0120Duke","9942":"Shoo","9943":"Lizzie","9944":"\u0120tossing","9945":"\u0120helicopters","9946":"\u0120cooed","9947":"\u0120cluck","9948":"\u0120buckles","9949":"\u0120Whale","9950":"\u0120Pinchy","9951":"\u0120Cher","9952":"Sweet","9953":"\u0120Tears","9954":"\u0120Smo","9955":"\u0120Over","9956":"solutely","9957":"Still","9958":"Squeaky","9959":"\u0120hummed","9960":"\u0120dedic","9961":"\u0120courageous","9962":"\u0120Ma","9963":"\u0120Hor","9964":"\u0120Din","9965":"Maddy","9966":"Everything","9967":"Curious","9968":"\u0120racers","9969":"\u0120patients","9970":"\u0120muster","9971":"\u0120god","9972":"\u0120deserves","9973":"\u0120aloud","9974":"\u0120Things","9975":"aps","9976":"Use","9977":"\u0120Squee","9978":"\u0120Dragon","9979":"\u0120tours","9980":"\u0120meets","9981":"\u0120marvel","9982":"\u0120Rusty","9983":"\u0120Liza","9984":"\u0120Jet","9985":"Froggy","9986":"\u0120wrapper","9987":"\u0120Reddy","9988":"\u0120Hops","9989":"\u0120Crusty","9990":"\u0120whiskers","9991":"\u0120nicest","9992":"\u0120improving","9993":"\u0120booth","9994":"\u0120Land","9995":"Surrender","9996":"Rocky","9997":"\u0120meadows","9998":"\u0120imaginary","9999":"\u0120bold"}